{
  "version": "1.0",
  "truncation": null,
  "padding": null,
  "added_tokens": [
    {
      "id": 0,
      "content": "<PAD>",
      "single_word": false,
      "lstrip": false,
      "rstrip": false,
      "normalized": false,
      "special": true
    },
    {
      "id": 1,
      "content": "<UNK>",
      "single_word": false,
      "lstrip": false,
      "rstrip": false,
      "normalized": false,
      "special": true
    },
    {
      "id": 2,
      "content": "<BOS>",
      "single_word": false,
      "lstrip": false,
      "rstrip": false,
      "normalized": false,
      "special": true
    },
    {
      "id": 3,
      "content": "<EOS>",
      "single_word": false,
      "lstrip": false,
      "rstrip": false,
      "normalized": false,
      "special": true
    },
    {
      "id": 4,
      "content": "<ACT>",
      "single_word": false,
      "lstrip": false,
      "rstrip": false,
      "normalized": false,
      "special": true
    },
    {
      "id": 5,
      "content": "<FUNC>",
      "single_word": false,
      "lstrip": false,
      "rstrip": false,
      "normalized": false,
      "special": true
    },
    {
      "id": 6,
      "content": "<STAT>",
      "single_word": false,
      "lstrip": false,
      "rstrip": false,
      "normalized": false,
      "special": true
    }
  ],
  "normalizer": null,
  "pre_tokenizer": {
    "type": "ByteLevel",
    "add_prefix_space": false,
    "trim_offsets": true,
    "use_regex": true
  },
  "post_processor": {
    "type": "TemplateProcessing",
    "single": [
      {
        "SpecialToken": {
          "id": "<BOS>",
          "type_id": 0
        }
      },
      {
        "Sequence": {
          "id": "A",
          "type_id": 0
        }
      },
      {
        "SpecialToken": {
          "id": "<EOS>",
          "type_id": 0
        }
      }
    ],
    "pair": [
      {
        "Sequence": {
          "id": "A",
          "type_id": 0
        }
      },
      {
        "Sequence": {
          "id": "B",
          "type_id": 1
        }
      }
    ],
    "special_tokens": {
      "<BOS>": {
        "id": "<BOS>",
        "ids": [
          2
        ],
        "tokens": [
          "<BOS>"
        ]
      },
      "<EOS>": {
        "id": "<EOS>",
        "ids": [
          3
        ],
        "tokens": [
          "<EOS>"
        ]
      }
    }
  },
  "decoder": {
    "type": "ByteLevel",
    "add_prefix_space": true,
    "trim_offsets": true,
    "use_regex": true
  },
  "model": {
    "type": "BPE",
    "dropout": null,
    "unk_token": null,
    "continuing_subword_prefix": null,
    "end_of_word_suffix": null,
    "fuse_unk": false,
    "byte_fallback": false,
    "ignore_merges": false,
    "vocab": {
      "<PAD>": 0,
      "<UNK>": 1,
      "<BOS>": 2,
      "<EOS>": 3,
      "<ACT>": 4,
      "<FUNC>": 5,
      "<STAT>": 6,
      "!": 7,
      "\"": 8,
      "#": 9,
      "$": 10,
      "%": 11,
      "&": 12,
      "'": 13,
      "(": 14,
      ")": 15,
      "*": 16,
      "+": 17,
      ",": 18,
      "-": 19,
      ".": 20,
      "/": 21,
      "0": 22,
      "1": 23,
      "2": 24,
      "3": 25,
      "4": 26,
      "5": 27,
      "6": 28,
      "7": 29,
      "8": 30,
      "9": 31,
      ":": 32,
      ";": 33,
      "<": 34,
      "=": 35,
      ">": 36,
      "?": 37,
      "@": 38,
      "A": 39,
      "B": 40,
      "C": 41,
      "D": 42,
      "E": 43,
      "F": 44,
      "G": 45,
      "H": 46,
      "I": 47,
      "J": 48,
      "K": 49,
      "L": 50,
      "M": 51,
      "N": 52,
      "O": 53,
      "P": 54,
      "Q": 55,
      "R": 56,
      "S": 57,
      "T": 58,
      "U": 59,
      "V": 60,
      "W": 61,
      "X": 62,
      "Y": 63,
      "Z": 64,
      "[": 65,
      "\\": 66,
      "]": 67,
      "^": 68,
      "_": 69,
      "`": 70,
      "a": 71,
      "b": 72,
      "c": 73,
      "d": 74,
      "e": 75,
      "f": 76,
      "g": 77,
      "h": 78,
      "i": 79,
      "j": 80,
      "k": 81,
      "l": 82,
      "m": 83,
      "n": 84,
      "o": 85,
      "p": 86,
      "q": 87,
      "r": 88,
      "s": 89,
      "t": 90,
      "u": 91,
      "v": 92,
      "w": 93,
      "x": 94,
      "y": 95,
      "z": 96,
      "{": 97,
      "|": 98,
      "}": 99,
      "~": 100,
      "¡": 101,
      "¢": 102,
      "£": 103,
      "¤": 104,
      "¥": 105,
      "¦": 106,
      "§": 107,
      "¨": 108,
      "©": 109,
      "ª": 110,
      "«": 111,
      "¬": 112,
      "®": 113,
      "¯": 114,
      "°": 115,
      "±": 116,
      "²": 117,
      "³": 118,
      "´": 119,
      "µ": 120,
      "¶": 121,
      "·": 122,
      "¸": 123,
      "¹": 124,
      "º": 125,
      "»": 126,
      "¼": 127,
      "½": 128,
      "¾": 129,
      "¿": 130,
      "À": 131,
      "Á": 132,
      "Â": 133,
      "Ã": 134,
      "Ä": 135,
      "Å": 136,
      "Æ": 137,
      "Ç": 138,
      "È": 139,
      "É": 140,
      "Ê": 141,
      "Ë": 142,
      "Ì": 143,
      "Í": 144,
      "Î": 145,
      "Ï": 146,
      "Ð": 147,
      "Ñ": 148,
      "Ò": 149,
      "Ó": 150,
      "Ô": 151,
      "Õ": 152,
      "Ö": 153,
      "×": 154,
      "Ø": 155,
      "Ù": 156,
      "Ú": 157,
      "Û": 158,
      "Ü": 159,
      "Ý": 160,
      "Þ": 161,
      "ß": 162,
      "à": 163,
      "á": 164,
      "â": 165,
      "ã": 166,
      "ä": 167,
      "å": 168,
      "æ": 169,
      "ç": 170,
      "è": 171,
      "é": 172,
      "ê": 173,
      "ë": 174,
      "ì": 175,
      "í": 176,
      "î": 177,
      "ï": 178,
      "ð": 179,
      "ñ": 180,
      "ò": 181,
      "ó": 182,
      "ô": 183,
      "õ": 184,
      "ö": 185,
      "÷": 186,
      "ø": 187,
      "ù": 188,
      "ú": 189,
      "û": 190,
      "ü": 191,
      "ý": 192,
      "þ": 193,
      "ÿ": 194,
      "Ā": 195,
      "ā": 196,
      "Ă": 197,
      "ă": 198,
      "Ą": 199,
      "ą": 200,
      "Ć": 201,
      "ć": 202,
      "Ĉ": 203,
      "ĉ": 204,
      "Ċ": 205,
      "ċ": 206,
      "Č": 207,
      "č": 208,
      "Ď": 209,
      "ď": 210,
      "Đ": 211,
      "đ": 212,
      "Ē": 213,
      "ē": 214,
      "Ĕ": 215,
      "ĕ": 216,
      "Ė": 217,
      "ė": 218,
      "Ę": 219,
      "ę": 220,
      "Ě": 221,
      "ě": 222,
      "Ĝ": 223,
      "ĝ": 224,
      "Ğ": 225,
      "ğ": 226,
      "Ġ": 227,
      "ġ": 228,
      "Ģ": 229,
      "ģ": 230,
      "Ĥ": 231,
      "ĥ": 232,
      "Ħ": 233,
      "ħ": 234,
      "Ĩ": 235,
      "ĩ": 236,
      "Ī": 237,
      "ī": 238,
      "Ĭ": 239,
      "ĭ": 240,
      "Į": 241,
      "į": 242,
      "İ": 243,
      "ı": 244,
      "Ĳ": 245,
      "ĳ": 246,
      "Ĵ": 247,
      "ĵ": 248,
      "Ķ": 249,
      "ķ": 250,
      "ĸ": 251,
      "Ĺ": 252,
      "ĺ": 253,
      "Ļ": 254,
      "ļ": 255,
      "Ľ": 256,
      "ľ": 257,
      "Ŀ": 258,
      "ŀ": 259,
      "Ł": 260,
      "ł": 261,
      "Ń": 262,
      "lo": 263,
      "ow": 264,
      "ad": 265,
      "own": 266,
      "down": 267,
      "load": 268,
      "download": 269,
      "se": 270,
      "in": 271,
      "ar": 272,
      "ing": 273,
      "ting": 274,
      "set": 275,
      "setting": 276,
      "settings": 277,
      "ch": 278,
      "arch": 279,
      "search": 280,
      "me": 281,
      "re": 282,
      "te": 283,
      "on": 284,
      "le": 285,
      "sh": 286,
      "st": 287,
      "at": 288,
      "or": 289,
      "ck": 290,
      "de": 291,
      "la": 292,
      "clo": 293,
      "men": 294,
      "fi": 295,
      "er": 296,
      "it": 297,
      "ro": 298,
      "ion": 299,
      "ge": 300,
      "ne": 301,
      "menu": 302,
      "ic": 303,
      "ma": 304,
      "close": 305,
      "lay": 306,
      "an": 307,
      "vi": 308,
      "el": 309,
      "ct": 310,
      "li": 311,
      "file": 312,
      "ue": 313,
      "pe": 314,
      "il": 315,
      "oo": 316,
      "al": 317,
      "un": 318,
      "ra": 319,
      "ark": 320,
      "ho": 321,
      "mark": 322,
      "ss": 323,
      "Ġc": 324,
      "art": 325,
      "Ġp": 326,
      "Ġsettings": 327,
      "mail": 328,
      "add": 329,
      "are": 330,
      "ack": 331,
      "ter": 332,
      "play": 333,
      "us": 334,
      "we": 335,
      "uest": 336,
      "quest": 337,
      "si": 338,
      "bo": 339,
      "ed": 340,
      "ut": 341,
      "che": 342,
      "up": 343,
      "check": 344,
      "co": 345,
      "ew": 346,
      "home": 347,
      "ex": 348,
      "use": 349,
      "share": 350,
      "view": 351,
      "pen": 352,
      "question": 353,
      "xt": 354,
      "checkmark": 355,
      "open": 356,
      "email": 357,
      "age": 358,
      "ard": 359,
      "ers": 360,
      "ate": 361,
      "back": 362,
      "of": 363,
      "ac": 364,
      "kn": 365,
      "ri": 366,
      "unkn": 367,
      "user": 368,
      "unknown": 369,
      "gn": 370,
      "to": 371,
      "exp": 372,
      "hel": 373,
      "wor": 374,
      "board": 375,
      "help": 376,
      "ale": 377,
      "con": 378,
      "go": 379,
      "vo": 380,
      "next": 381,
      "mic": 382,
      "Ġb": 383,
      "ve": 384,
      "ath": 385,
      "itor": 386,
      "micro": 387,
      "fo": 388,
      "layers": 389,
      "weath": 390,
      "sign": 391,
      "weather": 392,
      "cu": 393,
      "rin": 394,
      "wi": 395,
      "ation": 396,
      "and": 397,
      "pro": 398,
      "tra": 399,
      "mer": 400,
      "sof": 401,
      "soft": 402,
      "as": 403,
      "ti": 404,
      "ub": 405,
      "ud": 406,
      "edit": 407,
      "ce": 408,
      "he": 409,
      "Ġpro": 410,
      "microsoft": 411,
      "cre": 412,
      "Ġs": 413,
      "trash": 414,
      "ame": 415,
      "cel": 416,
      "log": 417,
      "review": 418,
      "mon": 419,
      "no": 420,
      "chat": 421,
      "cloud": 422,
      "can": 423,
      "di": 424,
      "ect": 425,
      "ment": 426,
      "hi": 427,
      "sa": 428,
      "ta": 429,
      "nect": 430,
      "monitor": 431,
      "ject": 432,
      "nt": 433,
      "prin": 434,
      "expand": 435,
      "iss": 436,
      "pp": 437,
      "too": 438,
      "new": 439,
      "lide": 440,
      "connect": 441,
      "merge": 442,
      "ash": 443,
      "nd": 444,
      "show": 445,
      "map": 446,
      "arr": 447,
      "cancel": 448,
      "gle": 449,
      "th": 450,
      "ts": 451,
      "cation": 452,
      "dash": 453,
      "en": 454,
      "issue": 455,
      "dashboard": 456,
      "mus": 457,
      "ure": 458,
      "design": 459,
      "ook": 460,
      "all": 461,
      "music": 462,
      "gh": 463,
      "ke": 464,
      "lu": 465,
      "mo": 466,
      "ui": 467,
      "Ġst": 468,
      "project": 469,
      "ght": 470,
      "book": 471,
      "fa": 472,
      "out": 473,
      "plo": 474,
      "Ġin": 475,
      "ref": 476,
      "deplo": 477,
      "heart": 478,
      "deploy": 479,
      "es": 480,
      "ity": 481,
      "save": 482,
      "print": 483,
      "issues": 484,
      "lin": 485,
      "mit": 486,
      "po": 487,
      "zoo": 488,
      "Ġf": 489,
      "resh": 490,
      "ata": 491,
      "wik": 492,
      "create": 493,
      "refresh": 494,
      "zoom": 495,
      "cut": 496,
      "do": 497,
      "ls": 498,
      "mu": 499,
      "lock": 500,
      "ory": 501,
      "work": 502,
      "ubmit": 503,
      "wiki": 504,
      "br": 505,
      "cale": 506,
      "git": 507,
      "pre": 508,
      "ze": 509,
      "Ġto": 510,
      "star": 511,
      "net": 512,
      "Ġcd": 513,
      "upload": 514,
      "date": 515,
      "eting": 516,
      "pas": 517,
      "Ġre": 518,
      "downvo": 519,
      "sha": 520,
      "ict": 521,
      "ell": 522,
      "light": 523,
      "web": 524,
      "volu": 525,
      "cess": 526,
      "mute": 527,
      "paste": 528,
      "downvote": 529,
      "volume": 530,
      "cal": 531,
      "ld": 532,
      "min": 533,
      "op": 534,
      "one": 535,
      "story": 536,
      "vide": 537,
      "unt": 538,
      "rating": 539,
      "marketing": 540,
      "Ġprofile": 541,
      "history": 542,
      "tools": 543,
      "ndar": 544,
      "app": 545,
      "ble": 546,
      "came": 547,
      "ore": 548,
      "ous": 549,
      "lor": 550,
      "ower": 551,
      "ort": 552,
      "ange": 553,
      "vious": 554,
      "lip": 555,
      "ackage": 556,
      "acco": 557,
      "world": 558,
      "calendar": 559,
      "previous": 560,
      "shape": 561,
      "video": 562,
      "camera": 563,
      "ul": 564,
      "Ġg": 565,
      "int": 566,
      "rec": 567,
      "ction": 568,
      "rite": 569,
      "note": 570,
      "arrange": 571,
      "account": 572,
      "package": 573,
      "slide": 574,
      "write": 575,
      "Ġup": 576,
      "ont": 577,
      "noti": 578,
      "ase": 579,
      "bell": 580,
      "ci": 581,
      "font": 582,
      "ggle": 583,
      "qui": 584,
      "Ġ1": 585,
      "fication": 586,
      "access": 587,
      "Ġslide": 588,
      "notification": 589,
      "clip": 590,
      "gu": 591,
      "ph": 592,
      "power": 593,
      "rss": 594,
      "sun": 595,
      "sale": 596,
      "Ġfile": 597,
      "Ġissues": 598,
      "info": 599,
      "ator": 600,
      "lan": 601,
      "get": 602,
      "ics": 603,
      "Ġcart": 604,
      "color": 605,
      "cul": 606,
      "dia": 607,
      "dis": 608,
      "network": 609,
      "sales": 610,
      "by": 611,
      "ball": 612,
      "gri": 613,
      "game": 614,
      "ir": 615,
      "ll": 616,
      "ni": 617,
      "pict": 618,
      "submit": 619,
      "ver": 620,
      "Ġsearch": 621,
      "Ġof": 622,
      "Ġmo": 623,
      "ary": 624,
      "tem": 625,
      "text": 626,
      "sho": 627,
      "atter": 628,
      "key": 629,
      "atalog": 630,
      "culator": 631,
      "grid": 632,
      "picture": 633,
      "attery": 634,
      "pa": 635,
      "per": 636,
      "ug": 637,
      "wh": 638,
      "yle": 639,
      "Ġd": 640,
      "Ġme": 641,
      "ind": 642,
      "chart": 643,
      "tent": 644,
      "layout": 645,
      "list": 646,
      "hoto": 647,
      "size": 648,
      "update": 649,
      "opensearch": 650,
      "time": 651,
      "table": 652,
      "pping": 653,
      "arrow": 654,
      "shapes": 655,
      "byte": 656,
      "Ġmode": 657,
      "aut": 658,
      "df": 659,
      "lla": 660,
      "photo": 661,
      "pdf": 662,
      "rt": 663,
      "ur": 664,
      "ush": 665,
      "Ġi": 666,
      "Ġshow": 667,
      "Ġarrow": 668,
      "sele": 669,
      "der": 670,
      "hot": 671,
      "ace": 672,
      "users": 673,
      "cument": 674,
      "login": 675,
      "Ġstore": 676,
      "document": 677,
      "brush": 678,
      "quick": 679,
      "clipboard": 680,
      "guage": 681,
      "phone": 682,
      "language": 683,
      "shopping": 684,
      "keyboard": 685,
      "yles": 686,
      "bil": 687,
      "battery": 688,
      "cart": 689,
      "face": 690,
      "hub": 691,
      "Ġan": 692,
      "Ġed": 693,
      "lore": 694,
      "location": 695,
      "ions": 696,
      "Ġpa": 697,
      "box": 698,
      "com": 699,
      "toggle": 700,
      "explore": 701,
      "word": 702,
      "hide": 703,
      "tag": 704,
      "github": 705,
      "calculator": 706,
      "bility": 707,
      "ag": 708,
      "bug": 709,
      "et": 710,
      "lue": 711,
      "ror": 712,
      "um": 713,
      "ual": 714,
      "Ġhelp": 715,
      "secu": 716,
      "rop": 717,
      "man": 718,
      "oogle": 719,
      "Ġci": 720,
      "agent": 721,
      "tooth": 722,
      "eng": 723,
      "point": 724,
      "videos": 725,
      "why": 726,
      "auto": 727,
      "Ġedge": 728,
      "luetooth": 729,
      "ep": 730,
      "find": 731,
      "ile": 732,
      "ks": 733,
      "pin": 734,
      "sle": 735,
      "sitor": 736,
      "wa": 737,
      "wit": 738,
      "ys": 739,
      "Ġmenu": 740,
      "Ġhistory": 741,
      "Ġaccount": 742,
      "Ġagent": 743,
      "send": 744,
      "chro": 745,
      "media": 746,
      "read": 747,
      "ten": 748,
      "tection": 749,
      "ord": 750,
      "lab": 751,
      "clock": 752,
      "lish": 753,
      "Ġcon": 754,
      "Ġprin": 755,
      "colla": 756,
      "export": 757,
      "alert": 758,
      "Ġbla": 759,
      "fol": 760,
      "Ġprotection": 761,
      "Ġsubmit": 762,
      "printer": 763,
      "positor": 764,
      "photos": 765,
      "select": 766,
      "english": 767,
      "sleep": 768,
      "chrome": 769,
      "Ġprinter": 770,
      "pository": 771,
      "act": 772,
      "air": 773,
      "dra": 774,
      "drop": 775,
      "fy": 776,
      "google": 777,
      "iv": 778,
      "msun": 779,
      "pse": 780,
      "sual": 781,
      "the": 782,
      "Ġa": 783,
      "Ġmark": 784,
      "Ġdis": 785,
      "repository": 786,
      "ature": 787,
      "fil": 788,
      "roup": 789,
      "ice": 790,
      "visual": 791,
      "libr": 792,
      "Ġco": 793,
      "samsun": 794,
      "enter": 795,
      "lines": 796,
      "Ġfiles": 797,
      "Ġide": 798,
      "facebook": 799,
      "comment": 800,
      "collapse": 801,
      "folder": 802,
      "activ": 803,
      "library": 804,
      "samsung": 805,
      "activity": 806,
      "am": 807,
      "ap": 808,
      "bluetooth": 809,
      "cle": 810,
      "catalog": 811,
      "ibility": 812,
      "ify": 813,
      "ly": 814,
      "mil": 815,
      "py": 816,
      "por": 817,
      "so": 818,
      "sys": 819,
      "yt": 820,
      "Ġde": 821,
      "Ġdashboard": 822,
      "Ġui": 823,
      "Ġexplore": 824,
      "low": 825,
      "local": 826,
      "ins": 827,
      "res": 828,
      "reet": 829,
      "tell": 830,
      "str": 831,
      "start": 832,
      "street": 833,
      "ori": 834,
      "deve": 835,
      "fire": 836,
      "gen": 837,
      "ical": 838,
      "alyt": 839,
      "ssage": 840,
      "Ġcatalog": 841,
      "Ġcenter": 842,
      "excel": 843,
      "openstreet": 844,
      "content": 845,
      "Ġproject": 846,
      "famil": 847,
      "line": 848,
      "ulb": 849,
      "record": 850,
      "accessibility": 851,
      "powerpoint": 852,
      "games": 853,
      "brushes": 854,
      "manage": 855,
      "Ġblaze": 856,
      "filter": 857,
      "ports": 858,
      "system": 859,
      "Ġexplorer": 860,
      "develo": 861,
      "openstreetmap": 862,
      "family": 863,
      "36": 864,
      "ast": 865,
      "cus": 866,
      "cri": 867,
      "dark": 868,
      "dict": 869,
      "eed": 870,
      "ff": 871,
      "ip": 872,
      "ist": 873,
      "na": 874,
      "omer": 875,
      "ps": 876,
      "tate": 877,
      "tball": 878,
      "tur": 879,
      "tions": 880,
      "vori": 881,
      "wing": 882,
      "ycle": 883,
      "Ġle": 884,
      "Ġand": 885,
      "Ġmonitor": 886,
      "Ġ36": 887,
      "arn": 888,
      "styles": 889,
      "stomer": 890,
      "atist": 891,
      "fice": 892,
      "rotate": 893,
      "ionary": 894,
      "peop": 895,
      "Ġplay": 896,
      "usb": 897,
      "Ġbin": 898,
      "microphone": 899,
      "focus": 900,
      "wifi": 901,
      "tips": 902,
      "crease": 903,
      "thon": 904,
      "Ġstyles": 905,
      "bookmark": 906,
      "faile": 907,
      "favori": 908,
      "outline": 909,
      "Ġinfo": 910,
      "Ġfor": 911,
      "created": 912,
      "mind": 913,
      "options": 914,
      "recycle": 915,
      "notes": 916,
      "Ġoffice": 917,
      "temper": 918,
      "Ġpane": 919,
      "tags": 920,
      "umb": 921,
      "secure": 922,
      "Ġcontent": 923,
      "airdrop": 924,
      "python": 925,
      "resul": 926,
      "alytics": 927,
      "turn": 928,
      "Ġ365": 929,
      "stomers": 930,
      "atistics": 931,
      "people": 932,
      "failed": 933,
      "favorite": 934,
      "temperature": 935,
      "av": 936,
      "be": 937,
      "base": 938,
      "data": 939,
      "ft": 940,
      "foo": 941,
      "group": 942,
      "lic": 943,
      "mir": 944,
      "name": 945,
      "pi": 946,
      "pment": 947,
      "qu": 948,
      "sk": 949,
      "swit": 950,
      "scri": 951,
      "uct": 952,
      "vice": 953,
      "Ġview": 954,
      "Ġquestion": 955,
      "Ġtime": 956,
      "Ġchrome": 957,
      "Ġmanage": 958,
      "Ġoptions": 959,
      "logo": 960,
      "inst": 961,
      "inter": 962,
      "inbox": 963,
      "return": 964,
      "only": 965,
      "shell": 966,
      "stop": 967,
      "lass": 968,
      "error": 969,
      "icon": 970,
      "icip": 971,
      "main": 972,
      "magn": 973,
      "vir": 974,
      "pedia": 975,
      "allow": 976,
      "ram": 977,
      "ssword": 978,
      "articip": 979,
      "player": 980,
      "wechat": 981,
      "Ġbar": 982,
      "Ġbulb": 983,
      "forec": 984,
      "customers": 985,
      "ations": 986,
      "process": 987,
      "cloudy": 988,
      "Ġfoo": 989,
      "wikipedia": 990,
      "Ġrequest": 991,
      "minus": 992,
      "apps": 993,
      "Ġglass": 994,
      "nip": 995,
      "nis": 996,
      "pictures": 997,
      "paint": 998,
      "Ġdata": 999,
      "Ġmessage": 1000,
      "tennis": 1001,
      "Ġdisk": 1002,
      "Ġideas": 1003,
      "ifying": 1004,
      "development": 1005,
      "dictionary": 1006,
      "arning": 1007,
      "mirror": 1008,
      "switch": 1009,
      "scrip": 1010,
      "Ġmanagement": 1011,
      "internet": 1012,
      "magnifying": 1013,
      "articipan": 1014,
      "forecast": 1015,
      "ali": 1016,
      "bar": 1017,
      "care": 1018,
      "ey": 1019,
      "ech": 1020,
      "for": 1021,
      "io": 1022,
      "ign": 1023,
      "mat": 1024,
      "miss": 1025,
      "pu": 1026,
      "pac": 1027,
      "port": 1028,
      "participan": 1029,
      "rity": 1030,
      "sm": 1031,
      "snip": 1032,
      "vel": 1033,
      "ware": 1034,
      "wall": 1035,
      "ype": 1036,
      "Ġdownload": 1037,
      "Ġclose": 1038,
      "Ġmerge": 1039,
      "Ġissue": 1040,
      "Ġall": 1041,
      "Ġwork": 1042,
      "Ġone": 1043,
      "Ġtools": 1044,
      "Ġwrite": 1045,
      "Ġaccess": 1046,
      "Ġget": 1047,
      "Ġnetwork": 1048,
      "Ġalert": 1049,
      "Ġthe": 1050,
      "Ġonly": 1051,
      "Ġforecast": 1052,
      "ader": 1053,
      "admin": 1054,
      "ine": 1055,
      "med": 1056,
      "reset": 1057,
      "restart": 1058,
      "lete": 1059,
      "statistics": 1060,
      "debug": 1061,
      "delete": 1062,
      "fix": 1063,
      "angle": 1064,
      "visi": 1065,
      "like": 1066,
      "peech": 1067,
      "und": 1068,
      "Ġpower": 1069,
      "termin": 1070,
      "site": 1071,
      "cover": 1072,
      "riv": 1073,
      "rive": 1074,
      "right": 1075,
      "confi": 1076,
      "udio": 1077,
      "cent": 1078,
      "crew": 1079,
      "creen": 1080,
      "maps": 1081,
      "link": 1082,
      "links": 1083,
      "Ġflip": 1084,
      "Ġfeed": 1085,
      "Ġtoggle": 1086,
      "website": 1087,
      "blem": 1088,
      "Ġupdate": 1089,
      "discover": 1090,
      "Ġdra": 1091,
      "documents": 1092,
      "locations": 1093,
      "agram": 1094,
      "security": 1095,
      "water": 1096,
      "drawing": 1097,
      "sound": 1098,
      "results": 1099,
      "skype": 1100,
      "logout": 1101,
      "instagram": 1102,
      "icons": 1103,
      "ignore": 1104,
      "participants": 1105,
      "Ġonenote": 1106,
      "visibility": 1107,
      "terminal": 1108,
      "ain": 1109,
      "action": 1110,
      "bas": 1111,
      "block": 1112,
      "cash": 1113,
      "call": 1114,
      "ds": 1115,
      "ee": 1116,
      "ease": 1117,
      "gal": 1118,
      "ig": 1119,
      "ive": 1120,
      "js": 1121,
      "jum": 1122,
      "lle": 1123,
      "ners": 1124,
      "nce": 1125,
      "none": 1126,
      "pc": 1127,
      "pt": 1128,
      "pers": 1129,
      "priv": 1130,
      "qq": 1131,
      "ry": 1132,
      "rts": 1133,
      "scale": 1134,
      "sort": 1135,
      "spac": 1136,
      "screen": 1137,
      "tri": 1138,
      "tas": 1139,
      "uil": 1140,
      "vers": 1141,
      "ward": 1142,
      "wind": 1143,
      "xy": 1144,
      "yball": 1145,
      "Ġload": 1146,
      "Ġsh": 1147,
      "Ġmail": 1148,
      "Ġwi": 1149,
      "Ġlog": 1150,
      "Ġdi": 1151,
      "Ġth": 1152,
      "Ġmusic": 1153,
      "Ġout": 1154,
      "Ġvideo": 1155,
      "Ġll": 1156,
      "Ġwh": 1157,
      "Ġlist": 1158,
      "Ġsele": 1159,
      "Ġtag": 1160,
      "Ġwit": 1161,
      "Ġlibrary": 1162,
      "Ġtips": 1163,
      "Ġname": 1164,
      "Ġtennis": 1165,
      "sert": 1166,
      "inp": 1167,
      "increase": 1168,
      "insert": 1169,
      "arm": 1170,
      "arte": 1171,
      "chain": 1172,
      "mes": 1173,
      "reat": 1174,
      "remo": 1175,
      "rella": 1176,
      "reports": 1177,
      "tel": 1178,
      "store": 1179,
      "atus": 1180,
      "ckey": 1181,
      "defa": 1182,
      "delines": 1183,
      "device": 1184,
      "fill": 1185,
      "eral": 1186,
      "ness": 1187,
      "mage": 1188,
      "analytics": 1189,
      "eld": 1190,
      "pets": 1191,
      "ils": 1192,
      "illu": 1193,
      "alculator": 1194,
      "alarm": 1195,
      "hockey": 1196,
      "Ġcalculator": 1197,
      "artart": 1198,
      "coff": 1199,
      "ateg": 1200,
      "alerts": 1201,
      "conver": 1202,
      "volle": 1203,
      "Ġbattery": 1204,
      "Ġbluetooth": 1205,
      "Ġbuil": 1206,
      "fox": 1207,
      "ask": 1208,
      "ublic": 1209,
      "header": 1210,
      "clouds": 1211,
      "tails": 1212,
      "tool": 1213,
      "thread": 1214,
      "ketball": 1215,
      "uidelines": 1216,
      "Ġstarte": 1217,
      "Ġstatus": 1218,
      "faq": 1219,
      "cuts": 1220,
      "ortcuts": 1221,
      "ult": 1222,
      "Ġgroup": 1223,
      "Ġguidelines": 1224,
      "Ġ10": 1225,
      "Ġ11": 1226,
      "notifications": 1227,
      "sunlight": 1228,
      "colors": 1229,
      "password": 1230,
      "Ġdrive": 1231,
      "Ġarrows": 1232,
      "facetime": 1233,
      "Ġanalytics": 1234,
      "themes": 1235,
      "Ġdisplay": 1236,
      "Ġcolor": 1237,
      "struct": 1238,
      "strations": 1239,
      "firewall": 1240,
      "firefox": 1241,
      "general": 1242,
      "Ġformat": 1243,
      "umbrella": 1244,
      "baseball": 1245,
      "virus": 1246,
      "Ġfooter": 1247,
      "Ġrequests": 1248,
      "Ġdataset": 1249,
      "scripts": 1250,
      "missions": 1251,
      "smile": 1252,
      "rightness": 1253,
      "actions": 1254,
      "basketball": 1255,
      "jump": 1256,
      "spacing": 1257,
      "tasks": 1258,
      "Ġthreat": 1259,
      "Ġllm": 1260,
      "Ġwhat": 1261,
      "Ġselection": 1262,
      "Ġwith": 1263,
      "default": 1264,
      "illustrations": 1265,
      "coffee": 1266,
      "convert": 1267,
      "volleyball": 1268,
      "Ġbuild": 1269,
      "Ġstarted": 1270,
      "structure": 1271,
      "04": 1272,
      "11": 1273,
      "12": 1274,
      "404": 1275,
      "aa": 1276,
      "ass": 1277,
      "amer": 1278,
      "able": 1279,
      "audio": 1280,
      "bus": 1281,
      "bet": 1282,
      "bulb": 1283,
      "cc": 1284,
      "cl": 1285,
      "cand": 1286,
      "cord": 1287,
      "categ": 1288,
      "da": 1289,
      "dj": 1290,
      "dde": 1291,
      "dit": 1292,
      "duct": 1293,
      "em": 1294,
      "eq": 1295,
      "ere": 1296,
      "eve": 1297,
      "eff": 1298,
      "fin": 1299,
      "far": 1300,
      "fla": 1301,
      "fra": 1302,
      "fts": 1303,
      "feed": 1304,
      "gion": 1305,
      "gnet": 1306,
      "gpt": 1307,
      "hex": 1308,
      "hard": 1309,
      "hand": 1310,
      "id": 1311,
      "im": 1312,
      "isho": 1313,
      "lt": 1314,
      "mn": 1315,
      "mma": 1316,
      "martart": 1317,
      "ng": 1318,
      "nal": 1319,
      "numb": 1320,
      "ok": 1321,
      "ou": 1322,
      "ote": 1323,
      "oct": 1324,
      "pad": 1325,
      "pla": 1326,
      "plan": 1327,
      "public": 1328,
      "ration": 1329,
      "ster": 1330,
      "sup": 1331,
      "scan": 1332,
      "spo": 1333,
      "sci": 1334,
      "sug": 1335,
      "sions": 1336,
      "sna": 1337,
      "squ": 1338,
      "speech": 1339,
      "txt": 1340,
      "tlight": 1341,
      "uch": 1342,
      "ucation": 1343,
      "vic": 1344,
      "ved": 1345,
      "warning": 1346,
      "xbox": 1347,
      "yout": 1348,
      "you": 1349,
      "zam": 1350,
      "Ġ2": 1351,
      "Ġt": 1352,
      "Ġar": 1353,
      "Ġte": 1354,
      "Ġor": 1355,
      "Ġli": 1356,
      "Ġsi": 1357,
      "Ġuse": 1358,
      "Ġemail": 1359,
      "Ġuser": 1360,
      "Ġnext": 1361,
      "Ġlayers": 1362,
      "Ġmap": 1363,
      "Ġdeploy": 1364,
      "Ġdo": 1365,
      "Ġtext": 1366,
      "Ġshapes": 1367,
      "Ġdocument": 1368,
      "Ġlanguage": 1369,
      "Ġword": 1370,
      "Ġvideos": 1371,
      "Ġfilter": 1372,
      "Ġmicrophone": 1373,
      "Ġapps": 1374,
      "Ġmirror": 1375,
      "Ġeve": 1376,
      "lour": 1377,
      "look": 1378,
      "owse": 1379,
      "sent": 1380,
      "senal": 1381,
      "inde": 1382,
      "intel": 1383,
      "aring": 1384,
      "ings": 1385,
      "chine": 1386,
      "archical": 1387,
      "archive": 1388,
      "meta": 1389,
      "message": 1390,
      "red": 1391,
      "rect": 1392,
      "repe": 1393,
      "redo": 1394,
      "rection": 1395,
      "resize": 1396,
      "test": 1397,
      "onment": 1398,
      "onali": 1399,
      "leag": 1400,
      "learning": 1401,
      "lery": 1402,
      "shu": 1403,
      "atch": 1404,
      "decrease": 1405,
      "debar": 1406,
      "devic": 1407,
      "field": 1408,
      "ermissions": 1409,
      "erarchical": 1410,
      "itation": 1411,
      "ross": 1412,
      "gest": 1413,
      "gend": 1414,
      "nee": 1415,
      "never": 1416,
      "ican": 1417,
      "magen": 1418,
      "magnet": 1419,
      "anfield": 1420,
      "vig": 1421,
      "cts": 1422,
      "alth": 1423,
      "alwa": 1424,
      "unlock": 1425,
      "raph": 1426,
      "Ġcre": 1427,
      "Ġcap": 1428,
      "Ġcitation": 1429,
      "Ġpref": 1430,
      "Ġpackage": 1431,
      "Ġpermissions": 1432,
      "mailings": 1433,
      "arena": 1434,
      "players": 1435,
      "siri": 1436,
      "bout": 1437,
      "education": 1438,
      "checklist": 1439,
      "code": 1440,
      "colu": 1441,
      "exten": 1442,
      "acy": 1443,
      "touch": 1444,
      "conta": 1445,
      "gover": 1446,
      "voice": 1447,
      "Ġboo": 1448,
      "Ġbas": 1449,
      "Ġbook": 1450,
      "Ġbrightness": 1451,
      "cube": 1452,
      "profile": 1453,
      "problem": 1454,
      "proxy": 1455,
      "proved": 1456,
      "travel": 1457,
      "software": 1458,
      "timer": 1459,
      "ube": 1460,
      "health": 1461,
      "Ġproblem": 1462,
      "Ġscan": 1463,
      "Ġsni": 1464,
      "Ġspeech": 1465,
      "Ġsmartart": 1466,
      "not": 1467,
      "chatgpt": 1468,
      "ects": 1469,
      "hidde": 1470,
      "hierarchical": 1471,
      "safar": 1472,
      "ence": 1473,
      "envir": 1474,
      "enable": 1475,
      "more": 1476,
      "moon": 1477,
      "mouse": 1478,
      "Ġstatistics": 1479,
      "projects": 1480,
      "esports": 1481,
      "pods": 1482,
      "dock": 1483,
      "wikiqu": 1484,
      "gitlab": 1485,
      "Ġrequi": 1486,
      "Ġreport": 1487,
      "Ġrecord": 1488,
      "shazam": 1489,
      "lightbulb": 1490,
      "webarena": 1491,
      "calc": 1492,
      "opus": 1493,
      "apply": 1494,
      "applic": 1495,
      "Ġgoogle": 1496,
      "Ġgam": 1497,
      "notebook": 1498,
      "cial": 1499,
      "guration": 1500,
      "night": 1501,
      "verify": 1502,
      "pause": 1503,
      "perclip": 1504,
      "updated": 1505,
      "Ġmodels": 1506,
      "auth": 1507,
      "Ġid": 1508,
      "Ġpaint": 1509,
      "Ġpassword": 1510,
      "compu": 1511,
      "agon": 1512,
      "autoswitch": 1513,
      "wake": 1514,
      "mediawiki": 1515,
      "Ġconnect": 1516,
      "printers": 1517,
      "airpods": 1518,
      "draw": 1519,
      "drafts": 1520,
      "Ġaudio": 1521,
      "Ġcolour": 1522,
      "folders": 1523,
      "ams": 1524,
      "api": 1525,
      "approved": 1526,
      "socc": 1527,
      "Ġdevice": 1528,
      "Ġdetails": 1529,
      "recording": 1530,
      "filters": 1531,
      "developer": 1532,
      "navig": 1533,
      "Ġlegend": 1534,
      "bookmarks": 1535,
      "result": 1536,
      "favorites": 1537,
      "database": 1538,
      "footer": 1539,
      "groups": 1540,
      "pie": 1541,
      "Ġfootball": 1542,
      "scripting": 1543,
      "fork": 1544,
      "snippets": 1545,
      "iness": 1546,
      "medal": 1547,
      "medical": 1548,
      "angles": 1549,
      "configuration": 1550,
      "Ġupdates": 1551,
      "Ġdrawing": 1552,
      "Ġdraft": 1553,
      "gallery": 1554,
      "ignee": 1555,
      "json": 1556,
      "nces": 1557,
      "personali": 1558,
      "privacy": 1559,
      "triangle": 1560,
      "versity": 1561,
      "Ġshortcuts": 1562,
      "Ġdirection": 1563,
      "input": 1564,
      "remove": 1565,
      "stores": 1566,
      "toolbox": 1567,
      "assignee": 1568,
      "american": 1569,
      "business": 1570,
      "candle": 1571,
      "category": 1572,
      "equal": 1573,
      "erences": 1574,
      "effects": 1575,
      "flag": 1576,
      "frastructure": 1577,
      "feedback": 1578,
      "hexagon": 1579,
      "hardware": 1580,
      "handball": 1581,
      "octopus": 1582,
      "spotlight": 1583,
      "science": 1584,
      "suggest": 1585,
      "snake": 1586,
      "square": 1587,
      "youtube": 1588,
      "Ġarsenal": 1589,
      "Ġteams": 1590,
      "Ġsidebar": 1591,
      "Ġdots": 1592,
      "Ġmirroring": 1593,
      "Ġevent": 1594,
      "indent": 1595,
      "rectangles": 1596,
      "repeat": 1597,
      "league": 1598,
      "devices": 1599,
      "magento": 1600,
      "always": 1601,
      "Ġpreferences": 1602,
      "column": 1603,
      "extensions": 1604,
      "contacts": 1605,
      "govern": 1606,
      "Ġbasics": 1607,
      "Ġproblems": 1608,
      "Ġscanners": 1609,
      "hidden": 1610,
      "safari": 1611,
      "environment": 1612,
      "wikiquote": 1613,
      "Ġrequire": 1614,
      "applications": 1615,
      "Ġgaming": 1616,
      "computer": 1617,
      "Ġcolours": 1618,
      "soccer": 1619,
      "Ġlegends": 1620,
      "personalize": 1621,
      "01": 1622,
      "13": 1623,
      "80": 1624,
      "ah": 1625,
      "amen": 1626,
      "ave": 1627,
      "aks": 1628,
      "award": 1629,
      "abet": 1630,
      "aid": 1631,
      "about": 1632,
      "bi": 1633,
      "bu": 1634,
      "bor": 1635,
      "bra": 1636,
      "bir": 1637,
      "brightness": 1638,
      "baid": 1639,
      "cg": 1640,
      "cr": 1641,
      "cil": 1642,
      "crop": 1643,
      "cast": 1644,
      "cali": 1645,
      "cpu": 1646,
      "cross": 1647,
      "dv": 1648,
      "ding": 1649,
      "don": 1650,
      "done": 1651,
      "dman": 1652,
      "driv": 1653,
      "dds": 1654,
      "dcast": 1655,
      "ei": 1656,
      "elo": 1657,
      "eas": 1658,
      "end": 1659,
      "eth": 1660,
      "eature": 1661,
      "equ": 1662,
      "ecg": 1663,
      "fall": 1664,
      "flight": 1665,
      "fei": 1666,
      "gs": 1667,
      "gy": 1668,
      "gin": 1669,
      "ger": 1670,
      "gan": 1671,
      "guest": 1672,
      "gure": 1673,
      "gpu": 1674,
      "graph": 1675,
      "ham": 1676,
      "iz": 1677,
      "ick": 1678,
      "iter": 1679,
      "icloud": 1680,
      "imo": 1681,
      "iver": 1682,
      "ium": 1683,
      "image": 1684,
      "ield": 1685,
      "jo": 1686,
      "jew": 1687,
      "jav": 1688,
      "klo": 1689,
      "king": 1690,
      "kit": 1691,
      "kind": 1692,
      "lti": 1693,
      "my": 1694,
      "mar": 1695,
      "ming": 1696,
      "mbo": 1697,
      "mium": 1698,
      "nto": 1699,
      "ome": 1700,
      "olor": 1701,
      "oint": 1702,
      "obe": 1703,
      "ocial": 1704,
      "odds": 1705,
      "pr": 1706,
      "par": 1707,
      "pic": 1708,
      "page": 1709,
      "path": 1710,
      "preview": 1711,
      "plu": 1712,
      "pul": 1713,
      "pur": 1714,
      "pace": 1715,
      "pical": 1716,
      "patch": 1717,
      "qr": 1718,
      "ru": 1719,
      "rug": 1720,
      "rowse": 1721,
      "sy": 1722,
      "ssh": 1723,
      "spe": 1724,
      "sco": 1725,
      "suse": 1726,
      "sure": 1727,
      "squi": 1728,
      "swa": 1729,
      "sten": 1730,
      "spi": 1731,
      "space": 1732,
      "ty": 1733,
      "tte": 1734,
      "tor": 1735,
      "tal": 1736,
      "ture": 1737,
      "tnote": 1738,
      "twit": 1739,
      "tionary": 1740,
      "uu": 1741,
      "uction": 1742,
      "urite": 1743,
      "ustomers": 1744,
      "vas": 1745,
      "vict": 1746,
      "watch": 1747,
      "xo": 1748,
      "xas": 1749,
      "yd": 1750,
      "yage": 1751,
      "yment": 1752,
      "yconnect": 1753,
      "ycare": 1754,
      "yah": 1755,
      "zil": 1756,
      "zip": 1757,
      "Ġ5": 1758,
      "Ġx": 1759,
      "Ġsetting": 1760,
      "Ġat": 1761,
      "Ġro": 1762,
      "Ġma": 1763,
      "Ġal": 1764,
      "Ġun": 1765,
      "Ġcheck": 1766,
      "Ġhome": 1767,
      "Ġshare": 1768,
      "Ġpen": 1769,
      "Ġac": 1770,
      "Ġexp": 1771,
      "Ġsign": 1772,
      "Ġreview": 1773,
      "Ġchat": 1774,
      "Ġexpand": 1775,
      "Ġnew": 1776,
      "Ġen": 1777,
      "Ġzoom": 1778,
      "Ġmu": 1779,
      "Ġlock": 1780,
      "Ġwiki": 1781,
      "Ġgit": 1782,
      "Ġupload": 1783,
      "Ġdate": 1784,
      "Ġweb": 1785,
      "Ġapp": 1786,
      "Ġacco": 1787,
      "Ġworld": 1788,
      "Ġqui": 1789,
      "Ġrss": 1790,
      "Ġtem": 1791,
      "Ġquick": 1792,
      "Ġkeyboard": 1793,
      "Ġbox": 1794,
      "Ġhide": 1795,
      "Ġman": 1796,
      "Ġfolder": 1797,
      "Ġfocus": 1798,
      "Ġoutline": 1799,
      "Ġlogo": 1800,
      "Ġerror": 1801,
      "Ġicon": 1802,
      "Ġwall": 1803,
      "Ġlinks": 1804,
      "Ġtool": 1805,
      "Ġnotifications": 1806,
      "Ġng": 1807,
      "Ġnumb": 1808,
      "Ġarchive": 1809,
      "Ġnot": 1810,
      "Ġnight": 1811,
      "Ġauth": 1812,
      "Ġextensions": 1813,
      "Ġkit": 1814,
      "Ġmy": 1815,
      "Ġodds": 1816,
      "Ġvict": 1817,
      "ows": 1818,
      "adho": 1819,
      "adobe": 1820,
      "owner": 1821,
      "loading": 1822,
      "see": 1823,
      "inment": 1824,
      "infrastructure": 1825,
      "chment": 1826,
      "change": 1827,
      "chase": 1828,
      "archiver": 1829,
      "searches": 1830,
      "meeting": 1831,
      "ree": 1832,
      "reload": 1833,
      "request": 1834,
      "remin": 1835,
      "redict": 1836,
      "recent": 1837,
      "reward": 1838,
      "restore": 1839,
      "region": 1840,
      "tes": 1841,
      "texas": 1842,
      "oned": 1843,
      "online": 1844,
      "onda": 1845,
      "learn": 1846,
      "left": 1847,
      "legal": 1848,
      "leave": 1849,
      "shes": 1850,
      "shop": 1851,
      "shortcuts": 1852,
      "sharing": 1853,
      "shield": 1854,
      "stor": 1855,
      "style": 1856,
      "stur": 1857,
      "stick": 1858,
      "orter": 1859,
      "cks": 1860,
      "ckup": 1861,
      "cket": 1862,
      "ckpad": 1863,
      "deck": 1864,
      "dell": 1865,
      "dence": 1866,
      "details": 1867,
      "debi": 1868,
      "lash": 1869,
      "last": 1870,
      "closet": 1871,
      "cloth": 1872,
      "ert": 1873,
      "erase": 1874,
      "ergy": 1875,
      "itar": 1876,
      "ition": 1877,
      "itical": 1878,
      "roi": 1879,
      "rol": 1880,
      "rom": 1881,
      "ged": 1882,
      "icolor": 1883,
      "mate": 1884,
      "make": 1885,
      "malin": 1886,
      "anche": 1887,
      "anac": 1888,
      "ance": 1889,
      "analyt": 1890,
      "vie": 1891,
      "elry": 1892,
      "ctition": 1893,
      "live": 1894,
      "ligen": 1895,
      "listen": 1896,
      "filezil": 1897,
      "pet": 1898,
      "peaks": 1899,
      "almalin": 1900,
      "uning": 1901,
      "unter": 1902,
      "unts": 1903,
      "undo": 1904,
      "unstar": 1905,
      "under": 1906,
      "unstart": 1907,
      "ungroup": 1908,
      "unsure": 1909,
      "ractition": 1910,
      "hotel": 1911,
      "markdown": 1912,
      "Ġcard": 1913,
      "Ġcale": 1914,
      "Ġcont": 1915,
      "Ġcrop": 1916,
      "Ġcateg": 1917,
      "Ġcustomers": 1918,
      "artners": 1919,
      "Ġpale": 1920,
      "Ġphoto": 1921,
      "Ġparticipan": 1922,
      "Ġpublic": 1923,
      "Ġpoint": 1924,
      "Ġpredict": 1925,
      "Ġpractition": 1926,
      "Ġpartners": 1927,
      "terpre": 1928,
      "terdis": 1929,
      "usion": 1930,
      "usage": 1931,
      "wegame": 1932,
      "bodi": 1933,
      "bolt": 1934,
      "edin": 1935,
      "editor": 1936,
      "edome": 1937,
      "upward": 1938,
      "checked": 1939,
      "coding": 1940,
      "pencil": 1941,
      "opensuse": 1942,
      "ated": 1943,
      "off": 1944,
      "accent": 1945,
      "rise": 1946,
      "top": 1947,
      "todo": 1948,
      "vourite": 1949,
      "voyage": 1950,
      "Ġby": 1951,
      "Ġblan": 1952,
      "Ġbelo": 1953,
      "Ġbrowse": 1954,
      "fold": 1955,
      "signature": 1956,
      "rink": 1957,
      "product": 1958,
      "train": 1959,
      "trackpad": 1960,
      "aspac": 1961,
      "ties": 1962,
      "timate": 1963,
      "ubunt": 1964,
      "cento": 1965,
      "heat": 1966,
      "Ġproper": 1967,
      "Ġproduct": 1968,
      "credit": 1969,
      "Ġsnip": 1970,
      "Ġsport": 1971,
      "Ġscreen": 1972,
      "Ġsocial": 1973,
      "Ġspic": 1974,
      "Ġsorter": 1975,
      "mons": 1976,
      "month": 1977,
      "canvas": 1978,
      "divide": 1979,
      "diversity": 1980,
      "take": 1981,
      "taking": 1982,
      "tainment": 1983,
      "tachment": 1984,
      "ntation": 1985,
      "pper": 1986,
      "connection": 1987,
      "thumb": 1988,
      "thunder": 1989,
      "mos": 1990,
      "mote": 1991,
      "motor": 1992,
      "Ġstru": 1993,
      "projector": 1994,
      "books": 1995,
      "favourite": 1996,
      "outlook": 1997,
      "Ġinbox": 1998,
      "Ġinstr": 1999,
      "Ġincl": 2000,
      "Ġinfrastructure": 2001,
      "Ġinterpre": 2002,
      "heartbe": 2003,
      "deployment": 2004,
      "podcast": 2005,
      "Ġfeature": 2006,
      "Ġfree": 2007,
      "Ġflash": 2008,
      "wiktionary": 2009,
      "multi": 2010,
      "wikiversity": 2011,
      "wikivoyage": 2012,
      "browse": 2013,
      "branche": 2014,
      "present": 2015,
      "premium": 2016,
      "Ġtour": 2017,
      "Ġtotal": 2018,
      "starred": 2019,
      "starbu": 2020,
      "Ġredis": 2021,
      "Ġresize": 2022,
      "Ġrepository": 2023,
      "Ġreports": 2024,
      "Ġreturn": 2025,
      "Ġrename": 2026,
      "Ġreader": 2027,
      "Ġrecent": 2028,
      "Ġregion": 2029,
      "Ġremote": 2030,
      "webarchive": 2031,
      "apple": 2032,
      "ultimate": 2033,
      "Ġgig": 2034,
      "Ġgive": 2035,
      "Ġgpt": 2036,
      "notepad": 2037,
      "notify": 2038,
      "ggles": 2039,
      "Ġ180": 2040,
      "guitar": 2041,
      "phabet": 2042,
      "sunset": 2043,
      "sunrise": 2044,
      "culture": 2045,
      "dislike": 2046,
      "Ġsearches": 2047,
      "Ġmore": 2048,
      "textur": 2049,
      "keynote": 2050,
      "papers": 2051,
      "paperclip": 2052,
      "payment": 2053,
      "perfor": 2054,
      "permissions": 2055,
      "Ġdrink": 2056,
      "Ġmedia": 2057,
      "Ġmemos": 2058,
      "updates": 2059,
      "Ġimage": 2060,
      "Ġiim": 2061,
      "Ġeditor": 2062,
      "Ġpaperclip": 2063,
      "commons": 2064,
      "wordart": 2065,
      "ager": 2066,
      "agraph": 2067,
      "bugger": 2068,
      "mance": 2069,
      "autosave": 2070,
      "autobar": 2071,
      "tencent": 2072,
      "Ġcontext": 2073,
      "collabor": 2074,
      "Ġblack": 2075,
      "Ġblaster": 2076,
      "follow": 2077,
      "Ġago": 2078,
      "Ġabout": 2079,
      "filmage": 2080,
      "Ġcode": 2081,
      "Ġcount": 2082,
      "Ġcounter": 2083,
      "entertainment": 2084,
      "clean": 2085,
      "pyram": 2086,
      "social": 2087,
      "Ġdecrease": 2088,
      "Ġdesk": 2089,
      "Ġdebugger": 2090,
      "startup": 2091,
      "ories": 2092,
      "genres": 2093,
      "Ġprojects": 2094,
      "cricket": 2095,
      "ffle": 2096,
      "Ġleap": 2097,
      "Ġleft": 2098,
      "Ġlearning": 2099,
      "Ġlevel": 2100,
      "Ġplayer": 2101,
      "favorited": 2102,
      "bear": 2103,
      "dataset": 2104,
      "ftp": 2105,
      "food": 2106,
      "football": 2107,
      "footnote": 2108,
      "pickup": 2109,
      "install": 2110,
      "align": 2111,
      "eye": 2112,
      "format": 2113,
      "mission": 2114,
      "smartart": 2115,
      "snippet": 2116,
      "Ġnetworking": 2117,
      "Ġpowerpoint": 2118,
      "configure": 2119,
      "confidence": 2120,
      "linkedin": 2121,
      "waterfall": 2122,
      "private": 2123,
      "tripeaks": 2124,
      "version": 2125,
      "windows": 2126,
      "xylink": 2127,
      "Ġsharing": 2128,
      "Ġwishes": 2129,
      "Ġlogged": 2130,
      "Ġdistur": 2131,
      "Ġoutlook": 2132,
      "Ġnames": 2133,
      "remote": 2134,
      "Ġgroups": 2135,
      "Ġcolors": 2136,
      "Ġdatasets": 2137,
      "Ġbuilding": 2138,
      "betterdis": 2139,
      "club": 2140,
      "daycare": 2141,
      "empath": 2142,
      "embodi": 2143,
      "finder": 2144,
      "finance": 2145,
      "imgs": 2146,
      "ishot": 2147,
      "ishots": 2148,
      "lticolor": 2149,
      "numbers": 2150,
      "plates": 2151,
      "plantation": 2152,
      "supports": 2153,
      "support": 2154,
      "Ġtv": 2155,
      "Ġtuning": 2156,
      "Ġorgan": 2157,
      "Ġlive": 2158,
      "Ġlimit": 2159,
      "intelligen": 2160,
      "chinese": 2161,
      "messages": 2162,
      "reddit": 2163,
      "shuffle": 2164,
      "Ġcreation": 2165,
      "Ġcreated": 2166,
      "Ġbooth": 2167,
      "Ġbooster": 2168,
      "Ġbooking": 2169,
      "Ġsnipping": 2170,
      "Ġsnipper": 2171,
      "moonset": 2172,
      "autoswitchinp": 2173,
      "autoswitchinput": 2174,
      "Ġconnection": 2175,
      "apis": 2176,
      "navigate": 2177,
      "navigator": 2178,
      "Ġevents": 2179,
      "columns": 2180,
      "amend": 2181,
      "brate": 2182,
      "birming": 2183,
      "baidu": 2184,
      "critical": 2185,
      "calibrate": 2186,
      "dvd": 2187,
      "donate": 2188,
      "driving": 2189,
      "easyconnect": 2190,
      "endpoint": 2191,
      "ethics": 2192,
      "equation": 2193,
      "feishu": 2194,
      "ized": 2195,
      "iteration": 2196,
      "imovie": 2197,
      "job": 2198,
      "jewelry": 2199,
      "java": 2200,
      "klon": 2201,
      "kindle": 2202,
      "marvel": 2203,
      "mbols": 2204,
      "price": 2205,
      "paragraph": 2206,
      "plugin": 2207,
      "pull": 2208,
      "purchase": 2209,
      "rugby": 2210,
      "symbols": 2211,
      "speedome": 2212,
      "score": 2213,
      "squidman": 2214,
      "swap": 2215,
      "spider": 2216,
      "typical": 2217,
      "twitter": 2218,
      "yahoo": 2219,
      "Ġattachment": 2220,
      "Ġroadho": 2221,
      "Ġmachine": 2222,
      "Ġalphabet": 2223,
      "Ġunarchiver": 2224,
      "Ġacross": 2225,
      "Ġexpert": 2226,
      "Ġnews": 2227,
      "Ġenergy": 2228,
      "Ġmulticolor": 2229,
      "Ġaccounts": 2230,
      "Ġquiz": 2231,
      "Ġtemplates": 2232,
      "Ġmanager": 2233,
      "Ġwallpapers": 2234,
      "Ġtoolbar": 2235,
      "Ġnumber": 2236,
      "Ġvictory": 2237,
      "reminder": 2238,
      "rewards": 2239,
      "regional": 2240,
      "onedrive": 2241,
      "storage": 2242,
      "stickers": 2243,
      "debian": 2244,
      "clothing": 2245,
      "eraser": 2246,
      "anaconda": 2247,
      "analytical": 2248,
      "listening": 2249,
      "filezilla": 2250,
      "Ġcalendar": 2251,
      "Ġcontrol": 2252,
      "Ġcategories": 2253,
      "Ġpalette": 2254,
      "Ġparticipant": 2255,
      "Ġprediction": 2256,
      "Ġpractitioners": 2257,
      "Ġblanks": 2258,
      "Ġbelong": 2259,
      "Ġbrowser": 2260,
      "products": 2261,
      "aspaces": 2262,
      "ubuntu": 2263,
      "centos": 2264,
      "Ġproperties": 2265,
      "Ġsnippets": 2266,
      "Ġspicy": 2267,
      "thumbs": 2268,
      "thunderbolt": 2269,
      "Ġstruggles": 2270,
      "favourites": 2271,
      "Ġinstruction": 2272,
      "Ġinclusion": 2273,
      "Ġinterpreter": 2274,
      "heartbeat": 2275,
      "podcasts": 2276,
      "multiselect": 2277,
      "branches": 2278,
      "presentation": 2279,
      "starbucks": 2280,
      "Ġredispatch": 2281,
      "Ġgigaspaces": 2282,
      "texturing": 2283,
      "performance": 2284,
      "autobars": 2285,
      "tencentmeeting": 2286,
      "collaboration": 2287,
      "pyramid": 2288,
      "Ġdesktop": 2289,
      "Ġdisturb": 2290,
      "betterdisplay": 2291,
      "empathy": 2292,
      "embodied": 2293,
      "Ġorganized": 2294,
      "intelligence": 2295,
      "birmingham": 2296,
      "speedometer": 2297,
      "Ġroadhouse": 2298
    },
    "merges": [
      [
        "l",
        "o"
      ],
      [
        "o",
        "w"
      ],
      [
        "a",
        "d"
      ],
      [
        "ow",
        "n"
      ],
      [
        "d",
        "own"
      ],
      [
        "lo",
        "ad"
      ],
      [
        "down",
        "load"
      ],
      [
        "s",
        "e"
      ],
      [
        "i",
        "n"
      ],
      [
        "a",
        "r"
      ],
      [
        "in",
        "g"
      ],
      [
        "t",
        "ing"
      ],
      [
        "se",
        "t"
      ],
      [
        "set",
        "ting"
      ],
      [
        "setting",
        "s"
      ],
      [
        "c",
        "h"
      ],
      [
        "ar",
        "ch"
      ],
      [
        "se",
        "arch"
      ],
      [
        "m",
        "e"
      ],
      [
        "r",
        "e"
      ],
      [
        "t",
        "e"
      ],
      [
        "o",
        "n"
      ],
      [
        "l",
        "e"
      ],
      [
        "s",
        "h"
      ],
      [
        "s",
        "t"
      ],
      [
        "a",
        "t"
      ],
      [
        "o",
        "r"
      ],
      [
        "c",
        "k"
      ],
      [
        "d",
        "e"
      ],
      [
        "l",
        "a"
      ],
      [
        "c",
        "lo"
      ],
      [
        "me",
        "n"
      ],
      [
        "f",
        "i"
      ],
      [
        "e",
        "r"
      ],
      [
        "i",
        "t"
      ],
      [
        "r",
        "o"
      ],
      [
        "i",
        "on"
      ],
      [
        "g",
        "e"
      ],
      [
        "n",
        "e"
      ],
      [
        "men",
        "u"
      ],
      [
        "i",
        "c"
      ],
      [
        "m",
        "a"
      ],
      [
        "clo",
        "se"
      ],
      [
        "la",
        "y"
      ],
      [
        "a",
        "n"
      ],
      [
        "v",
        "i"
      ],
      [
        "e",
        "l"
      ],
      [
        "c",
        "t"
      ],
      [
        "l",
        "i"
      ],
      [
        "fi",
        "le"
      ],
      [
        "u",
        "e"
      ],
      [
        "p",
        "e"
      ],
      [
        "i",
        "l"
      ],
      [
        "o",
        "o"
      ],
      [
        "a",
        "l"
      ],
      [
        "u",
        "n"
      ],
      [
        "r",
        "a"
      ],
      [
        "ar",
        "k"
      ],
      [
        "h",
        "o"
      ],
      [
        "m",
        "ark"
      ],
      [
        "s",
        "s"
      ],
      [
        "Ġ",
        "c"
      ],
      [
        "ar",
        "t"
      ],
      [
        "Ġ",
        "p"
      ],
      [
        "Ġ",
        "settings"
      ],
      [
        "ma",
        "il"
      ],
      [
        "ad",
        "d"
      ],
      [
        "ar",
        "e"
      ],
      [
        "a",
        "ck"
      ],
      [
        "te",
        "r"
      ],
      [
        "p",
        "lay"
      ],
      [
        "u",
        "s"
      ],
      [
        "w",
        "e"
      ],
      [
        "ue",
        "st"
      ],
      [
        "q",
        "uest"
      ],
      [
        "s",
        "i"
      ],
      [
        "b",
        "o"
      ],
      [
        "e",
        "d"
      ],
      [
        "u",
        "t"
      ],
      [
        "ch",
        "e"
      ],
      [
        "u",
        "p"
      ],
      [
        "che",
        "ck"
      ],
      [
        "c",
        "o"
      ],
      [
        "e",
        "w"
      ],
      [
        "ho",
        "me"
      ],
      [
        "e",
        "x"
      ],
      [
        "u",
        "se"
      ],
      [
        "sh",
        "are"
      ],
      [
        "vi",
        "ew"
      ],
      [
        "pe",
        "n"
      ],
      [
        "quest",
        "ion"
      ],
      [
        "x",
        "t"
      ],
      [
        "check",
        "mark"
      ],
      [
        "o",
        "pen"
      ],
      [
        "e",
        "mail"
      ],
      [
        "a",
        "ge"
      ],
      [
        "ar",
        "d"
      ],
      [
        "er",
        "s"
      ],
      [
        "a",
        "te"
      ],
      [
        "b",
        "ack"
      ],
      [
        "o",
        "f"
      ],
      [
        "a",
        "c"
      ],
      [
        "k",
        "n"
      ],
      [
        "r",
        "i"
      ],
      [
        "un",
        "kn"
      ],
      [
        "use",
        "r"
      ],
      [
        "unkn",
        "own"
      ],
      [
        "g",
        "n"
      ],
      [
        "t",
        "o"
      ],
      [
        "ex",
        "p"
      ],
      [
        "h",
        "el"
      ],
      [
        "w",
        "or"
      ],
      [
        "bo",
        "ard"
      ],
      [
        "hel",
        "p"
      ],
      [
        "a",
        "le"
      ],
      [
        "c",
        "on"
      ],
      [
        "g",
        "o"
      ],
      [
        "v",
        "o"
      ],
      [
        "ne",
        "xt"
      ],
      [
        "m",
        "ic"
      ],
      [
        "Ġ",
        "b"
      ],
      [
        "v",
        "e"
      ],
      [
        "at",
        "h"
      ],
      [
        "it",
        "or"
      ],
      [
        "mic",
        "ro"
      ],
      [
        "f",
        "o"
      ],
      [
        "lay",
        "ers"
      ],
      [
        "we",
        "ath"
      ],
      [
        "si",
        "gn"
      ],
      [
        "weath",
        "er"
      ],
      [
        "c",
        "u"
      ],
      [
        "r",
        "in"
      ],
      [
        "w",
        "i"
      ],
      [
        "at",
        "ion"
      ],
      [
        "an",
        "d"
      ],
      [
        "p",
        "ro"
      ],
      [
        "t",
        "ra"
      ],
      [
        "me",
        "r"
      ],
      [
        "s",
        "of"
      ],
      [
        "sof",
        "t"
      ],
      [
        "a",
        "s"
      ],
      [
        "t",
        "i"
      ],
      [
        "u",
        "b"
      ],
      [
        "u",
        "d"
      ],
      [
        "ed",
        "it"
      ],
      [
        "c",
        "e"
      ],
      [
        "h",
        "e"
      ],
      [
        "Ġp",
        "ro"
      ],
      [
        "micro",
        "soft"
      ],
      [
        "c",
        "re"
      ],
      [
        "Ġ",
        "s"
      ],
      [
        "tra",
        "sh"
      ],
      [
        "a",
        "me"
      ],
      [
        "c",
        "el"
      ],
      [
        "lo",
        "g"
      ],
      [
        "re",
        "view"
      ],
      [
        "m",
        "on"
      ],
      [
        "n",
        "o"
      ],
      [
        "ch",
        "at"
      ],
      [
        "clo",
        "ud"
      ],
      [
        "c",
        "an"
      ],
      [
        "d",
        "i"
      ],
      [
        "e",
        "ct"
      ],
      [
        "men",
        "t"
      ],
      [
        "h",
        "i"
      ],
      [
        "s",
        "a"
      ],
      [
        "t",
        "a"
      ],
      [
        "ne",
        "ct"
      ],
      [
        "mon",
        "itor"
      ],
      [
        "j",
        "ect"
      ],
      [
        "n",
        "t"
      ],
      [
        "p",
        "rin"
      ],
      [
        "exp",
        "and"
      ],
      [
        "i",
        "ss"
      ],
      [
        "p",
        "p"
      ],
      [
        "t",
        "oo"
      ],
      [
        "ne",
        "w"
      ],
      [
        "li",
        "de"
      ],
      [
        "con",
        "nect"
      ],
      [
        "mer",
        "ge"
      ],
      [
        "a",
        "sh"
      ],
      [
        "n",
        "d"
      ],
      [
        "sh",
        "ow"
      ],
      [
        "ma",
        "p"
      ],
      [
        "ar",
        "r"
      ],
      [
        "can",
        "cel"
      ],
      [
        "g",
        "le"
      ],
      [
        "t",
        "h"
      ],
      [
        "t",
        "s"
      ],
      [
        "c",
        "ation"
      ],
      [
        "d",
        "ash"
      ],
      [
        "e",
        "n"
      ],
      [
        "iss",
        "ue"
      ],
      [
        "dash",
        "board"
      ],
      [
        "m",
        "us"
      ],
      [
        "u",
        "re"
      ],
      [
        "de",
        "sign"
      ],
      [
        "oo",
        "k"
      ],
      [
        "al",
        "l"
      ],
      [
        "mus",
        "ic"
      ],
      [
        "g",
        "h"
      ],
      [
        "k",
        "e"
      ],
      [
        "l",
        "u"
      ],
      [
        "m",
        "o"
      ],
      [
        "u",
        "i"
      ],
      [
        "Ġ",
        "st"
      ],
      [
        "pro",
        "ject"
      ],
      [
        "gh",
        "t"
      ],
      [
        "b",
        "ook"
      ],
      [
        "f",
        "a"
      ],
      [
        "o",
        "ut"
      ],
      [
        "p",
        "lo"
      ],
      [
        "Ġ",
        "in"
      ],
      [
        "re",
        "f"
      ],
      [
        "de",
        "plo"
      ],
      [
        "he",
        "art"
      ],
      [
        "deplo",
        "y"
      ],
      [
        "e",
        "s"
      ],
      [
        "it",
        "y"
      ],
      [
        "sa",
        "ve"
      ],
      [
        "prin",
        "t"
      ],
      [
        "issue",
        "s"
      ],
      [
        "l",
        "in"
      ],
      [
        "m",
        "it"
      ],
      [
        "p",
        "o"
      ],
      [
        "z",
        "oo"
      ],
      [
        "Ġ",
        "f"
      ],
      [
        "re",
        "sh"
      ],
      [
        "at",
        "a"
      ],
      [
        "wi",
        "k"
      ],
      [
        "cre",
        "ate"
      ],
      [
        "ref",
        "resh"
      ],
      [
        "zoo",
        "m"
      ],
      [
        "c",
        "ut"
      ],
      [
        "d",
        "o"
      ],
      [
        "l",
        "s"
      ],
      [
        "m",
        "u"
      ],
      [
        "lo",
        "ck"
      ],
      [
        "or",
        "y"
      ],
      [
        "wor",
        "k"
      ],
      [
        "ub",
        "mit"
      ],
      [
        "wik",
        "i"
      ],
      [
        "b",
        "r"
      ],
      [
        "c",
        "ale"
      ],
      [
        "g",
        "it"
      ],
      [
        "p",
        "re"
      ],
      [
        "z",
        "e"
      ],
      [
        "Ġ",
        "to"
      ],
      [
        "st",
        "ar"
      ],
      [
        "ne",
        "t"
      ],
      [
        "Ġc",
        "d"
      ],
      [
        "up",
        "load"
      ],
      [
        "d",
        "ate"
      ],
      [
        "e",
        "ting"
      ],
      [
        "p",
        "as"
      ],
      [
        "Ġ",
        "re"
      ],
      [
        "down",
        "vo"
      ],
      [
        "sh",
        "a"
      ],
      [
        "ic",
        "t"
      ],
      [
        "el",
        "l"
      ],
      [
        "li",
        "ght"
      ],
      [
        "we",
        "b"
      ],
      [
        "vo",
        "lu"
      ],
      [
        "ce",
        "ss"
      ],
      [
        "mu",
        "te"
      ],
      [
        "pas",
        "te"
      ],
      [
        "downvo",
        "te"
      ],
      [
        "volu",
        "me"
      ],
      [
        "c",
        "al"
      ],
      [
        "l",
        "d"
      ],
      [
        "m",
        "in"
      ],
      [
        "o",
        "p"
      ],
      [
        "on",
        "e"
      ],
      [
        "st",
        "ory"
      ],
      [
        "vi",
        "de"
      ],
      [
        "un",
        "t"
      ],
      [
        "ra",
        "ting"
      ],
      [
        "mark",
        "eting"
      ],
      [
        "Ġpro",
        "file"
      ],
      [
        "hi",
        "story"
      ],
      [
        "too",
        "ls"
      ],
      [
        "nd",
        "ar"
      ],
      [
        "a",
        "pp"
      ],
      [
        "b",
        "le"
      ],
      [
        "c",
        "ame"
      ],
      [
        "o",
        "re"
      ],
      [
        "o",
        "us"
      ],
      [
        "lo",
        "r"
      ],
      [
        "ow",
        "er"
      ],
      [
        "or",
        "t"
      ],
      [
        "an",
        "ge"
      ],
      [
        "vi",
        "ous"
      ],
      [
        "li",
        "p"
      ],
      [
        "ack",
        "age"
      ],
      [
        "ac",
        "co"
      ],
      [
        "wor",
        "ld"
      ],
      [
        "cale",
        "ndar"
      ],
      [
        "pre",
        "vious"
      ],
      [
        "sha",
        "pe"
      ],
      [
        "vide",
        "o"
      ],
      [
        "came",
        "ra"
      ],
      [
        "u",
        "l"
      ],
      [
        "Ġ",
        "g"
      ],
      [
        "in",
        "t"
      ],
      [
        "re",
        "c"
      ],
      [
        "ct",
        "ion"
      ],
      [
        "ri",
        "te"
      ],
      [
        "no",
        "te"
      ],
      [
        "arr",
        "ange"
      ],
      [
        "acco",
        "unt"
      ],
      [
        "p",
        "ackage"
      ],
      [
        "s",
        "lide"
      ],
      [
        "w",
        "rite"
      ],
      [
        "Ġ",
        "up"
      ],
      [
        "on",
        "t"
      ],
      [
        "no",
        "ti"
      ],
      [
        "a",
        "se"
      ],
      [
        "b",
        "ell"
      ],
      [
        "c",
        "i"
      ],
      [
        "f",
        "ont"
      ],
      [
        "g",
        "gle"
      ],
      [
        "q",
        "ui"
      ],
      [
        "Ġ",
        "1"
      ],
      [
        "fi",
        "cation"
      ],
      [
        "ac",
        "cess"
      ],
      [
        "Ġs",
        "lide"
      ],
      [
        "noti",
        "fication"
      ],
      [
        "c",
        "lip"
      ],
      [
        "g",
        "u"
      ],
      [
        "p",
        "h"
      ],
      [
        "p",
        "ower"
      ],
      [
        "r",
        "ss"
      ],
      [
        "s",
        "un"
      ],
      [
        "s",
        "ale"
      ],
      [
        "Ġ",
        "file"
      ],
      [
        "Ġ",
        "issues"
      ],
      [
        "in",
        "fo"
      ],
      [
        "at",
        "or"
      ],
      [
        "la",
        "n"
      ],
      [
        "ge",
        "t"
      ],
      [
        "ic",
        "s"
      ],
      [
        "Ġc",
        "art"
      ],
      [
        "co",
        "lor"
      ],
      [
        "cu",
        "l"
      ],
      [
        "di",
        "a"
      ],
      [
        "di",
        "s"
      ],
      [
        "net",
        "work"
      ],
      [
        "sale",
        "s"
      ],
      [
        "b",
        "y"
      ],
      [
        "b",
        "all"
      ],
      [
        "g",
        "ri"
      ],
      [
        "g",
        "ame"
      ],
      [
        "i",
        "r"
      ],
      [
        "l",
        "l"
      ],
      [
        "n",
        "i"
      ],
      [
        "p",
        "ict"
      ],
      [
        "s",
        "ubmit"
      ],
      [
        "v",
        "er"
      ],
      [
        "Ġ",
        "search"
      ],
      [
        "Ġ",
        "of"
      ],
      [
        "Ġ",
        "mo"
      ],
      [
        "ar",
        "y"
      ],
      [
        "te",
        "m"
      ],
      [
        "te",
        "xt"
      ],
      [
        "sh",
        "o"
      ],
      [
        "at",
        "ter"
      ],
      [
        "ke",
        "y"
      ],
      [
        "ata",
        "log"
      ],
      [
        "cul",
        "ator"
      ],
      [
        "gri",
        "d"
      ],
      [
        "pict",
        "ure"
      ],
      [
        "atter",
        "y"
      ],
      [
        "p",
        "a"
      ],
      [
        "p",
        "er"
      ],
      [
        "u",
        "g"
      ],
      [
        "w",
        "h"
      ],
      [
        "y",
        "le"
      ],
      [
        "Ġ",
        "d"
      ],
      [
        "Ġ",
        "me"
      ],
      [
        "in",
        "d"
      ],
      [
        "ch",
        "art"
      ],
      [
        "te",
        "nt"
      ],
      [
        "lay",
        "out"
      ],
      [
        "li",
        "st"
      ],
      [
        "ho",
        "to"
      ],
      [
        "si",
        "ze"
      ],
      [
        "up",
        "date"
      ],
      [
        "open",
        "search"
      ],
      [
        "ti",
        "me"
      ],
      [
        "ta",
        "ble"
      ],
      [
        "pp",
        "ing"
      ],
      [
        "arr",
        "ow"
      ],
      [
        "shape",
        "s"
      ],
      [
        "by",
        "te"
      ],
      [
        "Ġmo",
        "de"
      ],
      [
        "a",
        "ut"
      ],
      [
        "d",
        "f"
      ],
      [
        "l",
        "la"
      ],
      [
        "p",
        "hoto"
      ],
      [
        "p",
        "df"
      ],
      [
        "r",
        "t"
      ],
      [
        "u",
        "r"
      ],
      [
        "u",
        "sh"
      ],
      [
        "Ġ",
        "i"
      ],
      [
        "Ġ",
        "show"
      ],
      [
        "Ġ",
        "arrow"
      ],
      [
        "se",
        "le"
      ],
      [
        "de",
        "r"
      ],
      [
        "ho",
        "t"
      ],
      [
        "ac",
        "e"
      ],
      [
        "user",
        "s"
      ],
      [
        "cu",
        "ment"
      ],
      [
        "log",
        "in"
      ],
      [
        "Ġst",
        "ore"
      ],
      [
        "do",
        "cument"
      ],
      [
        "br",
        "ush"
      ],
      [
        "qui",
        "ck"
      ],
      [
        "clip",
        "board"
      ],
      [
        "gu",
        "age"
      ],
      [
        "ph",
        "one"
      ],
      [
        "lan",
        "guage"
      ],
      [
        "sho",
        "pping"
      ],
      [
        "key",
        "board"
      ],
      [
        "yle",
        "s"
      ],
      [
        "b",
        "il"
      ],
      [
        "b",
        "attery"
      ],
      [
        "c",
        "art"
      ],
      [
        "f",
        "ace"
      ],
      [
        "h",
        "ub"
      ],
      [
        "Ġ",
        "an"
      ],
      [
        "Ġ",
        "ed"
      ],
      [
        "lo",
        "re"
      ],
      [
        "lo",
        "cation"
      ],
      [
        "ion",
        "s"
      ],
      [
        "Ġp",
        "a"
      ],
      [
        "bo",
        "x"
      ],
      [
        "co",
        "m"
      ],
      [
        "to",
        "ggle"
      ],
      [
        "exp",
        "lore"
      ],
      [
        "wor",
        "d"
      ],
      [
        "hi",
        "de"
      ],
      [
        "ta",
        "g"
      ],
      [
        "git",
        "hub"
      ],
      [
        "cal",
        "culator"
      ],
      [
        "bil",
        "ity"
      ],
      [
        "a",
        "g"
      ],
      [
        "b",
        "ug"
      ],
      [
        "e",
        "t"
      ],
      [
        "l",
        "ue"
      ],
      [
        "r",
        "or"
      ],
      [
        "u",
        "m"
      ],
      [
        "u",
        "al"
      ],
      [
        "Ġ",
        "help"
      ],
      [
        "se",
        "cu"
      ],
      [
        "ro",
        "p"
      ],
      [
        "ma",
        "n"
      ],
      [
        "oo",
        "gle"
      ],
      [
        "Ġc",
        "i"
      ],
      [
        "age",
        "nt"
      ],
      [
        "too",
        "th"
      ],
      [
        "en",
        "g"
      ],
      [
        "po",
        "int"
      ],
      [
        "video",
        "s"
      ],
      [
        "wh",
        "y"
      ],
      [
        "aut",
        "o"
      ],
      [
        "Ġed",
        "ge"
      ],
      [
        "lue",
        "tooth"
      ],
      [
        "e",
        "p"
      ],
      [
        "f",
        "ind"
      ],
      [
        "i",
        "le"
      ],
      [
        "k",
        "s"
      ],
      [
        "p",
        "in"
      ],
      [
        "s",
        "le"
      ],
      [
        "s",
        "itor"
      ],
      [
        "w",
        "a"
      ],
      [
        "w",
        "it"
      ],
      [
        "y",
        "s"
      ],
      [
        "Ġ",
        "menu"
      ],
      [
        "Ġ",
        "history"
      ],
      [
        "Ġ",
        "account"
      ],
      [
        "Ġ",
        "agent"
      ],
      [
        "se",
        "nd"
      ],
      [
        "ch",
        "ro"
      ],
      [
        "me",
        "dia"
      ],
      [
        "re",
        "ad"
      ],
      [
        "te",
        "n"
      ],
      [
        "te",
        "ction"
      ],
      [
        "or",
        "d"
      ],
      [
        "la",
        "b"
      ],
      [
        "clo",
        "ck"
      ],
      [
        "li",
        "sh"
      ],
      [
        "Ġc",
        "on"
      ],
      [
        "Ġp",
        "rin"
      ],
      [
        "co",
        "lla"
      ],
      [
        "exp",
        "ort"
      ],
      [
        "ale",
        "rt"
      ],
      [
        "Ġb",
        "la"
      ],
      [
        "fo",
        "l"
      ],
      [
        "Ġpro",
        "tection"
      ],
      [
        "Ġs",
        "ubmit"
      ],
      [
        "prin",
        "ter"
      ],
      [
        "po",
        "sitor"
      ],
      [
        "photo",
        "s"
      ],
      [
        "sele",
        "ct"
      ],
      [
        "eng",
        "lish"
      ],
      [
        "sle",
        "ep"
      ],
      [
        "chro",
        "me"
      ],
      [
        "Ġprin",
        "ter"
      ],
      [
        "positor",
        "y"
      ],
      [
        "a",
        "ct"
      ],
      [
        "a",
        "ir"
      ],
      [
        "d",
        "ra"
      ],
      [
        "d",
        "rop"
      ],
      [
        "f",
        "y"
      ],
      [
        "g",
        "oogle"
      ],
      [
        "i",
        "v"
      ],
      [
        "m",
        "sun"
      ],
      [
        "p",
        "se"
      ],
      [
        "s",
        "ual"
      ],
      [
        "t",
        "he"
      ],
      [
        "Ġ",
        "a"
      ],
      [
        "Ġ",
        "mark"
      ],
      [
        "Ġ",
        "dis"
      ],
      [
        "re",
        "pository"
      ],
      [
        "at",
        "ure"
      ],
      [
        "fi",
        "l"
      ],
      [
        "ro",
        "up"
      ],
      [
        "ic",
        "e"
      ],
      [
        "vi",
        "sual"
      ],
      [
        "li",
        "br"
      ],
      [
        "Ġc",
        "o"
      ],
      [
        "sa",
        "msun"
      ],
      [
        "en",
        "ter"
      ],
      [
        "lin",
        "es"
      ],
      [
        "Ġfile",
        "s"
      ],
      [
        "Ġi",
        "de"
      ],
      [
        "face",
        "book"
      ],
      [
        "com",
        "ment"
      ],
      [
        "colla",
        "pse"
      ],
      [
        "fol",
        "der"
      ],
      [
        "act",
        "iv"
      ],
      [
        "libr",
        "ary"
      ],
      [
        "samsun",
        "g"
      ],
      [
        "activ",
        "ity"
      ],
      [
        "a",
        "m"
      ],
      [
        "a",
        "p"
      ],
      [
        "b",
        "luetooth"
      ],
      [
        "c",
        "le"
      ],
      [
        "c",
        "atalog"
      ],
      [
        "i",
        "bility"
      ],
      [
        "i",
        "fy"
      ],
      [
        "l",
        "y"
      ],
      [
        "m",
        "il"
      ],
      [
        "p",
        "y"
      ],
      [
        "p",
        "or"
      ],
      [
        "s",
        "o"
      ],
      [
        "s",
        "ys"
      ],
      [
        "y",
        "t"
      ],
      [
        "Ġ",
        "de"
      ],
      [
        "Ġ",
        "dashboard"
      ],
      [
        "Ġ",
        "ui"
      ],
      [
        "Ġ",
        "explore"
      ],
      [
        "lo",
        "w"
      ],
      [
        "lo",
        "cal"
      ],
      [
        "in",
        "s"
      ],
      [
        "re",
        "s"
      ],
      [
        "re",
        "et"
      ],
      [
        "te",
        "ll"
      ],
      [
        "st",
        "r"
      ],
      [
        "st",
        "art"
      ],
      [
        "st",
        "reet"
      ],
      [
        "or",
        "i"
      ],
      [
        "de",
        "ve"
      ],
      [
        "fi",
        "re"
      ],
      [
        "ge",
        "n"
      ],
      [
        "ic",
        "al"
      ],
      [
        "al",
        "yt"
      ],
      [
        "ss",
        "age"
      ],
      [
        "Ġc",
        "atalog"
      ],
      [
        "Ġc",
        "enter"
      ],
      [
        "ex",
        "cel"
      ],
      [
        "open",
        "street"
      ],
      [
        "con",
        "tent"
      ],
      [
        "Ġpro",
        "ject"
      ],
      [
        "fa",
        "mil"
      ],
      [
        "lin",
        "e"
      ],
      [
        "ul",
        "b"
      ],
      [
        "rec",
        "ord"
      ],
      [
        "access",
        "ibility"
      ],
      [
        "power",
        "point"
      ],
      [
        "game",
        "s"
      ],
      [
        "brush",
        "es"
      ],
      [
        "man",
        "age"
      ],
      [
        "Ġbla",
        "ze"
      ],
      [
        "fil",
        "ter"
      ],
      [
        "por",
        "ts"
      ],
      [
        "sys",
        "tem"
      ],
      [
        "Ġexplore",
        "r"
      ],
      [
        "deve",
        "lo"
      ],
      [
        "openstreet",
        "map"
      ],
      [
        "famil",
        "y"
      ],
      [
        "3",
        "6"
      ],
      [
        "a",
        "st"
      ],
      [
        "c",
        "us"
      ],
      [
        "c",
        "ri"
      ],
      [
        "d",
        "ark"
      ],
      [
        "d",
        "ict"
      ],
      [
        "e",
        "ed"
      ],
      [
        "f",
        "f"
      ],
      [
        "i",
        "p"
      ],
      [
        "i",
        "st"
      ],
      [
        "n",
        "a"
      ],
      [
        "o",
        "mer"
      ],
      [
        "p",
        "s"
      ],
      [
        "t",
        "ate"
      ],
      [
        "t",
        "ball"
      ],
      [
        "t",
        "ur"
      ],
      [
        "t",
        "ions"
      ],
      [
        "v",
        "ori"
      ],
      [
        "w",
        "ing"
      ],
      [
        "y",
        "cle"
      ],
      [
        "Ġ",
        "le"
      ],
      [
        "Ġ",
        "and"
      ],
      [
        "Ġ",
        "monitor"
      ],
      [
        "Ġ",
        "36"
      ],
      [
        "ar",
        "n"
      ],
      [
        "st",
        "yles"
      ],
      [
        "st",
        "omer"
      ],
      [
        "at",
        "ist"
      ],
      [
        "fi",
        "ce"
      ],
      [
        "ro",
        "tate"
      ],
      [
        "ion",
        "ary"
      ],
      [
        "pe",
        "op"
      ],
      [
        "Ġp",
        "lay"
      ],
      [
        "us",
        "b"
      ],
      [
        "Ġb",
        "in"
      ],
      [
        "micro",
        "phone"
      ],
      [
        "fo",
        "cus"
      ],
      [
        "wi",
        "fi"
      ],
      [
        "ti",
        "ps"
      ],
      [
        "cre",
        "ase"
      ],
      [
        "th",
        "on"
      ],
      [
        "Ġst",
        "yles"
      ],
      [
        "book",
        "mark"
      ],
      [
        "fa",
        "ile"
      ],
      [
        "fa",
        "vori"
      ],
      [
        "out",
        "line"
      ],
      [
        "Ġin",
        "fo"
      ],
      [
        "Ġf",
        "or"
      ],
      [
        "create",
        "d"
      ],
      [
        "min",
        "d"
      ],
      [
        "op",
        "tions"
      ],
      [
        "rec",
        "ycle"
      ],
      [
        "note",
        "s"
      ],
      [
        "Ġof",
        "fice"
      ],
      [
        "tem",
        "per"
      ],
      [
        "Ġpa",
        "ne"
      ],
      [
        "tag",
        "s"
      ],
      [
        "um",
        "b"
      ],
      [
        "secu",
        "re"
      ],
      [
        "Ġcon",
        "tent"
      ],
      [
        "air",
        "drop"
      ],
      [
        "py",
        "thon"
      ],
      [
        "res",
        "ul"
      ],
      [
        "alyt",
        "ics"
      ],
      [
        "tur",
        "n"
      ],
      [
        "Ġ36",
        "5"
      ],
      [
        "stomer",
        "s"
      ],
      [
        "atist",
        "ics"
      ],
      [
        "peop",
        "le"
      ],
      [
        "faile",
        "d"
      ],
      [
        "favori",
        "te"
      ],
      [
        "temper",
        "ature"
      ],
      [
        "a",
        "v"
      ],
      [
        "b",
        "e"
      ],
      [
        "b",
        "ase"
      ],
      [
        "d",
        "ata"
      ],
      [
        "f",
        "t"
      ],
      [
        "f",
        "oo"
      ],
      [
        "g",
        "roup"
      ],
      [
        "l",
        "ic"
      ],
      [
        "m",
        "ir"
      ],
      [
        "n",
        "ame"
      ],
      [
        "p",
        "i"
      ],
      [
        "p",
        "ment"
      ],
      [
        "q",
        "u"
      ],
      [
        "s",
        "k"
      ],
      [
        "s",
        "wit"
      ],
      [
        "s",
        "cri"
      ],
      [
        "u",
        "ct"
      ],
      [
        "v",
        "ice"
      ],
      [
        "Ġ",
        "view"
      ],
      [
        "Ġ",
        "question"
      ],
      [
        "Ġ",
        "time"
      ],
      [
        "Ġ",
        "chrome"
      ],
      [
        "Ġ",
        "manage"
      ],
      [
        "Ġ",
        "options"
      ],
      [
        "lo",
        "go"
      ],
      [
        "in",
        "st"
      ],
      [
        "in",
        "ter"
      ],
      [
        "in",
        "box"
      ],
      [
        "re",
        "turn"
      ],
      [
        "on",
        "ly"
      ],
      [
        "sh",
        "ell"
      ],
      [
        "st",
        "op"
      ],
      [
        "la",
        "ss"
      ],
      [
        "er",
        "ror"
      ],
      [
        "ic",
        "on"
      ],
      [
        "ic",
        "ip"
      ],
      [
        "ma",
        "in"
      ],
      [
        "ma",
        "gn"
      ],
      [
        "vi",
        "r"
      ],
      [
        "pe",
        "dia"
      ],
      [
        "al",
        "low"
      ],
      [
        "ra",
        "m"
      ],
      [
        "ss",
        "word"
      ],
      [
        "art",
        "icip"
      ],
      [
        "play",
        "er"
      ],
      [
        "we",
        "chat"
      ],
      [
        "Ġb",
        "ar"
      ],
      [
        "Ġb",
        "ulb"
      ],
      [
        "fo",
        "rec"
      ],
      [
        "cu",
        "stomers"
      ],
      [
        "ation",
        "s"
      ],
      [
        "pro",
        "cess"
      ],
      [
        "cloud",
        "y"
      ],
      [
        "Ġf",
        "oo"
      ],
      [
        "wiki",
        "pedia"
      ],
      [
        "Ġre",
        "quest"
      ],
      [
        "min",
        "us"
      ],
      [
        "app",
        "s"
      ],
      [
        "Ġg",
        "lass"
      ],
      [
        "ni",
        "p"
      ],
      [
        "ni",
        "s"
      ],
      [
        "picture",
        "s"
      ],
      [
        "pa",
        "int"
      ],
      [
        "Ġd",
        "ata"
      ],
      [
        "Ġme",
        "ssage"
      ],
      [
        "ten",
        "nis"
      ],
      [
        "Ġdis",
        "k"
      ],
      [
        "Ġide",
        "as"
      ],
      [
        "ify",
        "ing"
      ],
      [
        "develo",
        "pment"
      ],
      [
        "dict",
        "ionary"
      ],
      [
        "arn",
        "ing"
      ],
      [
        "mir",
        "ror"
      ],
      [
        "swit",
        "ch"
      ],
      [
        "scri",
        "p"
      ],
      [
        "Ġmanage",
        "ment"
      ],
      [
        "inter",
        "net"
      ],
      [
        "magn",
        "ifying"
      ],
      [
        "articip",
        "an"
      ],
      [
        "forec",
        "ast"
      ],
      [
        "a",
        "li"
      ],
      [
        "b",
        "ar"
      ],
      [
        "c",
        "are"
      ],
      [
        "e",
        "y"
      ],
      [
        "e",
        "ch"
      ],
      [
        "f",
        "or"
      ],
      [
        "i",
        "o"
      ],
      [
        "i",
        "gn"
      ],
      [
        "m",
        "at"
      ],
      [
        "m",
        "iss"
      ],
      [
        "p",
        "u"
      ],
      [
        "p",
        "ac"
      ],
      [
        "p",
        "ort"
      ],
      [
        "p",
        "articipan"
      ],
      [
        "r",
        "ity"
      ],
      [
        "s",
        "m"
      ],
      [
        "s",
        "nip"
      ],
      [
        "v",
        "el"
      ],
      [
        "w",
        "are"
      ],
      [
        "w",
        "all"
      ],
      [
        "y",
        "pe"
      ],
      [
        "Ġ",
        "download"
      ],
      [
        "Ġ",
        "close"
      ],
      [
        "Ġ",
        "merge"
      ],
      [
        "Ġ",
        "issue"
      ],
      [
        "Ġ",
        "all"
      ],
      [
        "Ġ",
        "work"
      ],
      [
        "Ġ",
        "one"
      ],
      [
        "Ġ",
        "tools"
      ],
      [
        "Ġ",
        "write"
      ],
      [
        "Ġ",
        "access"
      ],
      [
        "Ġ",
        "get"
      ],
      [
        "Ġ",
        "network"
      ],
      [
        "Ġ",
        "alert"
      ],
      [
        "Ġ",
        "the"
      ],
      [
        "Ġ",
        "only"
      ],
      [
        "Ġ",
        "forecast"
      ],
      [
        "ad",
        "er"
      ],
      [
        "ad",
        "min"
      ],
      [
        "in",
        "e"
      ],
      [
        "me",
        "d"
      ],
      [
        "re",
        "set"
      ],
      [
        "re",
        "start"
      ],
      [
        "le",
        "te"
      ],
      [
        "st",
        "atistics"
      ],
      [
        "de",
        "bug"
      ],
      [
        "de",
        "lete"
      ],
      [
        "fi",
        "x"
      ],
      [
        "an",
        "gle"
      ],
      [
        "vi",
        "si"
      ],
      [
        "li",
        "ke"
      ],
      [
        "pe",
        "ech"
      ],
      [
        "un",
        "d"
      ],
      [
        "Ġp",
        "ower"
      ],
      [
        "ter",
        "min"
      ],
      [
        "si",
        "te"
      ],
      [
        "co",
        "ver"
      ],
      [
        "ri",
        "v"
      ],
      [
        "ri",
        "ve"
      ],
      [
        "ri",
        "ght"
      ],
      [
        "con",
        "fi"
      ],
      [
        "ud",
        "io"
      ],
      [
        "ce",
        "nt"
      ],
      [
        "cre",
        "w"
      ],
      [
        "cre",
        "en"
      ],
      [
        "map",
        "s"
      ],
      [
        "lin",
        "k"
      ],
      [
        "lin",
        "ks"
      ],
      [
        "Ġf",
        "lip"
      ],
      [
        "Ġf",
        "eed"
      ],
      [
        "Ġto",
        "ggle"
      ],
      [
        "web",
        "site"
      ],
      [
        "ble",
        "m"
      ],
      [
        "Ġup",
        "date"
      ],
      [
        "dis",
        "cover"
      ],
      [
        "Ġd",
        "ra"
      ],
      [
        "document",
        "s"
      ],
      [
        "location",
        "s"
      ],
      [
        "ag",
        "ram"
      ],
      [
        "secu",
        "rity"
      ],
      [
        "wa",
        "ter"
      ],
      [
        "dra",
        "wing"
      ],
      [
        "so",
        "und"
      ],
      [
        "resul",
        "ts"
      ],
      [
        "sk",
        "ype"
      ],
      [
        "logo",
        "ut"
      ],
      [
        "inst",
        "agram"
      ],
      [
        "icon",
        "s"
      ],
      [
        "ign",
        "ore"
      ],
      [
        "participan",
        "ts"
      ],
      [
        "Ġone",
        "note"
      ],
      [
        "visi",
        "bility"
      ],
      [
        "termin",
        "al"
      ],
      [
        "a",
        "in"
      ],
      [
        "a",
        "ction"
      ],
      [
        "b",
        "as"
      ],
      [
        "b",
        "lock"
      ],
      [
        "c",
        "ash"
      ],
      [
        "c",
        "all"
      ],
      [
        "d",
        "s"
      ],
      [
        "e",
        "e"
      ],
      [
        "e",
        "ase"
      ],
      [
        "g",
        "al"
      ],
      [
        "i",
        "g"
      ],
      [
        "i",
        "ve"
      ],
      [
        "j",
        "s"
      ],
      [
        "j",
        "um"
      ],
      [
        "l",
        "le"
      ],
      [
        "n",
        "ers"
      ],
      [
        "n",
        "ce"
      ],
      [
        "n",
        "one"
      ],
      [
        "p",
        "c"
      ],
      [
        "p",
        "t"
      ],
      [
        "p",
        "ers"
      ],
      [
        "p",
        "riv"
      ],
      [
        "q",
        "q"
      ],
      [
        "r",
        "y"
      ],
      [
        "r",
        "ts"
      ],
      [
        "s",
        "cale"
      ],
      [
        "s",
        "ort"
      ],
      [
        "s",
        "pac"
      ],
      [
        "s",
        "creen"
      ],
      [
        "t",
        "ri"
      ],
      [
        "t",
        "as"
      ],
      [
        "u",
        "il"
      ],
      [
        "v",
        "ers"
      ],
      [
        "w",
        "ard"
      ],
      [
        "w",
        "ind"
      ],
      [
        "x",
        "y"
      ],
      [
        "y",
        "ball"
      ],
      [
        "Ġ",
        "load"
      ],
      [
        "Ġ",
        "sh"
      ],
      [
        "Ġ",
        "mail"
      ],
      [
        "Ġ",
        "wi"
      ],
      [
        "Ġ",
        "log"
      ],
      [
        "Ġ",
        "di"
      ],
      [
        "Ġ",
        "th"
      ],
      [
        "Ġ",
        "music"
      ],
      [
        "Ġ",
        "out"
      ],
      [
        "Ġ",
        "video"
      ],
      [
        "Ġ",
        "ll"
      ],
      [
        "Ġ",
        "wh"
      ],
      [
        "Ġ",
        "list"
      ],
      [
        "Ġ",
        "sele"
      ],
      [
        "Ġ",
        "tag"
      ],
      [
        "Ġ",
        "wit"
      ],
      [
        "Ġ",
        "library"
      ],
      [
        "Ġ",
        "tips"
      ],
      [
        "Ġ",
        "name"
      ],
      [
        "Ġ",
        "tennis"
      ],
      [
        "se",
        "rt"
      ],
      [
        "in",
        "p"
      ],
      [
        "in",
        "crease"
      ],
      [
        "in",
        "sert"
      ],
      [
        "ar",
        "m"
      ],
      [
        "ar",
        "te"
      ],
      [
        "ch",
        "ain"
      ],
      [
        "me",
        "s"
      ],
      [
        "re",
        "at"
      ],
      [
        "re",
        "mo"
      ],
      [
        "re",
        "lla"
      ],
      [
        "re",
        "ports"
      ],
      [
        "te",
        "l"
      ],
      [
        "st",
        "ore"
      ],
      [
        "at",
        "us"
      ],
      [
        "ck",
        "ey"
      ],
      [
        "de",
        "fa"
      ],
      [
        "de",
        "lines"
      ],
      [
        "de",
        "vice"
      ],
      [
        "fi",
        "ll"
      ],
      [
        "er",
        "al"
      ],
      [
        "ne",
        "ss"
      ],
      [
        "ma",
        "ge"
      ],
      [
        "an",
        "alytics"
      ],
      [
        "el",
        "d"
      ],
      [
        "pe",
        "ts"
      ],
      [
        "il",
        "s"
      ],
      [
        "il",
        "lu"
      ],
      [
        "al",
        "culator"
      ],
      [
        "al",
        "arm"
      ],
      [
        "ho",
        "ckey"
      ],
      [
        "Ġc",
        "alculator"
      ],
      [
        "art",
        "art"
      ],
      [
        "co",
        "ff"
      ],
      [
        "ate",
        "g"
      ],
      [
        "ale",
        "rts"
      ],
      [
        "con",
        "ver"
      ],
      [
        "vo",
        "lle"
      ],
      [
        "Ġb",
        "attery"
      ],
      [
        "Ġb",
        "luetooth"
      ],
      [
        "Ġb",
        "uil"
      ],
      [
        "fo",
        "x"
      ],
      [
        "as",
        "k"
      ],
      [
        "ub",
        "lic"
      ],
      [
        "he",
        "ader"
      ],
      [
        "cloud",
        "s"
      ],
      [
        "ta",
        "ils"
      ],
      [
        "too",
        "l"
      ],
      [
        "th",
        "read"
      ],
      [
        "ke",
        "tball"
      ],
      [
        "ui",
        "delines"
      ],
      [
        "Ġst",
        "arte"
      ],
      [
        "Ġst",
        "atus"
      ],
      [
        "fa",
        "q"
      ],
      [
        "cut",
        "s"
      ],
      [
        "ort",
        "cuts"
      ],
      [
        "ul",
        "t"
      ],
      [
        "Ġg",
        "roup"
      ],
      [
        "Ġg",
        "uidelines"
      ],
      [
        "Ġ1",
        "0"
      ],
      [
        "Ġ1",
        "1"
      ],
      [
        "notification",
        "s"
      ],
      [
        "sun",
        "light"
      ],
      [
        "color",
        "s"
      ],
      [
        "pa",
        "ssword"
      ],
      [
        "Ġd",
        "rive"
      ],
      [
        "Ġarrow",
        "s"
      ],
      [
        "face",
        "time"
      ],
      [
        "Ġan",
        "alytics"
      ],
      [
        "the",
        "mes"
      ],
      [
        "Ġdis",
        "play"
      ],
      [
        "Ġco",
        "lor"
      ],
      [
        "str",
        "uct"
      ],
      [
        "str",
        "ations"
      ],
      [
        "fire",
        "wall"
      ],
      [
        "fire",
        "fox"
      ],
      [
        "gen",
        "eral"
      ],
      [
        "Ġfor",
        "mat"
      ],
      [
        "umb",
        "rella"
      ],
      [
        "base",
        "ball"
      ],
      [
        "vir",
        "us"
      ],
      [
        "Ġfoo",
        "ter"
      ],
      [
        "Ġrequest",
        "s"
      ],
      [
        "Ġdata",
        "set"
      ],
      [
        "scrip",
        "ts"
      ],
      [
        "miss",
        "ions"
      ],
      [
        "sm",
        "ile"
      ],
      [
        "right",
        "ness"
      ],
      [
        "action",
        "s"
      ],
      [
        "bas",
        "ketball"
      ],
      [
        "jum",
        "p"
      ],
      [
        "spac",
        "ing"
      ],
      [
        "tas",
        "ks"
      ],
      [
        "Ġth",
        "reat"
      ],
      [
        "Ġll",
        "m"
      ],
      [
        "Ġwh",
        "at"
      ],
      [
        "Ġsele",
        "ction"
      ],
      [
        "Ġwit",
        "h"
      ],
      [
        "defa",
        "ult"
      ],
      [
        "illu",
        "strations"
      ],
      [
        "coff",
        "ee"
      ],
      [
        "conver",
        "t"
      ],
      [
        "volle",
        "yball"
      ],
      [
        "Ġbuil",
        "d"
      ],
      [
        "Ġstarte",
        "d"
      ],
      [
        "struct",
        "ure"
      ],
      [
        "0",
        "4"
      ],
      [
        "1",
        "1"
      ],
      [
        "1",
        "2"
      ],
      [
        "4",
        "04"
      ],
      [
        "a",
        "a"
      ],
      [
        "a",
        "ss"
      ],
      [
        "a",
        "mer"
      ],
      [
        "a",
        "ble"
      ],
      [
        "a",
        "udio"
      ],
      [
        "b",
        "us"
      ],
      [
        "b",
        "et"
      ],
      [
        "b",
        "ulb"
      ],
      [
        "c",
        "c"
      ],
      [
        "c",
        "l"
      ],
      [
        "c",
        "and"
      ],
      [
        "c",
        "ord"
      ],
      [
        "c",
        "ateg"
      ],
      [
        "d",
        "a"
      ],
      [
        "d",
        "j"
      ],
      [
        "d",
        "de"
      ],
      [
        "d",
        "it"
      ],
      [
        "d",
        "uct"
      ],
      [
        "e",
        "m"
      ],
      [
        "e",
        "q"
      ],
      [
        "e",
        "re"
      ],
      [
        "e",
        "ve"
      ],
      [
        "e",
        "ff"
      ],
      [
        "f",
        "in"
      ],
      [
        "f",
        "ar"
      ],
      [
        "f",
        "la"
      ],
      [
        "f",
        "ra"
      ],
      [
        "f",
        "ts"
      ],
      [
        "f",
        "eed"
      ],
      [
        "g",
        "ion"
      ],
      [
        "g",
        "net"
      ],
      [
        "g",
        "pt"
      ],
      [
        "h",
        "ex"
      ],
      [
        "h",
        "ard"
      ],
      [
        "h",
        "and"
      ],
      [
        "i",
        "d"
      ],
      [
        "i",
        "m"
      ],
      [
        "i",
        "sho"
      ],
      [
        "l",
        "t"
      ],
      [
        "m",
        "n"
      ],
      [
        "m",
        "ma"
      ],
      [
        "m",
        "artart"
      ],
      [
        "n",
        "g"
      ],
      [
        "n",
        "al"
      ],
      [
        "n",
        "umb"
      ],
      [
        "o",
        "k"
      ],
      [
        "o",
        "u"
      ],
      [
        "o",
        "te"
      ],
      [
        "o",
        "ct"
      ],
      [
        "p",
        "ad"
      ],
      [
        "p",
        "la"
      ],
      [
        "p",
        "lan"
      ],
      [
        "p",
        "ublic"
      ],
      [
        "r",
        "ation"
      ],
      [
        "s",
        "ter"
      ],
      [
        "s",
        "up"
      ],
      [
        "s",
        "can"
      ],
      [
        "s",
        "po"
      ],
      [
        "s",
        "ci"
      ],
      [
        "s",
        "ug"
      ],
      [
        "s",
        "ions"
      ],
      [
        "s",
        "na"
      ],
      [
        "s",
        "qu"
      ],
      [
        "s",
        "peech"
      ],
      [
        "t",
        "xt"
      ],
      [
        "t",
        "light"
      ],
      [
        "u",
        "ch"
      ],
      [
        "u",
        "cation"
      ],
      [
        "v",
        "ic"
      ],
      [
        "v",
        "ed"
      ],
      [
        "w",
        "arning"
      ],
      [
        "x",
        "box"
      ],
      [
        "y",
        "out"
      ],
      [
        "y",
        "ou"
      ],
      [
        "z",
        "am"
      ],
      [
        "Ġ",
        "2"
      ],
      [
        "Ġ",
        "t"
      ],
      [
        "Ġ",
        "ar"
      ],
      [
        "Ġ",
        "te"
      ],
      [
        "Ġ",
        "or"
      ],
      [
        "Ġ",
        "li"
      ],
      [
        "Ġ",
        "si"
      ],
      [
        "Ġ",
        "use"
      ],
      [
        "Ġ",
        "email"
      ],
      [
        "Ġ",
        "user"
      ],
      [
        "Ġ",
        "next"
      ],
      [
        "Ġ",
        "layers"
      ],
      [
        "Ġ",
        "map"
      ],
      [
        "Ġ",
        "deploy"
      ],
      [
        "Ġ",
        "do"
      ],
      [
        "Ġ",
        "text"
      ],
      [
        "Ġ",
        "shapes"
      ],
      [
        "Ġ",
        "document"
      ],
      [
        "Ġ",
        "language"
      ],
      [
        "Ġ",
        "word"
      ],
      [
        "Ġ",
        "videos"
      ],
      [
        "Ġ",
        "filter"
      ],
      [
        "Ġ",
        "microphone"
      ],
      [
        "Ġ",
        "apps"
      ],
      [
        "Ġ",
        "mirror"
      ],
      [
        "Ġ",
        "eve"
      ],
      [
        "lo",
        "ur"
      ],
      [
        "lo",
        "ok"
      ],
      [
        "ow",
        "se"
      ],
      [
        "se",
        "nt"
      ],
      [
        "se",
        "nal"
      ],
      [
        "in",
        "de"
      ],
      [
        "in",
        "tel"
      ],
      [
        "ar",
        "ing"
      ],
      [
        "ing",
        "s"
      ],
      [
        "ch",
        "ine"
      ],
      [
        "arch",
        "ical"
      ],
      [
        "arch",
        "ive"
      ],
      [
        "me",
        "ta"
      ],
      [
        "me",
        "ssage"
      ],
      [
        "re",
        "d"
      ],
      [
        "re",
        "ct"
      ],
      [
        "re",
        "pe"
      ],
      [
        "re",
        "do"
      ],
      [
        "re",
        "ction"
      ],
      [
        "re",
        "size"
      ],
      [
        "te",
        "st"
      ],
      [
        "on",
        "ment"
      ],
      [
        "on",
        "ali"
      ],
      [
        "le",
        "ag"
      ],
      [
        "le",
        "arning"
      ],
      [
        "le",
        "ry"
      ],
      [
        "sh",
        "u"
      ],
      [
        "at",
        "ch"
      ],
      [
        "de",
        "crease"
      ],
      [
        "de",
        "bar"
      ],
      [
        "de",
        "vic"
      ],
      [
        "fi",
        "eld"
      ],
      [
        "er",
        "missions"
      ],
      [
        "er",
        "archical"
      ],
      [
        "it",
        "ation"
      ],
      [
        "ro",
        "ss"
      ],
      [
        "ge",
        "st"
      ],
      [
        "ge",
        "nd"
      ],
      [
        "ne",
        "e"
      ],
      [
        "ne",
        "ver"
      ],
      [
        "ic",
        "an"
      ],
      [
        "ma",
        "gen"
      ],
      [
        "ma",
        "gnet"
      ],
      [
        "an",
        "field"
      ],
      [
        "vi",
        "g"
      ],
      [
        "ct",
        "s"
      ],
      [
        "al",
        "th"
      ],
      [
        "al",
        "wa"
      ],
      [
        "un",
        "lock"
      ],
      [
        "ra",
        "ph"
      ],
      [
        "Ġc",
        "re"
      ],
      [
        "Ġc",
        "ap"
      ],
      [
        "Ġc",
        "itation"
      ],
      [
        "Ġp",
        "ref"
      ],
      [
        "Ġp",
        "ackage"
      ],
      [
        "Ġp",
        "ermissions"
      ],
      [
        "mail",
        "ings"
      ],
      [
        "are",
        "na"
      ],
      [
        "play",
        "ers"
      ],
      [
        "si",
        "ri"
      ],
      [
        "bo",
        "ut"
      ],
      [
        "ed",
        "ucation"
      ],
      [
        "check",
        "list"
      ],
      [
        "co",
        "de"
      ],
      [
        "co",
        "lu"
      ],
      [
        "ex",
        "ten"
      ],
      [
        "ac",
        "y"
      ],
      [
        "to",
        "uch"
      ],
      [
        "con",
        "ta"
      ],
      [
        "go",
        "ver"
      ],
      [
        "vo",
        "ice"
      ],
      [
        "Ġb",
        "oo"
      ],
      [
        "Ġb",
        "as"
      ],
      [
        "Ġb",
        "ook"
      ],
      [
        "Ġb",
        "rightness"
      ],
      [
        "cu",
        "be"
      ],
      [
        "pro",
        "file"
      ],
      [
        "pro",
        "blem"
      ],
      [
        "pro",
        "xy"
      ],
      [
        "pro",
        "ved"
      ],
      [
        "tra",
        "vel"
      ],
      [
        "soft",
        "ware"
      ],
      [
        "ti",
        "mer"
      ],
      [
        "ub",
        "e"
      ],
      [
        "he",
        "alth"
      ],
      [
        "Ġpro",
        "blem"
      ],
      [
        "Ġs",
        "can"
      ],
      [
        "Ġs",
        "ni"
      ],
      [
        "Ġs",
        "peech"
      ],
      [
        "Ġs",
        "martart"
      ],
      [
        "no",
        "t"
      ],
      [
        "chat",
        "gpt"
      ],
      [
        "ect",
        "s"
      ],
      [
        "hi",
        "dde"
      ],
      [
        "hi",
        "erarchical"
      ],
      [
        "sa",
        "far"
      ],
      [
        "en",
        "ce"
      ],
      [
        "en",
        "vir"
      ],
      [
        "en",
        "able"
      ],
      [
        "mo",
        "re"
      ],
      [
        "mo",
        "on"
      ],
      [
        "mo",
        "use"
      ],
      [
        "Ġst",
        "atistics"
      ],
      [
        "project",
        "s"
      ],
      [
        "es",
        "ports"
      ],
      [
        "po",
        "ds"
      ],
      [
        "do",
        "ck"
      ],
      [
        "wiki",
        "qu"
      ],
      [
        "git",
        "lab"
      ],
      [
        "Ġre",
        "qui"
      ],
      [
        "Ġre",
        "port"
      ],
      [
        "Ġre",
        "cord"
      ],
      [
        "sha",
        "zam"
      ],
      [
        "light",
        "bulb"
      ],
      [
        "web",
        "arena"
      ],
      [
        "cal",
        "c"
      ],
      [
        "op",
        "us"
      ],
      [
        "app",
        "ly"
      ],
      [
        "app",
        "lic"
      ],
      [
        "Ġg",
        "oogle"
      ],
      [
        "Ġg",
        "am"
      ],
      [
        "note",
        "book"
      ],
      [
        "ci",
        "al"
      ],
      [
        "gu",
        "ration"
      ],
      [
        "ni",
        "ght"
      ],
      [
        "ver",
        "ify"
      ],
      [
        "pa",
        "use"
      ],
      [
        "per",
        "clip"
      ],
      [
        "update",
        "d"
      ],
      [
        "Ġmode",
        "ls"
      ],
      [
        "aut",
        "h"
      ],
      [
        "Ġi",
        "d"
      ],
      [
        "Ġpa",
        "int"
      ],
      [
        "Ġpa",
        "ssword"
      ],
      [
        "com",
        "pu"
      ],
      [
        "ag",
        "on"
      ],
      [
        "auto",
        "switch"
      ],
      [
        "wa",
        "ke"
      ],
      [
        "media",
        "wiki"
      ],
      [
        "Ġcon",
        "nect"
      ],
      [
        "printer",
        "s"
      ],
      [
        "air",
        "pods"
      ],
      [
        "dra",
        "w"
      ],
      [
        "dra",
        "fts"
      ],
      [
        "Ġa",
        "udio"
      ],
      [
        "Ġco",
        "lour"
      ],
      [
        "folder",
        "s"
      ],
      [
        "am",
        "s"
      ],
      [
        "ap",
        "i"
      ],
      [
        "ap",
        "proved"
      ],
      [
        "so",
        "cc"
      ],
      [
        "Ġde",
        "vice"
      ],
      [
        "Ġde",
        "tails"
      ],
      [
        "record",
        "ing"
      ],
      [
        "filter",
        "s"
      ],
      [
        "develo",
        "per"
      ],
      [
        "na",
        "vig"
      ],
      [
        "Ġle",
        "gend"
      ],
      [
        "bookmark",
        "s"
      ],
      [
        "resul",
        "t"
      ],
      [
        "favorite",
        "s"
      ],
      [
        "data",
        "base"
      ],
      [
        "foo",
        "ter"
      ],
      [
        "group",
        "s"
      ],
      [
        "pi",
        "e"
      ],
      [
        "Ġfoo",
        "tball"
      ],
      [
        "scrip",
        "ting"
      ],
      [
        "for",
        "k"
      ],
      [
        "snip",
        "pets"
      ],
      [
        "ine",
        "ss"
      ],
      [
        "med",
        "al"
      ],
      [
        "med",
        "ical"
      ],
      [
        "angle",
        "s"
      ],
      [
        "confi",
        "guration"
      ],
      [
        "Ġupdate",
        "s"
      ],
      [
        "Ġdra",
        "wing"
      ],
      [
        "Ġdra",
        "ft"
      ],
      [
        "gal",
        "lery"
      ],
      [
        "ig",
        "nee"
      ],
      [
        "js",
        "on"
      ],
      [
        "nce",
        "s"
      ],
      [
        "pers",
        "onali"
      ],
      [
        "priv",
        "acy"
      ],
      [
        "tri",
        "angle"
      ],
      [
        "vers",
        "ity"
      ],
      [
        "Ġsh",
        "ortcuts"
      ],
      [
        "Ġdi",
        "rection"
      ],
      [
        "inp",
        "ut"
      ],
      [
        "remo",
        "ve"
      ],
      [
        "store",
        "s"
      ],
      [
        "tool",
        "box"
      ],
      [
        "ass",
        "ignee"
      ],
      [
        "amer",
        "ican"
      ],
      [
        "bus",
        "iness"
      ],
      [
        "cand",
        "le"
      ],
      [
        "categ",
        "ory"
      ],
      [
        "eq",
        "ual"
      ],
      [
        "ere",
        "nces"
      ],
      [
        "eff",
        "ects"
      ],
      [
        "fla",
        "g"
      ],
      [
        "fra",
        "structure"
      ],
      [
        "feed",
        "back"
      ],
      [
        "hex",
        "agon"
      ],
      [
        "hard",
        "ware"
      ],
      [
        "hand",
        "ball"
      ],
      [
        "oct",
        "opus"
      ],
      [
        "spo",
        "tlight"
      ],
      [
        "sci",
        "ence"
      ],
      [
        "sug",
        "gest"
      ],
      [
        "sna",
        "ke"
      ],
      [
        "squ",
        "are"
      ],
      [
        "yout",
        "ube"
      ],
      [
        "Ġar",
        "senal"
      ],
      [
        "Ġte",
        "ams"
      ],
      [
        "Ġsi",
        "debar"
      ],
      [
        "Ġdo",
        "ts"
      ],
      [
        "Ġmirror",
        "ing"
      ],
      [
        "Ġeve",
        "nt"
      ],
      [
        "inde",
        "nt"
      ],
      [
        "rect",
        "angles"
      ],
      [
        "repe",
        "at"
      ],
      [
        "leag",
        "ue"
      ],
      [
        "devic",
        "es"
      ],
      [
        "magen",
        "to"
      ],
      [
        "alwa",
        "ys"
      ],
      [
        "Ġpref",
        "erences"
      ],
      [
        "colu",
        "mn"
      ],
      [
        "exten",
        "sions"
      ],
      [
        "conta",
        "cts"
      ],
      [
        "gover",
        "n"
      ],
      [
        "Ġbas",
        "ics"
      ],
      [
        "Ġproblem",
        "s"
      ],
      [
        "Ġscan",
        "ners"
      ],
      [
        "hidde",
        "n"
      ],
      [
        "safar",
        "i"
      ],
      [
        "envir",
        "onment"
      ],
      [
        "wikiqu",
        "ote"
      ],
      [
        "Ġrequi",
        "re"
      ],
      [
        "applic",
        "ations"
      ],
      [
        "Ġgam",
        "ing"
      ],
      [
        "compu",
        "ter"
      ],
      [
        "Ġcolour",
        "s"
      ],
      [
        "socc",
        "er"
      ],
      [
        "Ġlegend",
        "s"
      ],
      [
        "personali",
        "ze"
      ],
      [
        "0",
        "1"
      ],
      [
        "1",
        "3"
      ],
      [
        "8",
        "0"
      ],
      [
        "a",
        "h"
      ],
      [
        "a",
        "men"
      ],
      [
        "a",
        "ve"
      ],
      [
        "a",
        "ks"
      ],
      [
        "a",
        "ward"
      ],
      [
        "a",
        "bet"
      ],
      [
        "a",
        "id"
      ],
      [
        "a",
        "bout"
      ],
      [
        "b",
        "i"
      ],
      [
        "b",
        "u"
      ],
      [
        "b",
        "or"
      ],
      [
        "b",
        "ra"
      ],
      [
        "b",
        "ir"
      ],
      [
        "b",
        "rightness"
      ],
      [
        "b",
        "aid"
      ],
      [
        "c",
        "g"
      ],
      [
        "c",
        "r"
      ],
      [
        "c",
        "il"
      ],
      [
        "c",
        "rop"
      ],
      [
        "c",
        "ast"
      ],
      [
        "c",
        "ali"
      ],
      [
        "c",
        "pu"
      ],
      [
        "c",
        "ross"
      ],
      [
        "d",
        "v"
      ],
      [
        "d",
        "ing"
      ],
      [
        "d",
        "on"
      ],
      [
        "d",
        "one"
      ],
      [
        "d",
        "man"
      ],
      [
        "d",
        "riv"
      ],
      [
        "d",
        "ds"
      ],
      [
        "d",
        "cast"
      ],
      [
        "e",
        "i"
      ],
      [
        "e",
        "lo"
      ],
      [
        "e",
        "as"
      ],
      [
        "e",
        "nd"
      ],
      [
        "e",
        "th"
      ],
      [
        "e",
        "ature"
      ],
      [
        "e",
        "qu"
      ],
      [
        "e",
        "cg"
      ],
      [
        "f",
        "all"
      ],
      [
        "f",
        "light"
      ],
      [
        "f",
        "ei"
      ],
      [
        "g",
        "s"
      ],
      [
        "g",
        "y"
      ],
      [
        "g",
        "in"
      ],
      [
        "g",
        "er"
      ],
      [
        "g",
        "an"
      ],
      [
        "g",
        "uest"
      ],
      [
        "g",
        "ure"
      ],
      [
        "g",
        "pu"
      ],
      [
        "g",
        "raph"
      ],
      [
        "h",
        "am"
      ],
      [
        "i",
        "z"
      ],
      [
        "i",
        "ck"
      ],
      [
        "i",
        "ter"
      ],
      [
        "i",
        "cloud"
      ],
      [
        "i",
        "mo"
      ],
      [
        "i",
        "ver"
      ],
      [
        "i",
        "um"
      ],
      [
        "i",
        "mage"
      ],
      [
        "i",
        "eld"
      ],
      [
        "j",
        "o"
      ],
      [
        "j",
        "ew"
      ],
      [
        "j",
        "av"
      ],
      [
        "k",
        "lo"
      ],
      [
        "k",
        "ing"
      ],
      [
        "k",
        "it"
      ],
      [
        "k",
        "ind"
      ],
      [
        "l",
        "ti"
      ],
      [
        "m",
        "y"
      ],
      [
        "m",
        "ar"
      ],
      [
        "m",
        "ing"
      ],
      [
        "m",
        "bo"
      ],
      [
        "m",
        "ium"
      ],
      [
        "n",
        "to"
      ],
      [
        "o",
        "me"
      ],
      [
        "o",
        "lor"
      ],
      [
        "o",
        "int"
      ],
      [
        "o",
        "be"
      ],
      [
        "o",
        "cial"
      ],
      [
        "o",
        "dds"
      ],
      [
        "p",
        "r"
      ],
      [
        "p",
        "ar"
      ],
      [
        "p",
        "ic"
      ],
      [
        "p",
        "age"
      ],
      [
        "p",
        "ath"
      ],
      [
        "p",
        "review"
      ],
      [
        "p",
        "lu"
      ],
      [
        "p",
        "ul"
      ],
      [
        "p",
        "ur"
      ],
      [
        "p",
        "ace"
      ],
      [
        "p",
        "ical"
      ],
      [
        "p",
        "atch"
      ],
      [
        "q",
        "r"
      ],
      [
        "r",
        "u"
      ],
      [
        "r",
        "ug"
      ],
      [
        "r",
        "owse"
      ],
      [
        "s",
        "y"
      ],
      [
        "s",
        "sh"
      ],
      [
        "s",
        "pe"
      ],
      [
        "s",
        "co"
      ],
      [
        "s",
        "use"
      ],
      [
        "s",
        "ure"
      ],
      [
        "s",
        "qui"
      ],
      [
        "s",
        "wa"
      ],
      [
        "s",
        "ten"
      ],
      [
        "s",
        "pi"
      ],
      [
        "s",
        "pace"
      ],
      [
        "t",
        "y"
      ],
      [
        "t",
        "te"
      ],
      [
        "t",
        "or"
      ],
      [
        "t",
        "al"
      ],
      [
        "t",
        "ure"
      ],
      [
        "t",
        "note"
      ],
      [
        "t",
        "wit"
      ],
      [
        "t",
        "ionary"
      ],
      [
        "u",
        "u"
      ],
      [
        "u",
        "ction"
      ],
      [
        "u",
        "rite"
      ],
      [
        "u",
        "stomers"
      ],
      [
        "v",
        "as"
      ],
      [
        "v",
        "ict"
      ],
      [
        "w",
        "atch"
      ],
      [
        "x",
        "o"
      ],
      [
        "x",
        "as"
      ],
      [
        "y",
        "d"
      ],
      [
        "y",
        "age"
      ],
      [
        "y",
        "ment"
      ],
      [
        "y",
        "connect"
      ],
      [
        "y",
        "care"
      ],
      [
        "y",
        "ah"
      ],
      [
        "z",
        "il"
      ],
      [
        "z",
        "ip"
      ],
      [
        "Ġ",
        "5"
      ],
      [
        "Ġ",
        "x"
      ],
      [
        "Ġ",
        "setting"
      ],
      [
        "Ġ",
        "at"
      ],
      [
        "Ġ",
        "ro"
      ],
      [
        "Ġ",
        "ma"
      ],
      [
        "Ġ",
        "al"
      ],
      [
        "Ġ",
        "un"
      ],
      [
        "Ġ",
        "check"
      ],
      [
        "Ġ",
        "home"
      ],
      [
        "Ġ",
        "share"
      ],
      [
        "Ġ",
        "pen"
      ],
      [
        "Ġ",
        "ac"
      ],
      [
        "Ġ",
        "exp"
      ],
      [
        "Ġ",
        "sign"
      ],
      [
        "Ġ",
        "review"
      ],
      [
        "Ġ",
        "chat"
      ],
      [
        "Ġ",
        "expand"
      ],
      [
        "Ġ",
        "new"
      ],
      [
        "Ġ",
        "en"
      ],
      [
        "Ġ",
        "zoom"
      ],
      [
        "Ġ",
        "mu"
      ],
      [
        "Ġ",
        "lock"
      ],
      [
        "Ġ",
        "wiki"
      ],
      [
        "Ġ",
        "git"
      ],
      [
        "Ġ",
        "upload"
      ],
      [
        "Ġ",
        "date"
      ],
      [
        "Ġ",
        "web"
      ],
      [
        "Ġ",
        "app"
      ],
      [
        "Ġ",
        "acco"
      ],
      [
        "Ġ",
        "world"
      ],
      [
        "Ġ",
        "qui"
      ],
      [
        "Ġ",
        "rss"
      ],
      [
        "Ġ",
        "tem"
      ],
      [
        "Ġ",
        "quick"
      ],
      [
        "Ġ",
        "keyboard"
      ],
      [
        "Ġ",
        "box"
      ],
      [
        "Ġ",
        "hide"
      ],
      [
        "Ġ",
        "man"
      ],
      [
        "Ġ",
        "folder"
      ],
      [
        "Ġ",
        "focus"
      ],
      [
        "Ġ",
        "outline"
      ],
      [
        "Ġ",
        "logo"
      ],
      [
        "Ġ",
        "error"
      ],
      [
        "Ġ",
        "icon"
      ],
      [
        "Ġ",
        "wall"
      ],
      [
        "Ġ",
        "links"
      ],
      [
        "Ġ",
        "tool"
      ],
      [
        "Ġ",
        "notifications"
      ],
      [
        "Ġ",
        "ng"
      ],
      [
        "Ġ",
        "numb"
      ],
      [
        "Ġ",
        "archive"
      ],
      [
        "Ġ",
        "not"
      ],
      [
        "Ġ",
        "night"
      ],
      [
        "Ġ",
        "auth"
      ],
      [
        "Ġ",
        "extensions"
      ],
      [
        "Ġ",
        "kit"
      ],
      [
        "Ġ",
        "my"
      ],
      [
        "Ġ",
        "odds"
      ],
      [
        "Ġ",
        "vict"
      ],
      [
        "ow",
        "s"
      ],
      [
        "ad",
        "ho"
      ],
      [
        "ad",
        "obe"
      ],
      [
        "own",
        "er"
      ],
      [
        "load",
        "ing"
      ],
      [
        "se",
        "e"
      ],
      [
        "in",
        "ment"
      ],
      [
        "in",
        "frastructure"
      ],
      [
        "ch",
        "ment"
      ],
      [
        "ch",
        "ange"
      ],
      [
        "ch",
        "ase"
      ],
      [
        "arch",
        "iver"
      ],
      [
        "search",
        "es"
      ],
      [
        "me",
        "eting"
      ],
      [
        "re",
        "e"
      ],
      [
        "re",
        "load"
      ],
      [
        "re",
        "quest"
      ],
      [
        "re",
        "min"
      ],
      [
        "re",
        "dict"
      ],
      [
        "re",
        "cent"
      ],
      [
        "re",
        "ward"
      ],
      [
        "re",
        "store"
      ],
      [
        "re",
        "gion"
      ],
      [
        "te",
        "s"
      ],
      [
        "te",
        "xas"
      ],
      [
        "on",
        "ed"
      ],
      [
        "on",
        "line"
      ],
      [
        "on",
        "da"
      ],
      [
        "le",
        "arn"
      ],
      [
        "le",
        "ft"
      ],
      [
        "le",
        "gal"
      ],
      [
        "le",
        "ave"
      ],
      [
        "sh",
        "es"
      ],
      [
        "sh",
        "op"
      ],
      [
        "sh",
        "ortcuts"
      ],
      [
        "sh",
        "aring"
      ],
      [
        "sh",
        "ield"
      ],
      [
        "st",
        "or"
      ],
      [
        "st",
        "yle"
      ],
      [
        "st",
        "ur"
      ],
      [
        "st",
        "ick"
      ],
      [
        "or",
        "ter"
      ],
      [
        "ck",
        "s"
      ],
      [
        "ck",
        "up"
      ],
      [
        "ck",
        "et"
      ],
      [
        "ck",
        "pad"
      ],
      [
        "de",
        "ck"
      ],
      [
        "de",
        "ll"
      ],
      [
        "de",
        "nce"
      ],
      [
        "de",
        "tails"
      ],
      [
        "de",
        "bi"
      ],
      [
        "la",
        "sh"
      ],
      [
        "la",
        "st"
      ],
      [
        "clo",
        "set"
      ],
      [
        "clo",
        "th"
      ],
      [
        "er",
        "t"
      ],
      [
        "er",
        "ase"
      ],
      [
        "er",
        "gy"
      ],
      [
        "it",
        "ar"
      ],
      [
        "it",
        "ion"
      ],
      [
        "it",
        "ical"
      ],
      [
        "ro",
        "i"
      ],
      [
        "ro",
        "l"
      ],
      [
        "ro",
        "m"
      ],
      [
        "ge",
        "d"
      ],
      [
        "ic",
        "olor"
      ],
      [
        "ma",
        "te"
      ],
      [
        "ma",
        "ke"
      ],
      [
        "ma",
        "lin"
      ],
      [
        "an",
        "che"
      ],
      [
        "an",
        "ac"
      ],
      [
        "an",
        "ce"
      ],
      [
        "an",
        "alyt"
      ],
      [
        "vi",
        "e"
      ],
      [
        "el",
        "ry"
      ],
      [
        "ct",
        "ition"
      ],
      [
        "li",
        "ve"
      ],
      [
        "li",
        "gen"
      ],
      [
        "li",
        "sten"
      ],
      [
        "file",
        "zil"
      ],
      [
        "pe",
        "t"
      ],
      [
        "pe",
        "aks"
      ],
      [
        "al",
        "malin"
      ],
      [
        "un",
        "ing"
      ],
      [
        "un",
        "ter"
      ],
      [
        "un",
        "ts"
      ],
      [
        "un",
        "do"
      ],
      [
        "un",
        "star"
      ],
      [
        "un",
        "der"
      ],
      [
        "un",
        "start"
      ],
      [
        "un",
        "group"
      ],
      [
        "un",
        "sure"
      ],
      [
        "ra",
        "ctition"
      ],
      [
        "ho",
        "tel"
      ],
      [
        "mark",
        "down"
      ],
      [
        "Ġc",
        "ard"
      ],
      [
        "Ġc",
        "ale"
      ],
      [
        "Ġc",
        "ont"
      ],
      [
        "Ġc",
        "rop"
      ],
      [
        "Ġc",
        "ateg"
      ],
      [
        "Ġc",
        "ustomers"
      ],
      [
        "art",
        "ners"
      ],
      [
        "Ġp",
        "ale"
      ],
      [
        "Ġp",
        "hoto"
      ],
      [
        "Ġp",
        "articipan"
      ],
      [
        "Ġp",
        "ublic"
      ],
      [
        "Ġp",
        "oint"
      ],
      [
        "Ġp",
        "redict"
      ],
      [
        "Ġp",
        "ractition"
      ],
      [
        "Ġp",
        "artners"
      ],
      [
        "ter",
        "pre"
      ],
      [
        "ter",
        "dis"
      ],
      [
        "us",
        "ion"
      ],
      [
        "us",
        "age"
      ],
      [
        "we",
        "game"
      ],
      [
        "bo",
        "di"
      ],
      [
        "bo",
        "lt"
      ],
      [
        "ed",
        "in"
      ],
      [
        "ed",
        "itor"
      ],
      [
        "ed",
        "ome"
      ],
      [
        "up",
        "ward"
      ],
      [
        "check",
        "ed"
      ],
      [
        "co",
        "ding"
      ],
      [
        "pen",
        "cil"
      ],
      [
        "open",
        "suse"
      ],
      [
        "ate",
        "d"
      ],
      [
        "of",
        "f"
      ],
      [
        "ac",
        "cent"
      ],
      [
        "ri",
        "se"
      ],
      [
        "to",
        "p"
      ],
      [
        "to",
        "do"
      ],
      [
        "vo",
        "urite"
      ],
      [
        "vo",
        "yage"
      ],
      [
        "Ġb",
        "y"
      ],
      [
        "Ġb",
        "lan"
      ],
      [
        "Ġb",
        "elo"
      ],
      [
        "Ġb",
        "rowse"
      ],
      [
        "fo",
        "ld"
      ],
      [
        "sign",
        "ature"
      ],
      [
        "rin",
        "k"
      ],
      [
        "pro",
        "duct"
      ],
      [
        "tra",
        "in"
      ],
      [
        "tra",
        "ckpad"
      ],
      [
        "as",
        "pac"
      ],
      [
        "ti",
        "es"
      ],
      [
        "ti",
        "mate"
      ],
      [
        "ub",
        "unt"
      ],
      [
        "ce",
        "nto"
      ],
      [
        "he",
        "at"
      ],
      [
        "Ġpro",
        "per"
      ],
      [
        "Ġpro",
        "duct"
      ],
      [
        "cre",
        "dit"
      ],
      [
        "Ġs",
        "nip"
      ],
      [
        "Ġs",
        "port"
      ],
      [
        "Ġs",
        "creen"
      ],
      [
        "Ġs",
        "ocial"
      ],
      [
        "Ġs",
        "pic"
      ],
      [
        "Ġs",
        "orter"
      ],
      [
        "mon",
        "s"
      ],
      [
        "mon",
        "th"
      ],
      [
        "can",
        "vas"
      ],
      [
        "di",
        "vide"
      ],
      [
        "di",
        "versity"
      ],
      [
        "ta",
        "ke"
      ],
      [
        "ta",
        "king"
      ],
      [
        "ta",
        "inment"
      ],
      [
        "ta",
        "chment"
      ],
      [
        "nt",
        "ation"
      ],
      [
        "pp",
        "er"
      ],
      [
        "connect",
        "ion"
      ],
      [
        "th",
        "umb"
      ],
      [
        "th",
        "under"
      ],
      [
        "mo",
        "s"
      ],
      [
        "mo",
        "te"
      ],
      [
        "mo",
        "tor"
      ],
      [
        "Ġst",
        "ru"
      ],
      [
        "project",
        "or"
      ],
      [
        "book",
        "s"
      ],
      [
        "fa",
        "vourite"
      ],
      [
        "out",
        "look"
      ],
      [
        "Ġin",
        "box"
      ],
      [
        "Ġin",
        "str"
      ],
      [
        "Ġin",
        "cl"
      ],
      [
        "Ġin",
        "frastructure"
      ],
      [
        "Ġin",
        "terpre"
      ],
      [
        "heart",
        "be"
      ],
      [
        "deploy",
        "ment"
      ],
      [
        "po",
        "dcast"
      ],
      [
        "Ġf",
        "eature"
      ],
      [
        "Ġf",
        "ree"
      ],
      [
        "Ġf",
        "lash"
      ],
      [
        "wik",
        "tionary"
      ],
      [
        "mu",
        "lti"
      ],
      [
        "wiki",
        "versity"
      ],
      [
        "wiki",
        "voyage"
      ],
      [
        "br",
        "owse"
      ],
      [
        "br",
        "anche"
      ],
      [
        "pre",
        "sent"
      ],
      [
        "pre",
        "mium"
      ],
      [
        "Ġto",
        "ur"
      ],
      [
        "Ġto",
        "tal"
      ],
      [
        "star",
        "red"
      ],
      [
        "star",
        "bu"
      ],
      [
        "Ġre",
        "dis"
      ],
      [
        "Ġre",
        "size"
      ],
      [
        "Ġre",
        "pository"
      ],
      [
        "Ġre",
        "ports"
      ],
      [
        "Ġre",
        "turn"
      ],
      [
        "Ġre",
        "name"
      ],
      [
        "Ġre",
        "ader"
      ],
      [
        "Ġre",
        "cent"
      ],
      [
        "Ġre",
        "gion"
      ],
      [
        "Ġre",
        "mote"
      ],
      [
        "web",
        "archive"
      ],
      [
        "app",
        "le"
      ],
      [
        "ul",
        "timate"
      ],
      [
        "Ġg",
        "ig"
      ],
      [
        "Ġg",
        "ive"
      ],
      [
        "Ġg",
        "pt"
      ],
      [
        "note",
        "pad"
      ],
      [
        "noti",
        "fy"
      ],
      [
        "ggle",
        "s"
      ],
      [
        "Ġ1",
        "80"
      ],
      [
        "gu",
        "itar"
      ],
      [
        "ph",
        "abet"
      ],
      [
        "sun",
        "set"
      ],
      [
        "sun",
        "rise"
      ],
      [
        "cul",
        "ture"
      ],
      [
        "dis",
        "like"
      ],
      [
        "Ġsearch",
        "es"
      ],
      [
        "Ġmo",
        "re"
      ],
      [
        "text",
        "ur"
      ],
      [
        "key",
        "note"
      ],
      [
        "pa",
        "pers"
      ],
      [
        "pa",
        "perclip"
      ],
      [
        "pa",
        "yment"
      ],
      [
        "per",
        "for"
      ],
      [
        "per",
        "missions"
      ],
      [
        "Ġd",
        "rink"
      ],
      [
        "Ġme",
        "dia"
      ],
      [
        "Ġme",
        "mos"
      ],
      [
        "update",
        "s"
      ],
      [
        "Ġi",
        "mage"
      ],
      [
        "Ġi",
        "im"
      ],
      [
        "Ġed",
        "itor"
      ],
      [
        "Ġpa",
        "perclip"
      ],
      [
        "com",
        "mons"
      ],
      [
        "word",
        "art"
      ],
      [
        "ag",
        "er"
      ],
      [
        "ag",
        "raph"
      ],
      [
        "bug",
        "ger"
      ],
      [
        "man",
        "ce"
      ],
      [
        "auto",
        "save"
      ],
      [
        "auto",
        "bar"
      ],
      [
        "ten",
        "cent"
      ],
      [
        "Ġcon",
        "text"
      ],
      [
        "colla",
        "bor"
      ],
      [
        "Ġbla",
        "ck"
      ],
      [
        "Ġbla",
        "ster"
      ],
      [
        "fol",
        "low"
      ],
      [
        "Ġa",
        "go"
      ],
      [
        "Ġa",
        "bout"
      ],
      [
        "fil",
        "mage"
      ],
      [
        "Ġco",
        "de"
      ],
      [
        "Ġco",
        "unt"
      ],
      [
        "Ġco",
        "unter"
      ],
      [
        "enter",
        "tainment"
      ],
      [
        "cle",
        "an"
      ],
      [
        "py",
        "ram"
      ],
      [
        "so",
        "cial"
      ],
      [
        "Ġde",
        "crease"
      ],
      [
        "Ġde",
        "sk"
      ],
      [
        "Ġde",
        "bugger"
      ],
      [
        "start",
        "up"
      ],
      [
        "ori",
        "es"
      ],
      [
        "gen",
        "res"
      ],
      [
        "Ġproject",
        "s"
      ],
      [
        "cri",
        "cket"
      ],
      [
        "ff",
        "le"
      ],
      [
        "Ġle",
        "ap"
      ],
      [
        "Ġle",
        "ft"
      ],
      [
        "Ġle",
        "arning"
      ],
      [
        "Ġle",
        "vel"
      ],
      [
        "Ġplay",
        "er"
      ],
      [
        "favorite",
        "d"
      ],
      [
        "be",
        "ar"
      ],
      [
        "data",
        "set"
      ],
      [
        "ft",
        "p"
      ],
      [
        "foo",
        "d"
      ],
      [
        "foo",
        "tball"
      ],
      [
        "foo",
        "tnote"
      ],
      [
        "pi",
        "ckup"
      ],
      [
        "inst",
        "all"
      ],
      [
        "ali",
        "gn"
      ],
      [
        "ey",
        "e"
      ],
      [
        "for",
        "mat"
      ],
      [
        "miss",
        "ion"
      ],
      [
        "sm",
        "artart"
      ],
      [
        "snip",
        "pet"
      ],
      [
        "Ġnetwork",
        "ing"
      ],
      [
        "Ġpower",
        "point"
      ],
      [
        "confi",
        "gure"
      ],
      [
        "confi",
        "dence"
      ],
      [
        "link",
        "edin"
      ],
      [
        "water",
        "fall"
      ],
      [
        "priv",
        "ate"
      ],
      [
        "tri",
        "peaks"
      ],
      [
        "vers",
        "ion"
      ],
      [
        "wind",
        "ows"
      ],
      [
        "xy",
        "link"
      ],
      [
        "Ġsh",
        "aring"
      ],
      [
        "Ġwi",
        "shes"
      ],
      [
        "Ġlog",
        "ged"
      ],
      [
        "Ġdi",
        "stur"
      ],
      [
        "Ġout",
        "look"
      ],
      [
        "Ġname",
        "s"
      ],
      [
        "remo",
        "te"
      ],
      [
        "Ġgroup",
        "s"
      ],
      [
        "Ġcolor",
        "s"
      ],
      [
        "Ġdataset",
        "s"
      ],
      [
        "Ġbuild",
        "ing"
      ],
      [
        "bet",
        "terdis"
      ],
      [
        "cl",
        "ub"
      ],
      [
        "da",
        "ycare"
      ],
      [
        "em",
        "path"
      ],
      [
        "em",
        "bodi"
      ],
      [
        "fin",
        "der"
      ],
      [
        "fin",
        "ance"
      ],
      [
        "im",
        "gs"
      ],
      [
        "isho",
        "t"
      ],
      [
        "isho",
        "ts"
      ],
      [
        "lt",
        "icolor"
      ],
      [
        "numb",
        "ers"
      ],
      [
        "pla",
        "tes"
      ],
      [
        "pla",
        "ntation"
      ],
      [
        "sup",
        "ports"
      ],
      [
        "sup",
        "port"
      ],
      [
        "Ġt",
        "v"
      ],
      [
        "Ġt",
        "uning"
      ],
      [
        "Ġor",
        "gan"
      ],
      [
        "Ġli",
        "ve"
      ],
      [
        "Ġli",
        "mit"
      ],
      [
        "intel",
        "ligen"
      ],
      [
        "chine",
        "se"
      ],
      [
        "message",
        "s"
      ],
      [
        "red",
        "dit"
      ],
      [
        "shu",
        "ffle"
      ],
      [
        "Ġcre",
        "ation"
      ],
      [
        "Ġcre",
        "ated"
      ],
      [
        "Ġboo",
        "th"
      ],
      [
        "Ġboo",
        "ster"
      ],
      [
        "Ġbook",
        "ing"
      ],
      [
        "Ġsni",
        "pping"
      ],
      [
        "Ġsni",
        "pper"
      ],
      [
        "moon",
        "set"
      ],
      [
        "autoswitch",
        "inp"
      ],
      [
        "autoswitch",
        "input"
      ],
      [
        "Ġconnect",
        "ion"
      ],
      [
        "api",
        "s"
      ],
      [
        "navig",
        "ate"
      ],
      [
        "navig",
        "ator"
      ],
      [
        "Ġevent",
        "s"
      ],
      [
        "column",
        "s"
      ],
      [
        "amen",
        "d"
      ],
      [
        "bra",
        "te"
      ],
      [
        "bir",
        "ming"
      ],
      [
        "baid",
        "u"
      ],
      [
        "cr",
        "itical"
      ],
      [
        "cali",
        "brate"
      ],
      [
        "dv",
        "d"
      ],
      [
        "don",
        "ate"
      ],
      [
        "driv",
        "ing"
      ],
      [
        "eas",
        "yconnect"
      ],
      [
        "end",
        "point"
      ],
      [
        "eth",
        "ics"
      ],
      [
        "equ",
        "ation"
      ],
      [
        "fei",
        "shu"
      ],
      [
        "iz",
        "ed"
      ],
      [
        "iter",
        "ation"
      ],
      [
        "imo",
        "vie"
      ],
      [
        "jo",
        "b"
      ],
      [
        "jew",
        "elry"
      ],
      [
        "jav",
        "a"
      ],
      [
        "klo",
        "n"
      ],
      [
        "kind",
        "le"
      ],
      [
        "mar",
        "vel"
      ],
      [
        "mbo",
        "ls"
      ],
      [
        "pr",
        "ice"
      ],
      [
        "par",
        "agraph"
      ],
      [
        "plu",
        "gin"
      ],
      [
        "pul",
        "l"
      ],
      [
        "pur",
        "chase"
      ],
      [
        "rug",
        "by"
      ],
      [
        "sy",
        "mbols"
      ],
      [
        "spe",
        "edome"
      ],
      [
        "sco",
        "re"
      ],
      [
        "squi",
        "dman"
      ],
      [
        "swa",
        "p"
      ],
      [
        "spi",
        "der"
      ],
      [
        "ty",
        "pical"
      ],
      [
        "twit",
        "ter"
      ],
      [
        "yah",
        "oo"
      ],
      [
        "Ġat",
        "tachment"
      ],
      [
        "Ġro",
        "adho"
      ],
      [
        "Ġma",
        "chine"
      ],
      [
        "Ġal",
        "phabet"
      ],
      [
        "Ġun",
        "archiver"
      ],
      [
        "Ġac",
        "ross"
      ],
      [
        "Ġexp",
        "ert"
      ],
      [
        "Ġnew",
        "s"
      ],
      [
        "Ġen",
        "ergy"
      ],
      [
        "Ġmu",
        "lticolor"
      ],
      [
        "Ġacco",
        "unts"
      ],
      [
        "Ġqui",
        "z"
      ],
      [
        "Ġtem",
        "plates"
      ],
      [
        "Ġman",
        "ager"
      ],
      [
        "Ġwall",
        "papers"
      ],
      [
        "Ġtool",
        "bar"
      ],
      [
        "Ġnumb",
        "er"
      ],
      [
        "Ġvict",
        "ory"
      ],
      [
        "remin",
        "der"
      ],
      [
        "reward",
        "s"
      ],
      [
        "region",
        "al"
      ],
      [
        "oned",
        "rive"
      ],
      [
        "stor",
        "age"
      ],
      [
        "stick",
        "ers"
      ],
      [
        "debi",
        "an"
      ],
      [
        "cloth",
        "ing"
      ],
      [
        "erase",
        "r"
      ],
      [
        "anac",
        "onda"
      ],
      [
        "analyt",
        "ical"
      ],
      [
        "listen",
        "ing"
      ],
      [
        "filezil",
        "la"
      ],
      [
        "Ġcale",
        "ndar"
      ],
      [
        "Ġcont",
        "rol"
      ],
      [
        "Ġcateg",
        "ories"
      ],
      [
        "Ġpale",
        "tte"
      ],
      [
        "Ġparticipan",
        "t"
      ],
      [
        "Ġpredict",
        "ion"
      ],
      [
        "Ġpractition",
        "ers"
      ],
      [
        "Ġblan",
        "ks"
      ],
      [
        "Ġbelo",
        "ng"
      ],
      [
        "Ġbrowse",
        "r"
      ],
      [
        "product",
        "s"
      ],
      [
        "aspac",
        "es"
      ],
      [
        "ubunt",
        "u"
      ],
      [
        "cento",
        "s"
      ],
      [
        "Ġproper",
        "ties"
      ],
      [
        "Ġsnip",
        "pets"
      ],
      [
        "Ġspic",
        "y"
      ],
      [
        "thumb",
        "s"
      ],
      [
        "thunder",
        "bolt"
      ],
      [
        "Ġstru",
        "ggles"
      ],
      [
        "favourite",
        "s"
      ],
      [
        "Ġinstr",
        "uction"
      ],
      [
        "Ġincl",
        "usion"
      ],
      [
        "Ġinterpre",
        "ter"
      ],
      [
        "heartbe",
        "at"
      ],
      [
        "podcast",
        "s"
      ],
      [
        "multi",
        "select"
      ],
      [
        "branche",
        "s"
      ],
      [
        "present",
        "ation"
      ],
      [
        "starbu",
        "cks"
      ],
      [
        "Ġredis",
        "patch"
      ],
      [
        "Ġgig",
        "aspaces"
      ],
      [
        "textur",
        "ing"
      ],
      [
        "perfor",
        "mance"
      ],
      [
        "autobar",
        "s"
      ],
      [
        "tencent",
        "meeting"
      ],
      [
        "collabor",
        "ation"
      ],
      [
        "pyram",
        "id"
      ],
      [
        "Ġdesk",
        "top"
      ],
      [
        "Ġdistur",
        "b"
      ],
      [
        "betterdis",
        "play"
      ],
      [
        "empath",
        "y"
      ],
      [
        "embodi",
        "ed"
      ],
      [
        "Ġorgan",
        "ized"
      ],
      [
        "intelligen",
        "ce"
      ],
      [
        "birming",
        "ham"
      ],
      [
        "speedome",
        "ter"
      ],
      [
        "Ġroadho",
        "use"
      ]
    ]
  }
}