{
  "version": "1.0",
  "truncation": null,
  "padding": null,
  "added_tokens": [
    {
      "id": 0,
      "content": "<PAD>",
      "single_word": false,
      "lstrip": false,
      "rstrip": false,
      "normalized": false,
      "special": true
    },
    {
      "id": 1,
      "content": "<UNK>",
      "single_word": false,
      "lstrip": false,
      "rstrip": false,
      "normalized": false,
      "special": true
    },
    {
      "id": 2,
      "content": "<BOS>",
      "single_word": false,
      "lstrip": false,
      "rstrip": false,
      "normalized": false,
      "special": true
    },
    {
      "id": 3,
      "content": "<EOS>",
      "single_word": false,
      "lstrip": false,
      "rstrip": false,
      "normalized": false,
      "special": true
    },
    {
      "id": 4,
      "content": "<ACT>",
      "single_word": false,
      "lstrip": false,
      "rstrip": false,
      "normalized": false,
      "special": true
    },
    {
      "id": 5,
      "content": "<FUNC>",
      "single_word": false,
      "lstrip": false,
      "rstrip": false,
      "normalized": false,
      "special": true
    },
    {
      "id": 6,
      "content": "<STAT>",
      "single_word": false,
      "lstrip": false,
      "rstrip": false,
      "normalized": false,
      "special": true
    }
  ],
  "normalizer": null,
  "pre_tokenizer": {
    "type": "ByteLevel",
    "add_prefix_space": false,
    "trim_offsets": true,
    "use_regex": true
  },
  "post_processor": {
    "type": "TemplateProcessing",
    "single": [
      {
        "SpecialToken": {
          "id": "<BOS>",
          "type_id": 0
        }
      },
      {
        "Sequence": {
          "id": "A",
          "type_id": 0
        }
      },
      {
        "SpecialToken": {
          "id": "<EOS>",
          "type_id": 0
        }
      }
    ],
    "pair": [
      {
        "Sequence": {
          "id": "A",
          "type_id": 0
        }
      },
      {
        "Sequence": {
          "id": "B",
          "type_id": 1
        }
      }
    ],
    "special_tokens": {
      "<BOS>": {
        "id": "<BOS>",
        "ids": [
          2
        ],
        "tokens": [
          "<BOS>"
        ]
      },
      "<EOS>": {
        "id": "<EOS>",
        "ids": [
          3
        ],
        "tokens": [
          "<EOS>"
        ]
      }
    }
  },
  "decoder": {
    "type": "ByteLevel",
    "add_prefix_space": true,
    "trim_offsets": true,
    "use_regex": true
  },
  "model": {
    "type": "BPE",
    "dropout": null,
    "unk_token": null,
    "continuing_subword_prefix": null,
    "end_of_word_suffix": null,
    "fuse_unk": false,
    "byte_fallback": false,
    "ignore_merges": false,
    "vocab": {
      "<PAD>": 0,
      "<UNK>": 1,
      "<BOS>": 2,
      "<EOS>": 3,
      "<ACT>": 4,
      "<FUNC>": 5,
      "<STAT>": 6,
      "!": 7,
      "\"": 8,
      "#": 9,
      "$": 10,
      "%": 11,
      "&": 12,
      "'": 13,
      "(": 14,
      ")": 15,
      "*": 16,
      "+": 17,
      ",": 18,
      "-": 19,
      ".": 20,
      "/": 21,
      "0": 22,
      "1": 23,
      "2": 24,
      "3": 25,
      "4": 26,
      "5": 27,
      "6": 28,
      "7": 29,
      "8": 30,
      "9": 31,
      ":": 32,
      ";": 33,
      "<": 34,
      "=": 35,
      ">": 36,
      "?": 37,
      "@": 38,
      "A": 39,
      "B": 40,
      "C": 41,
      "D": 42,
      "E": 43,
      "F": 44,
      "G": 45,
      "H": 46,
      "I": 47,
      "J": 48,
      "K": 49,
      "L": 50,
      "M": 51,
      "N": 52,
      "O": 53,
      "P": 54,
      "Q": 55,
      "R": 56,
      "S": 57,
      "T": 58,
      "U": 59,
      "V": 60,
      "W": 61,
      "X": 62,
      "Y": 63,
      "Z": 64,
      "[": 65,
      "\\": 66,
      "]": 67,
      "^": 68,
      "_": 69,
      "`": 70,
      "a": 71,
      "b": 72,
      "c": 73,
      "d": 74,
      "e": 75,
      "f": 76,
      "g": 77,
      "h": 78,
      "i": 79,
      "j": 80,
      "k": 81,
      "l": 82,
      "m": 83,
      "n": 84,
      "o": 85,
      "p": 86,
      "q": 87,
      "r": 88,
      "s": 89,
      "t": 90,
      "u": 91,
      "v": 92,
      "w": 93,
      "x": 94,
      "y": 95,
      "z": 96,
      "{": 97,
      "|": 98,
      "}": 99,
      "~": 100,
      "¡": 101,
      "¢": 102,
      "£": 103,
      "¤": 104,
      "¥": 105,
      "¦": 106,
      "§": 107,
      "¨": 108,
      "©": 109,
      "ª": 110,
      "«": 111,
      "¬": 112,
      "®": 113,
      "¯": 114,
      "°": 115,
      "±": 116,
      "²": 117,
      "³": 118,
      "´": 119,
      "µ": 120,
      "¶": 121,
      "·": 122,
      "¸": 123,
      "¹": 124,
      "º": 125,
      "»": 126,
      "¼": 127,
      "½": 128,
      "¾": 129,
      "¿": 130,
      "À": 131,
      "Á": 132,
      "Â": 133,
      "Ã": 134,
      "Ä": 135,
      "Å": 136,
      "Æ": 137,
      "Ç": 138,
      "È": 139,
      "É": 140,
      "Ê": 141,
      "Ë": 142,
      "Ì": 143,
      "Í": 144,
      "Î": 145,
      "Ï": 146,
      "Ð": 147,
      "Ñ": 148,
      "Ò": 149,
      "Ó": 150,
      "Ô": 151,
      "Õ": 152,
      "Ö": 153,
      "×": 154,
      "Ø": 155,
      "Ù": 156,
      "Ú": 157,
      "Û": 158,
      "Ü": 159,
      "Ý": 160,
      "Þ": 161,
      "ß": 162,
      "à": 163,
      "á": 164,
      "â": 165,
      "ã": 166,
      "ä": 167,
      "å": 168,
      "æ": 169,
      "ç": 170,
      "è": 171,
      "é": 172,
      "ê": 173,
      "ë": 174,
      "ì": 175,
      "í": 176,
      "î": 177,
      "ï": 178,
      "ð": 179,
      "ñ": 180,
      "ò": 181,
      "ó": 182,
      "ô": 183,
      "õ": 184,
      "ö": 185,
      "÷": 186,
      "ø": 187,
      "ù": 188,
      "ú": 189,
      "û": 190,
      "ü": 191,
      "ý": 192,
      "þ": 193,
      "ÿ": 194,
      "Ā": 195,
      "ā": 196,
      "Ă": 197,
      "ă": 198,
      "Ą": 199,
      "ą": 200,
      "Ć": 201,
      "ć": 202,
      "Ĉ": 203,
      "ĉ": 204,
      "Ċ": 205,
      "ċ": 206,
      "Č": 207,
      "č": 208,
      "Ď": 209,
      "ď": 210,
      "Đ": 211,
      "đ": 212,
      "Ē": 213,
      "ē": 214,
      "Ĕ": 215,
      "ĕ": 216,
      "Ė": 217,
      "ė": 218,
      "Ę": 219,
      "ę": 220,
      "Ě": 221,
      "ě": 222,
      "Ĝ": 223,
      "ĝ": 224,
      "Ğ": 225,
      "ğ": 226,
      "Ġ": 227,
      "ġ": 228,
      "Ģ": 229,
      "ģ": 230,
      "Ĥ": 231,
      "ĥ": 232,
      "Ħ": 233,
      "ħ": 234,
      "Ĩ": 235,
      "ĩ": 236,
      "Ī": 237,
      "ī": 238,
      "Ĭ": 239,
      "ĭ": 240,
      "Į": 241,
      "į": 242,
      "İ": 243,
      "ı": 244,
      "Ĳ": 245,
      "ĳ": 246,
      "Ĵ": 247,
      "ĵ": 248,
      "Ķ": 249,
      "ķ": 250,
      "ĸ": 251,
      "Ĺ": 252,
      "ĺ": 253,
      "Ļ": 254,
      "ļ": 255,
      "Ľ": 256,
      "ľ": 257,
      "Ŀ": 258,
      "ŀ": 259,
      "Ł": 260,
      "ł": 261,
      "Ń": 262,
      "in": 263,
      "Ġa": 264,
      "on": 265,
      "or": 266,
      "at": 267,
      "se": 268,
      "Ġt": 269,
      "re": 270,
      "ic": 271,
      "ing": 272,
      "it": 273,
      "Ġs": 274,
      "Ġc": 275,
      "Ġor": 276,
      "Ġd": 277,
      "Ġin": 278,
      "Ġw": 279,
      "Ġl": 280,
      "ion": 281,
      "le": 282,
      "Ġf": 283,
      "ly": 284,
      "ed": 285,
      "er": 286,
      "Ġto": 287,
      "Ġre": 288,
      "nt": 289,
      "ar": 290,
      "Ġli": 291,
      "Ġb": 292,
      "Ġic": 293,
      "Ġicon": 294,
      "ith": 295,
      "Ġwith": 296,
      "al": 297,
      "he": 298,
      "ow": 299,
      "ke": 300,
      "ata": 301,
      "Ġdata": 302,
      "Ġlike": 303,
      "icat": 304,
      "Ġlikely": 305,
      "ct": 306,
      "Ġu": 307,
      "set": 308,
      "Ġm": 309,
      "Ġind": 310,
      "Ġindicat": 311,
      "nd": 312,
      "Ġp": 313,
      "Ġo": 314,
      "Ġuse": 315,
      "es": 316,
      "ro": 317,
      "ting": 318,
      "Ġdataset": 319,
      "Ġthe": 320,
      "Ġg": 321,
      "ex": 322,
      "ac": 323,
      "en": 324,
      "Ġused": 325,
      "an": 326,
      "Ġrep": 327,
      "im": 328,
      "sent": 329,
      "resent": 330,
      "Ġrepresent": 331,
      "own": 332,
      "ction": 333,
      "ent": 334,
      "ont": 335,
      "ol": 336,
      "Ġindicating": 337,
      "ite": 338,
      "ra": 339,
      "Ġn": 340,
      "ext": 341,
      "ple": 342,
      "Ġse": 343,
      "Ġwithin": 344,
      "ter": 345,
      "Ġas": 346,
      "Ġbl": 347,
      "Ġfor": 348,
      "Ġrepresenting": 349,
      "ig": 350,
      "Ġsim": 351,
      "oin": 352,
      "Ġsimple": 353,
      "Ġcont": 354,
      "id": 355,
      "st": 356,
      "om": 357,
      "Ġgra": 358,
      "ointing": 359,
      "ard": 360,
      "Ġop": 361,
      "Ġst": 362,
      "Ġsu": 363,
      "Ġand": 364,
      "tion": 365,
      "Ġgray": 366,
      "iz": 367,
      "Ġ\"": 368,
      "ue": 369,
      "ack": 370,
      "ward": 371,
      "ve": 372,
      "Ġwh": 373,
      "Ġth": 374,
      "ut": 375,
      "Ġwhite": 376,
      "Ġsh": 377,
      "ir": 378,
      "ag": 379,
      "un": 380,
      "ang": 381,
      "cu": 382,
      "Ġoption": 383,
      "Ġv": 384,
      "Ġinter": 385,
      "rou": 386,
      "ur": 387,
      "pointing": 388,
      "Ġblue": 389,
      "Ġcom": 390,
      "ace": 391,
      "ation": 392,
      "la": 393,
      "Ġdown": 394,
      "Ġfi": 395,
      "gg": 396,
      "ition": 397,
      "enu": 398,
      "ment": 399,
      "Ġfun": 400,
      "Ġfunction": 401,
      "lo": 402,
      "Ġmenu": 403,
      "qu": 404,
      "round": 405,
      "Ġof": 406,
      "ĠU": 407,
      "Ġcir": 408,
      "are": 409,
      "ĠUI": 410,
      "ide": 411,
      "Ġit": 412,
      "lar": 413,
      "Ġinterf": 414,
      "Ġh": 415,
      "Ġinterface": 416,
      "Ġad": 417,
      "ical": 418,
      "pd": 419,
      "gges": 420,
      "ht": 421,
      "ated": 422,
      "Ġsugges": 423,
      "is": 424,
      "mon": 425,
      "Ġdownward": 426,
      "row": 427,
      "ch": 428,
      "pp": 429,
      "Ġoptions": 430,
      "Ġon": 431,
      "et": 432,
      "Ġar": 433,
      "Ġche": 434,
      "Ġex": 435,
      "Ġdro": 436,
      "ab": 437,
      "quare": 438,
      "pdown": 439,
      "Ġdropdown": 440,
      "Ġsquare": 441,
      "Ġindicate": 442,
      "lated": 443,
      "Ġfile": 444,
      "Ġthat": 445,
      "Ġcommon": 446,
      "Ġexp": 447,
      "Ġcommonly": 448,
      "side": 449,
      "mb": 450,
      "il": 451,
      "Ġadd": 452,
      "ron": 453,
      "Ġdo": 454,
      "and": 455,
      "Ġarrow": 456,
      "vron": 457,
      "Ġchevron": 458,
      "el": 459,
      "us": 460,
      "Ġcontext": 461,
      "av": 462,
      "Ġlin": 463,
      "Ġtext": 464,
      "ri": 465,
      "ew": 466,
      "ark": 467,
      "Ġite": 468,
      "old": 469,
      "Ġitem": 470,
      "os": 471,
      "ess": 472,
      "age": 473,
      "Ġset": 474,
      "ad": 475,
      "Ġinside": 476,
      "oriz": 477,
      "Ġuser": 478,
      "itional": 479,
      "Ġadditional": 480,
      "eat": 481,
      "cular": 482,
      "Ġsuggesting": 483,
      "Ġcircular": 484,
      "cc": 485,
      "Ġan": 486,
      "Ġsy": 487,
      "Ġback": 488,
      "ically": 489,
      "Ġexpand": 490,
      "ight": 491,
      "if": 492,
      "Ġhoriz": 493,
      "Ġindicator": 494,
      "ontal": 495,
      "Ġhorizontal": 496,
      "yp": 497,
      "Ġreve": 498,
      "Ġacc": 499,
      "ate": 500,
      "Ġtyp": 501,
      "Ġreveal": 502,
      "Ġcol": 503,
      "Ġpos": 504,
      "ist": 505,
      "Ġsetting": 506,
      "Ġshow": 507,
      "Ġblack": 508,
      "Ġmin": 509,
      "reen": 510,
      "Ġsty": 511,
      "Ġrelated": 512,
      "Ġapp": 513,
      "rounded": 514,
      "Ġrounded": 515,
      "Ġtypically": 516,
      "ton": 517,
      "Ġbut": 518,
      "Ġbutton": 519,
      "Ġnext": 520,
      "iew": 521,
      "Ġminim": 522,
      "Ġsele": 523,
      "wo": 524,
      "ground": 525,
      "Ġbackground": 526,
      "ap": 527,
      "ree": 528,
      "Ġfold": 529,
      "cument": 530,
      "Ġdocument": 531,
      "alist": 532,
      "Ġminimalist": 533,
      "Ġr": 534,
      "all": 535,
      "ized": 536,
      "angle": 537,
      "Ġsettings": 538,
      "Ġlist": 539,
      "ick": 540,
      "Ġstyl": 541,
      "Ġgreen": 542,
      "Ġshowing": 543,
      "ver": 544,
      "Ġview": 545,
      "Ġcon": 546,
      "avig": 547,
      "cle": 548,
      "Ġsm": 549,
      "Ġnavig": 550,
      "Ġposition": 551,
      "Ġstylized": 552,
      "angu": 553,
      "Ġcircle": 554,
      "ot": 555,
      "Ġcontent": 556,
      "Ġpositioned": 557,
      "Ġpro": 558,
      "Ġtwo": 559,
      "ft": 560,
      "Ġcl": 561,
      "able": 562,
      "Ġrect": 563,
      "Ġlines": 564,
      "Ġcan": 565,
      "Ġde": 566,
      "Ġthree": 567,
      "Ġsection": 568,
      "Ġaccess": 569,
      "ud": 570,
      "Ġtri": 571,
      "Ġsmall": 572,
      "her": 573,
      "Ġfeat": 574,
      "ss": 575,
      "Ġsp": 576,
      "Ġclick": 577,
      "Ġbe": 578,
      "ication": 579,
      "ign": 580,
      "ou": 581,
      "Ġcur": 582,
      "Ġclo": 583,
      "ure": 584,
      "Ġfolder": 585,
      "Ġlig": 586,
      "Ġright": 587,
      "Ġver": 588,
      "Ġman": 589,
      "Ġlight": 590,
      "arch": 591,
      "Ġselect": 592,
      "Ġred": 593,
      "ine": 594,
      "ying": 595,
      "ect": 596,
      "angular": 597,
      "ear": 598,
      "Ġal": 599,
      "Ġsearch": 600,
      "Ġhe": 601,
      "Ġout": 602,
      "bo": 603,
      "mbol": 604,
      "Ġsymbol": 605,
      "sh": 606,
      "low": 607,
      "Ġnu": 608,
      "ce": 609,
      "Ġnavigation": 610,
      "Ġtriangle": 611,
      "Ġpl": 612,
      "art": 613,
      "Ġsuggest": 614,
      "ill": 615,
      "Ġtool": 616,
      "ase": 617,
      "Ġdark": 618,
      "oc": 619,
      "Ġe": 620,
      "Ġwill": 621,
      "Ġclicking": 622,
      "load": 623,
      "Ġover": 624,
      "ble": 625,
      "ain": 626,
      "ts": 627,
      "Ġdis": 628,
      "lay": 629,
      "Ġpointing": 630,
      "od": 631,
      "Ġexpandable": 632,
      "Ġshown": 633,
      "Ġis": 634,
      "Ġrectangular": 635,
      "ount": 636,
      "Ġnumb": 637,
      "Ġitems": 638,
      "Ġvert": 639,
      "Ġser": 640,
      "Ġby": 641,
      "ner": 642,
      "related": 643,
      "Ġlab": 644,
      "Ġserv": 645,
      "Ġlet": 646,
      "Ġoutl": 647,
      "Ġletter": 648,
      "Ġso": 649,
      "Ġup": 650,
      "rol": 651,
      "Ġdi": 652,
      "lication": 653,
      "Ġspe": 654,
      "Ġaction": 655,
      "ind": 656,
      "pping": 657,
      "Ġmanage": 658,
      "Ġnumber": 659,
      "te": 660,
      "Ġed": 661,
      "ory": 662,
      "Ġcor": 663,
      "Ġapplication": 664,
      "ling": 665,
      "ved": 666,
      "Ġle": 667,
      "Ġcontrol": 668,
      "ck": 669,
      "ifying": 670,
      "uring": 671,
      "lass": 672,
      "Ġedit": 673,
      "Ġstat": 674,
      "Ġmag": 675,
      "Ġglass": 676,
      "Ġcorner": 677,
      "Ġmagn": 678,
      "Ġcurved": 679,
      "Ġmagnifying": 680,
      "ong": 681,
      "red": 682,
      "Ġvertical": 683,
      "Ġfeaturing": 684,
      "em": 685,
      "ore": 686,
      "lection": 687,
      "Ġcollection": 688,
      "Ġcloud": 689,
      "Ġadj": 690,
      "Ġcolor": 691,
      "Ġstatus": 692,
      "Ġbar": 693,
      "Ġleft": 694,
      "ating": 695,
      "for": 696,
      "Ġch": 697,
      "Ġfil": 698,
      "Ġtop": 699,
      "Ġoverla": 700,
      "ther": 701,
      "Ġsc": 702,
      "Ġcent": 703,
      "ub": 704,
      "ul": 705,
      "Ġform": 706,
      "form": 707,
      "ers": 708,
      "Ġconn": 709,
      "Ġother": 710,
      "io": 711,
      "Ġpre": 712,
      "olid": 713,
      "Ġsolid": 714,
      "ted": 715,
      "Ġdownload": 716,
      "stem": 717,
      "Ġfeature": 718,
      "Ġsuch": 719,
      "ange": 720,
      "Ġoutline": 721,
      "ord": 722,
      "ity": 723,
      "Ġsystem": 724,
      "Ġnear": 725,
      "ail": 726,
      "ual": 727,
      "Ġtogg": 728,
      "Ġmark": 729,
      "Ġits": 730,
      "ject": 731,
      "Ġserving": 732,
      "Ġmanagement": 733,
      "am": 734,
      "Ġabo": 735,
      "Ġcontain": 736,
      "Ġfiles": 737,
      "Ġline": 738,
      "Ġlabel": 739,
      "Ġvis": 740,
      "ive": 741,
      "rid": 742,
      "Ġy": 743,
      "Ġloc": 744,
      "Ġmo": 745,
      "Ġgrid": 746,
      "Ġsign": 747,
      "ellow": 748,
      "Ġusers": 749,
      "Ġalong": 750,
      "Ġyellow": 751,
      "Ġalongside": 752,
      "Ġglo": 753,
      "Ġdep": 754,
      "Ġtoggle": 755,
      "Ġcount": 756,
      "Ġsub": 757,
      "Ġglob": 758,
      "sed": 759,
      "Ġrepresents": 760,
      "mark": 761,
      "Ġweat": 762,
      "lap": 763,
      "Ġdisp": 764,
      "Ġweather": 765,
      "di": 766,
      "Ġfav": 767,
      "Ġfunctions": 768,
      "Ġconf": 769,
      "Ġrectangle": 770,
      "Ġfavor": 771,
      "by": 772,
      "rom": 773,
      "Ġorange": 774,
      "Ġseen": 775,
      "Ġopen": 776,
      "etw": 777,
      "Ġoverlapping": 778,
      "Ġfrom": 779,
      "Ġrese": 780,
      "uet": 781,
      "Ġselected": 782,
      "Ġwhe": 783,
      "Ġshap": 784,
      "ateg": 785,
      "Ġformat": 786,
      "Ġstar": 787,
      "mbling": 788,
      "Ġplus": 789,
      "Ġvisual": 790,
      "Ġresembling": 791,
      "ric": 792,
      "ort": 793,
      "aging": 794,
      "Ġnearby": 795,
      "Ġqu": 796,
      "led": 797,
      "ay": 798,
      "Ġen": 799,
      "Ġpur": 800,
      "as": 801,
      "ip": 802,
      "Ġdots": 803,
      "Ġselection": 804,
      "Ġsil": 805,
      "erc": 806,
      "Ġproject": 807,
      "Ġra": 808,
      "Ġcateg": 809,
      "Ġfilter": 810,
      "og": 811,
      "our": 812,
      "Ġcomp": 813,
      "ech": 814,
      "Ġpurple": 815,
      "ercase": 816,
      "ho": 817,
      "ser": 818,
      "op": 819,
      "sion": 820,
      "Ġdes": 821,
      "Ġsoft": 822,
      "formation": 823,
      "Ġsilho": 824,
      "Ġsilhouet": 825,
      "Ġpart": 826,
      "Ġnew": 827,
      "Ġnot": 828,
      "Ġcheck": 829,
      "Ġupward": 830,
      "Ġconnect": 831,
      "Ġforward": 832,
      "Ġspeech": 833,
      "ia": 834,
      "Ġinformation": 835,
      "Ġfolded": 836,
      "ib": 837,
      "put": 838,
      "ler": 839,
      "Ġbr": 840,
      "Ġselecting": 841,
      "Ġconfig": 842,
      "ies": 843,
      "een": 844,
      "Ġtab": 845,
      "icting": 846,
      "Ġbetw": 847,
      "Ġdepicting": 848,
      "Ġbetween": 849,
      "Ġim": 850,
      "ice": 851,
      "etric": 852,
      "Ġcircles": 853,
      "Ġdire": 854,
      "Ġformatting": 855,
      "ered": 856,
      "ust": 857,
      "Ġabove": 858,
      "ctive": 859,
      "Ġmess": 860,
      "Ġmore": 861,
      "ization": 862,
      "Ġediting": 863,
      "Ġbub": 864,
      "Ġviewed": 865,
      "Ġlocation": 866,
      "Ġbubble": 867,
      "Ġent": 868,
      "Ġplay": 869,
      "Ġprev": 870,
      "Ġcontaining": 871,
      "Ġsilhouette": 872,
      "ph": 873,
      "ware": 874,
      "edia": 875,
      "Ġupd": 876,
      "Ġone": 877,
      "Ġplace": 878,
      "eb": 879,
      "Ġtr": 880,
      "Ġmap": 881,
      "Ġgradi": 882,
      "Ġstor": 883,
      "ize": 884,
      "uration": 885,
      "ifi": 886,
      "Ġconfiguration": 887,
      "Ġgradient": 888,
      "ok": 889,
      "Ġref": 890,
      "Ġsour": 891,
      "Ġdesign": 892,
      "ĠC": 893,
      "Ġpers": 894,
      "Ġhand": 895,
      "Ġsoftware": 896,
      "Ġperson": 897,
      "lp": 898,
      "Ġbo": 899,
      "Ġge": 900,
      "board": 901,
      "Ġfavorite": 902,
      "Ġat": 903,
      "Ġbold": 904,
      "Ġviewing": 905,
      "Ġhelp": 906,
      "oci": 907,
      "Ġdisplay": 908,
      "Ġweb": 909,
      "Ġclose": 910,
      "uct": 911,
      "âĢ": 912,
      "ĠM": 913,
      "Ġlay": 914,
      "shap": 915,
      "Ġlow": 916,
      "Ġlangu": 917,
      "Ġmedia": 918,
      "Ġlink": 919,
      "Ġcategory": 920,
      "Ġconnected": 921,
      "Ġinput": 922,
      "roup": 923,
      "ult": 924,
      "Ġcre": 925,
      "Ġstate": 926,
      "Ġnavigate": 927,
      "Ġcheckmark": 928,
      "\".": 929,
      "ge": 930,
      "Ġbrow": 931,
      "Ġicons": 932,
      "Ġgroup": 933,
      "Ġarr": 934,
      "'s": 935,
      "Ġwind": 936,
      "Ġdatasets": 937,
      "Ġass": 938,
      "lop": 939,
      "Ġsource": 940,
      "atter": 941,
      "velop": 942,
      "aly": 943,
      "bar": 944,
      "Ġ2": 945,
      "rent": 946,
      "Ġmod": 947,
      "Ġindicated": 948,
      "ointed": 949,
      "Ġcollap": 950,
      "Ġcolored": 951,
      "out": 952,
      "Ġ3": 953,
      "anged": 954,
      "Ġglobe": 955,
      "Ġlowercase": 956,
      "col": 957,
      "mer": 958,
      "sib": 959,
      "Ġactive": 960,
      "Ġpossib": 961,
      "Ġwhen": 962,
      "Ġhandle": 963,
      "Ġbrowser": 964,
      "Ġpossibly": 965,
      "ĠP": 966,
      "resh": 967,
      "Ġfour": 968,
      "Ġcomment": 969,
      "rip": 970,
      "Ġdirect": 971,
      "Ġrefresh": 972,
      "cif": 973,
      "ruct": 974,
      "itor": 975,
      "Ġword": 976,
      "acent": 977,
      "Ġtoolbar": 978,
      "Ġadjacent": 979,
      "Ġmove": 980,
      "ociated": 981,
      "Ġlanguage": 982,
      "Ġarranged": 983,
      "Ġdirectory": 984,
      "Ġfind": 985,
      "Ġbot": 986,
      "Ġpage": 987,
      "Ġexpl": 988,
      "ude": 989,
      "Ġassociated": 990,
      "ructure": 991,
      "sc": 992,
      "tom": 993,
      "Ġsw": 994,
      "Ġdet": 995,
      "ram": 996,
      "eld": 997,
      "Ġanaly": 998,
      "ification": 999,
      "Ġclicked": 1000,
      "Ġwindow": 1001,
      "Ġbottom": 1002,
      "mo": 1003,
      "Ġz": 1004,
      "itude": 1005,
      "Ġpin": 1006,
      "Ġpatter": 1007,
      "ideo": 1008,
      "Ġaccount": 1009,
      "cific": 1010,
      "Ġdetail": 1011,
      "Ġpattern": 1012,
      "ai": 1013,
      "act": 1014,
      "ep": 1015,
      "eled": 1016,
      "ible": 1017,
      "ĠA": 1018,
      "Ġvideo": 1019,
      "Ġmanaging": 1020,
      "Ġlabeled": 1021,
      "Ġshape": 1022,
      "Ġplacement": 1023,
      "Ġdetails": 1024,
      "eed": 1025,
      "iv": 1026,
      "ial": 1027,
      "ry": 1028,
      "ometric": 1029,
      "ush": 1030,
      "Ġdev": 1031,
      "Ġcurrent": 1032,
      "ased": 1033,
      "um": 1034,
      "onitor": 1035,
      "ics": 1036,
      "Ġmonitor": 1037,
      "estion": 1038,
      "Ġcenter": 1039,
      "Ġbook": 1040,
      "ale": 1041,
      "ile": 1042,
      "right": 1043,
      "Ġ'": 1044,
      "ork": 1045,
      "aring": 1046,
      "Ġund": 1047,
      "Ġintern": 1048,
      "Ġdot": 1049,
      "ious": 1050,
      "Ġquestion": 1051,
      "Ġprevious": 1052,
      "ified": 1053,
      "pointed": 1054,
      "Ġaud": 1055,
      "Ġappear": 1056,
      "Ġallow": 1057,
      "Ġsubm": 1058,
      "Ġglobal": 1059,
      "Ġaudio": 1060,
      "ger": 1061,
      "hine": 1062,
      "th": 1063,
      "ined": 1064,
      "Ġsl": 1065,
      "ages": 1066,
      "Ġtriangular": 1067,
      "Ġspecific": 1068,
      "Ġactions": 1069,
      "Ġimage": 1070,
      "Ġupdate": 1071,
      "Ġexplor": 1072,
      "Ġrow": 1073,
      "icro": 1074,
      "lement": 1075,
      "Ġgear": 1076,
      "Ġshare": 1077,
      "Ġcomm": 1078,
      "Ġfive": 1079,
      "Ġalign": 1080,
      "Ġhere": 1081,
      "Ġelement": 1082,
      "Ġcentered": 1083,
      "Ġnotification": 1084,
      "Ġentry": 1085,
      "Ġstorage": 1086,
      "Ġgeometric": 1087,
      "Ġamon": 1088,
      "Ġremo": 1089,
      "Ġpan": 1090,
      "Ġstack": 1091,
      "Ġstructure": 1092,
      "Ġrating": 1093,
      "Ġem": 1094,
      "Ġamong": 1095,
      "Ġpanel": 1096,
      "br": 1097,
      "Ġte": 1098,
      "ĠChine": 1099,
      "ĠChinese": 1100,
      "ast": 1101,
      "ection": 1102,
      "gan": 1103,
      "tics": 1104,
      "Ġorgan": 1105,
      "Ġres": 1106,
      "Ġrever": 1107,
      "Ġbel": 1108,
      "Ġmult": 1109,
      "Ġnod": 1110,
      "Ġoutlined": 1111,
      "Ġlayout": 1112,
      "Th": 1113,
      "ike": 1114,
      "ning": 1115,
      "Ġsharing": 1116,
      "Ġdele": 1117,
      "Ġconnection": 1118,
      "Ġtrig": 1119,
      "shaped": 1120,
      "amon": 1121,
      "like": 1122,
      "pl": 1123,
      "ĠB": 1124,
      "Ġcart": 1125,
      "Ġlen": 1126,
      "Ġsquares": 1127,
      "Ġstyle": 1128,
      "Ġnumer": 1129,
      "Ġdiamon": 1130,
      "Ġchar": 1131,
      "Ġanalytics": 1132,
      "Ġdevice": 1133,
      "Ġdiamond": 1134,
      "ec": 1135,
      "Ġun": 1136,
      "Ġpoin": 1137,
      "Ġadjust": 1138,
      "Ġmessaging": 1139,
      "Ġbookmark": 1140,
      "Ġappears": 1141,
      "An": 1142,
      "oft": 1143,
      "ving": 1144,
      "aller": 1145,
      "Ġmus": 1146,
      "ome": 1147,
      "usting": 1148,
      "ode": 1149,
      "Ġadjusting": 1150,
      "Ġnodes": 1151,
      "based": 1152,
      "cel": 1153,
      "line": 1154,
      "opping": 1155,
      "soft": 1156,
      "Ġ1": 1157,
      "Ġav": 1158,
      "Ġrec": 1159,
      "Ġret": 1160,
      "Ġsun": 1161,
      "Ġshopping": 1162,
      "laying": 1163,
      "Ġbars": 1164,
      "ube": 1165,
      "Ġshapes": 1166,
      "ĠMicro": 1167,
      "ĠMicrosoft": 1168,
      "ash": 1169,
      "Ġcube": 1170,
      "Ġfield": 1171,
      "Ġapply": 1172,
      "Ġprof": 1173,
      "Ġcancel": 1174,
      "Ġversion": 1175,
      "Ġbran": 1176,
      "âĢĶ": 1177,
      "aila": 1178,
      "Ġemail": 1179,
      "Ġnumerical": 1180,
      "Ġcharact": 1181,
      "cess": 1182,
      "ĠW": 1183,
      "ĠY": 1184,
      "Ġaler": 1185,
      "onal": 1186,
      "Ġsav": 1187,
      "Ġcode": 1188,
      "Ġdash": 1189,
      "Ġfont": 1190,
      "Ġph": 1191,
      "Ġpresent": 1192,
      "ence": 1193,
      "Ġeditor": 1194,
      "Ġscreen": 1195,
      "Ġavaila": 1196,
      "back": 1197,
      "to": 1198,
      "Ġke": 1199,
      "one": 1200,
      "ket": 1201,
      "Ġupp": 1202,
      "Ġindicates": 1203,
      "raph": 1204,
      "agonal": 1205,
      "ility": 1206,
      "Ġaccessing": 1207,
      "Ġhead": 1208,
      "Ġabout": 1209,
      "Ġdisplaying": 1210,
      "Ġcompo": 1211,
      "Ġstacked": 1212,
      "Ġtrigger": 1213,
      "Ġpresentation": 1214,
      "ire": 1215,
      "ral": 1216,
      "ĠS": 1217,
      "Ġcust": 1218,
      "Ġlo": 1219,
      "Ġlat": 1220,
      "Ġfeed": 1221,
      "Ġbad": 1222,
      "Ġpar": 1223,
      "ance": 1224,
      "Ġsecu": 1225,
      "Ġsequ": 1226,
      "Ġsyn": 1227,
      "Ġcentral": 1228,
      "Ġdownloaded": 1229,
      "Ġprofile": 1230,
      "Ġcomposed": 1231,
      "Ġcustom": 1232,
      "Ġtim": 1233,
      "Ġsize": 1234,
      "Ġden": 1235,
      "ero": 1236,
      "ident": 1237,
      "Ġcomple": 1238,
      "Ġfavorit": 1239,
      "Ġvisualization": 1240,
      "Ġzero": 1241,
      "Ġexplorer": 1242,
      "Ġcommun": 1243,
      "Three": 1244,
      "Ġcharacter": 1245,
      "Ġbadge": 1246,
      "Ġsequence": 1247,
      "Ġdenot": 1248,
      "Two": 1249,
      "Ġident": 1250,
      "iss": 1251,
      "ssion": 1252,
      "ouse": 1253,
      "Ġoutward": 1254,
      "Ġchart": 1255,
      "Ġwhere": 1256,
      "ces": 1257,
      "ful": 1258,
      "ix": 1259,
      "Ġro": 1260,
      "orting": 1261,
      "ren": 1262,
      "Ġinto": 1263,
      "lock": 1264,
      "aint": 1265,
      "lapse": 1266,
      "Ġfiltering": 1267,
      "Ġdashboard": 1268,
      "ilar": 1269,
      "Ġreload": 1270,
      "ary": 1271,
      "Ġthem": 1272,
      "ract": 1273,
      "Ġnam": 1274,
      "Ġsimilar": 1275,
      "ching": 1276,
      "Ġvertically": 1277,
      "Ġletters": 1278,
      "Ġoverlaid": 1279,
      "Ġmoving": 1280,
      "Ġenvelop": 1281,
      "Ġenvelope": 1282,
      "fe": 1283,
      "ues": 1284,
      "orts": 1285,
      "ices": 1286,
      "Ġfo": 1287,
      "alog": 1288,
      "Ġsmaller": 1289,
      "Ġprog": 1290,
      "ound": 1291,
      "Ġupload": 1292,
      "diating": 1293,
      "Ġpartial": 1294,
      "Ġunder": 1295,
      "Ġsubmit": 1296,
      "Ġavailable": 1297,
      "Ġuppercase": 1298,
      "Ġcap": 1299,
      "nding": 1300,
      "izing": 1301,
      "Ġexport": 1302,
      "Ġarrows": 1303,
      "Ġprocess": 1304,
      "Ġcontainer": 1305,
      "Ġradiating": 1306,
      "Ġbubbles": 1307,
      "Ġcollapse": 1308,
      "color": 1309,
      "collapse": 1310,
      "Ġremove": 1311,
      "Ġphot": 1312,
      "Ġtra": 1313,
      "Ġlong": 1314,
      "Ġvar": 1315,
      "ational": 1316,
      "Ġcontrols": 1317,
      "order": 1318,
      "Ġdeplo": 1319,
      "Ġopened": 1320,
      "etrics": 1321,
      "Ġmulti": 1322,
      "Ġdelete": 1323,
      "Ġlens": 1324,
      "up": 1325,
      "uter": 1326,
      "yment": 1327,
      "Ġfram": 1328,
      "Ġmetrics": 1329,
      "rop": 1330,
      "igh": 1331,
      "rib": 1332,
      "Ġbackward": 1333,
      "Ġdevelop": 1334,
      "Ġallows": 1335,
      "Ġstructured": 1336,
      "Ġlatitude": 1337,
      "Ġphoto": 1338,
      "Ġlongitude": 1339,
      "Ġdevelopment": 1340,
      "over": 1341,
      "pin": 1342,
      "port": 1343,
      "atform": 1344,
      "Ġpen": 1345,
      "Ġpush": 1346,
      "raw": 1347,
      "urn": 1348,
      "ries": 1349,
      "Ġexpanding": 1350,
      "Ġcond": 1351,
      "Ġaccessible": 1352,
      "Ġverified": 1353,
      "Ġplatform": 1354,
      "Ġoverlay": 1355,
      "ograph": 1356,
      "Ġcollaps": 1357,
      "ript": 1358,
      "Ġfinding": 1359,
      "Ġinternational": 1360,
      "Ġalignment": 1361,
      "Ġnotifications": 1362,
      "Ġbelow": 1363,
      "Ġreturn": 1364,
      "Ġdenote": 1365,
      "Ġpushpin": 1366,
      "cre": 1367,
      "ik": 1368,
      "rity": 1369,
      "ĠD": 1370,
      "ĠE": 1371,
      "Ġaut": 1372,
      "ates": 1373,
      "Ġcale": 1374,
      "Ġinser": 1375,
      "ower": 1376,
      "ndar": 1377,
      "Ġpa": 1378,
      "Ġpaint": 1379,
      "vel": 1380,
      "Ġval": 1381,
      "Ġfunctional": 1382,
      "Ġhome": 1383,
      "Ġann": 1384,
      "box": 1385,
      "Ġcho": 1386,
      "Ġsubt": 1387,
      "Ġnote": 1388,
      "Ġpreview": 1389,
      "shape": 1390,
      "Ġbookmarked": 1391,
      "Ġcompleted": 1392,
      "Ġcondition": 1393,
      "Ġcalendar": 1394,
      "ave": 1395,
      "ture": 1396,
      "Ġtable": 1397,
      "ital": 1398,
      "Ġdraw": 1399,
      "Ġlog": 1400,
      "Ġread": 1401,
      "Ġmet": 1402,
      "aces": 1403,
      "Ġrepl": 1404,
      "uted": 1405,
      "Ġintera": 1406,
      "lam": 1407,
      "Ġonline": 1408,
      "eath": 1409,
      "Ġclock": 1410,
      "Ġfill": 1411,
      "Ġprec": 1412,
      "ifier": 1413,
      "Ġcreate": 1414,
      "Ġswit": 1415,
      "Ġinternet": 1416,
      "Ġalert": 1417,
      "Ġidentifier": 1418,
      "ball": 1419,
      "light": 1420,
      "ned": 1421,
      "pan": 1422,
      "Ġext": 1423,
      "Ġare": 1424,
      "sect": 1425,
      "Ġpe": 1426,
      "Ġpri": 1427,
      "ans": 1428,
      "lash": 1429,
      "Ġhide": 1430,
      "Ġhigh": 1431,
      "ched": 1432,
      "chron": 1433,
      "Ġexc": 1434,
      "Ġdism": 1435,
      "Ġrain": 1436,
      "Ġcomputer": 1437,
      "ope": 1438,
      "Ġgrouped": 1439,
      "Ġpinned": 1440,
      "ivity": 1441,
      "brush": 1442,
      "Ġmusic": 1443,
      "Ġsecurity": 1444,
      "Ġsynchron": 1445,
      "Ġcommunication": 1446,
      "Ġnamed": 1447,
      "Ġvarying": 1448,
      "Ġpaintbrush": 1449,
      "Ġfunctionality": 1450,
      "ked": 1451,
      "lation": 1452,
      "oom": 1453,
      "top": 1454,
      "ors": 1455,
      "Ġside": 1456,
      "Ġinit": 1457,
      "Ġwork": 1458,
      "Ġben": 1459,
      "Ġbod": 1460,
      "Ġborder": 1461,
      "Ġnetw": 1462,
      "Ġforec": 1463,
      "Ġsur": 1464,
      "Ġintersect": 1465,
      "ĠUIs": 1466,
      "Ġhouse": 1467,
      "older": 1468,
      "Ġexpanded": 1469,
      "Ġdiscu": 1470,
      "Ġserves": 1471,
      "Ġscope": 1472,
      "Ġsubsc": 1473,
      "Ġquick": 1474,
      "Ġdirection": 1475,
      "Ġentries": 1476,
      "Ġgeograph": 1477,
      "Ġpoint": 1478,
      "Ġkey": 1479,
      "colored": 1480,
      "Ġdeployment": 1481,
      "Ġconditions": 1482,
      "Ġbeneath": 1483,
      "Ġbody": 1484,
      "Ġnetwork": 1485,
      "Ġforecast": 1486,
      "Ġintersecting": 1487,
      "che": 1488,
      "holder": 1489,
      "val": 1490,
      "ĠO": 1491,
      "ative": 1492,
      "Ġtas": 1493,
      "Ġwar": 1494,
      "left": 1495,
      "Ġrequ": 1496,
      "Ġbase": 1497,
      "here": 1498,
      "Ġme": 1499,
      "Ġrepos": 1500,
      "ompan": 1501,
      "osing": 1502,
      "Ġacces": 1503,
      "Ġaccompan": 1504,
      "Ġheight": 1505,
      "Ġservice": 1506,
      "Ġplaceholder": 1507,
      "Ġteal": 1508,
      "lamation": 1509,
      "Ġexclamation": 1510,
      "Ġsynchronization": 1511,
      "Ġiniti": 1512,
      "Ġwarning": 1513,
      "cil": 1514,
      "dio": 1515,
      "min": 1516,
      "oot": 1517,
      "rin": 1518,
      "vir": 1519,
      "Ġab": 1520,
      "onment": 1521,
      "ress": 1522,
      "Ġpad": 1523,
      "ach": 1524,
      "ansion": 1525,
      "irm": 1526,
      "Ġexpansion": 1527,
      "ify": 1528,
      "Ġclip": 1529,
      "abled": 1530,
      "Ġdef": 1531,
      "Ġsports": 1532,
      "Ġmanag": 1533,
      "Ġheart": 1534,
      "Ġtriangles": 1535,
      "Ġsuggested": 1536,
      "Ġtools": 1537,
      "Ġcorners": 1538,
      "ame": 1539,
      "Ġenc": 1540,
      "Ġenvir": 1541,
      "Ġradio": 1542,
      "Ġcategoriz": 1543,
      "Ġimport": 1544,
      "Ġ21": 1545,
      "Ġzoom": 1546,
      "Ġelements": 1547,
      "Ġresour": 1548,
      "Ġ13": 1549,
      "Ġsaved": 1550,
      "Ġmultiple": 1551,
      "Ġpencil": 1552,
      "Ġdrawing": 1553,
      "Ġreplies": 1554,
      "Ġdiscussion": 1555,
      "Ġgeographic": 1556,
      "Ġtask": 1557,
      "Ġaccessed": 1558,
      "Ġenvironment": 1559,
      "uble": 1560,
      "ven": 1561,
      "yth": 1562,
      "Ġlibr": 1563,
      "Ġper": 1564,
      "ross": 1565,
      "Ġstore": 1566,
      "rounding": 1567,
      "Ġdouble": 1568,
      "Ġbuttons": 1569,
      "Ġdocuments": 1570,
      "Ġsphere": 1571,
      "Ġcurled": 1572,
      "Ġhex": 1573,
      "Ġforming": 1574,
      "Ġconfirm": 1575,
      "Ġquer": 1576,
      "ibility": 1577,
      "Ġmessage": 1578,
      "Ġtrans": 1579,
      "Ġlinked": 1580,
      "umn": 1581,
      "Ġslide": 1582,
      "Ġpoints": 1583,
      "Ġannot": 1584,
      "Ġinteraction": 1585,
      "Ġhighlight": 1586,
      "Ġdismiss": 1587,
      "Ġsurrounding": 1588,
      "Ġclipboard": 1589,
      "Ġmanaged": 1590,
      "ython": 1591,
      "Ġlibrary": 1592,
      "ak": 1593,
      "ant": 1594,
      "ault": 1595,
      "per": 1596,
      "Ġtag": 1597,
      "icture": 1598,
      "Ġslash": 1599,
      "Ġmuted": 1600,
      "Ġpap": 1601,
      "Ġob": 1602,
      "ension": 1603,
      "Ġstep": 1604,
      "Ġshort": 1605,
      "ish": 1606,
      "Ġconver": 1607,
      "indrop": 1608,
      "Ġcloudy": 1609,
      "Ġscript": 1610,
      "Ġraindrop": 1611,
      "Ġmessages": 1612,
      "Ġbox": 1613,
      "ĠPython": 1614,
      "Ġsubmenu": 1615,
      "Ġorganizing": 1616,
      "Ġbell": 1617,
      "plified": 1618,
      "Ġpartially": 1619,
      "Ġcapital": 1620,
      "Ġframe": 1621,
      "overing": 1622,
      "Ġprior": 1623,
      "ooth": 1624,
      "Ġpadlock": 1625,
      "Ġhexagonal": 1626,
      "Go": 1627,
      "ield": 1628,
      "ost": 1629,
      "pen": 1630,
      "sor": 1631,
      "Ġ(": 1632,
      "Ġact": 1633,
      "Ġtip": 1634,
      "Ġcat": 1635,
      "Ġinner": 1636,
      "Ġmar": 1637,
      "aced": 1638,
      "ige": 1639,
      "Ġsimplified": 1640,
      "Ġopp": 1641,
      "Ġthin": 1642,
      "ute": 1643,
      "lab": 1644,
      "Ġhovering": 1645,
      "Ġexporting": 1646,
      "adata": 1647,
      "Ġcolumn": 1648,
      "Ġsections": 1649,
      "Ġbeige": 1650,
      "Ġoutput": 1651,
      "Ġeas": 1652,
      "Ġcolorful": 1653,
      "Ġvisually": 1654,
      "Ġpartly": 1655,
      "Ġmode": 1656,
      "Ġshared": 1657,
      "Ġmusical": 1658,
      "ĠWik": 1659,
      "Ġfavorited": 1660,
      "Ġmetadata": 1661,
      "Ġkeyboard": 1662,
      "ches": 1663,
      "Ġdefault": 1664,
      "Ġobject": 1665,
      "ff": 1666,
      "get": 1667,
      "lit": 1668,
      "mm": 1669,
      "rical": 1670,
      "tip": 1671,
      "ĠF": 1672,
      "ator": 1673,
      "read": 1674,
      "itory": 1675,
      "Ġord": 1676,
      "Ġdate": 1677,
      "lect": 1678,
      "Ġbes": 1679,
      "est": 1680,
      "ollow": 1681,
      "Ġthis": 1682,
      "Ġshield": 1683,
      "ments": 1684,
      "Ġinterfaces": 1685,
      "eth": 1686,
      "Ġhorizontally": 1687,
      "Ġminus": 1688,
      "Ġnavigating": 1689,
      "Ġprov": 1690,
      "Ġprote": 1691,
      "Ġsplit": 1692,
      "Ġcursor": 1693,
      "ship": 1694,
      "Ġtooltip": 1695,
      "Ġdarker": 1696,
      "Ġdiagonal": 1697,
      "Ġdownloading": 1698,
      "Ġmoon": 1699,
      "Ġcheckbox": 1700,
      "Ġupdates": 1701,
      "âĢĻ": 1702,
      "Ġmodel": 1703,
      "Ġmonitoring": 1704,
      "Ġundo": 1705,
      "Ġslight": 1706,
      "Ġaligned": 1707,
      "Ġapplying": 1708,
      "Ġsaving": 1709,
      "Ġfeedback": 1710,
      "Ġfox": 1711,
      "Ġcollapsible": 1712,
      "Ġlogo": 1713,
      "Ġrepository": 1714,
      "Ġpaper": 1715,
      "Ġopposing": 1716,
      "Ġcolumns": 1717,
      "Ġeasy": 1718,
      "Ġbeside": 1719,
      "Ġprotection": 1720,
      "aun": 1721,
      "gth": 1722,
      "luet": 1723,
      "ople": 1724,
      "ror": 1725,
      "sp": 1726,
      "ug": 1727,
      "yte": 1728,
      "Ġer": 1729,
      "Ġsn": 1730,
      "Ġsound": 1731,
      "Ġco": 1732,
      "Ġcut": 1733,
      "Ġlaun": 1734,
      "Ġfin": 1735,
      "Ġrest": 1736,
      "Ġrelation": 1737,
      "Ġlid": 1738,
      "Ġpower": 1739,
      "Ġoff": 1740,
      "etrical": 1741,
      "ccess": 1742,
      "Ġsymm": 1743,
      "Ġnumbered": 1744,
      "Ġfeatures": 1745,
      "Ġlocal": 1746,
      "Ġstarting": 1747,
      "ription": 1748,
      "rams": 1749,
      "Ġallowing": 1750,
      "Ġorganize": 1751,
      "ĠBluet": 1752,
      "feren": 1753,
      "Ġpreced": 1754,
      "Ġrequire": 1755,
      "Ġpriorit": 1756,
      "Ġcatalog": 1757,
      "Ġslightly": 1758,
      "Ġrelationship": 1759,
      "Ġsymmetrical": 1760,
      "ĠBluetooth": 1761,
      "\",": 1762,
      ",\"": 1763,
      "active": 1764,
      "cing": 1765,
      "fer": 1766,
      "flow": 1767,
      "ily": 1768,
      "ath": 1769,
      "Ġsix": 1770,
      "Ġcam": 1771,
      "Ġincre": 1772,
      "Ġinactive": 1773,
      "Ġflow": 1774,
      "era": 1775,
      "alle": 1776,
      "Ġmain": 1777,
      "Ġpicture": 1778,
      "Ġshad": 1779,
      "Ġexec": 1780,
      "Ġcollab": 1781,
      "Ġeach": 1782,
      "Ġiss": 1783,
      "Ġdialog": 1784,
      "Ġlabels": 1785,
      "asing": 1786,
      "Ġplayback": 1787,
      "Ġstored": 1788,
      "Ġcresc": 1789,
      "Ġgrouping": 1790,
      "Ġrows": 1791,
      "Ġteeth": 1792,
      "Ġlength": 1793,
      "Ġrecord": 1794,
      "Ġkeep": 1795,
      "Ġparalle": 1796,
      "Ġtime": 1797,
      "Ġpair": 1798,
      "Ġpeople": 1799,
      "chedu": 1800,
      "Ġrainy": 1801,
      "Ġsubscription": 1802,
      "Ġinitiating": 1803,
      "Ġresource": 1804,
      "Ġannotation": 1805,
      "Ġrequires": 1806,
      "Ġcamera": 1807,
      "Ġcollabor": 1808,
      "Ġcrescent": 1809,
      "St": 1810,
      "eren": 1811,
      "ktop": 1812,
      "ose": 1813,
      "ront": 1814,
      "vent": 1815,
      "ze": 1816,
      "Ġ7": 1817,
      "ĠR": 1818,
      "Ġschedu": 1819,
      "Ġcle": 1820,
      "Ġcop": 1821,
      "Ġfree": 1822,
      "Ġbas": 1823,
      "Ġbased": 1824,
      "Ġmer": 1825,
      "Ġpost": 1826,
      "Ġgu": 1827,
      "Ġneed": 1828,
      "Ġsend": 1829,
      "ters": 1830,
      "Ġbloc": 1831,
      "Ġgraph": 1832,
      "irling": 1833,
      "Ġadding": 1834,
      "Ġchevrons": 1835,
      "rive": 1836,
      "Ġexpands": 1837,
      "Ġappro": 1838,
      "Ġbeh": 1839,
      "Ġnumbers": 1840,
      "Ġchat": 1841,
      "Ġsciss": 1842,
      "ulb": 1843,
      "Ġdownloadable": 1844,
      "Ġlocked": 1845,
      "Ġrectangles": 1846,
      "Ġopens": 1847,
      "phone": 1848,
      "Ġdisplayed": 1849,
      "Ġlayer": 1850,
      "Ġswirling": 1851,
      "Ġpink": 1852,
      "Ġcommand": 1853,
      "Ġrevert": 1854,
      "Ġreversed": 1855,
      "ĠBla": 1856,
      "Ġbranching": 1857,
      "Ġalerts": 1858,
      "Ġloop": 1859,
      "Ġprogress": 1860,
      "Ġtrash": 1861,
      "Ġvalues": 1862,
      "Ġsubtle": 1863,
      "Ġready": 1864,
      "Ġworkflow": 1865,
      "Ġperform": 1866,
      "Ġinteractions": 1867,
      "Ġbasket": 1868,
      "Ġscissors": 1869,
      "Sh": 1870,
      "ass": 1871,
      "bulb": 1872,
      "ied": 1873,
      "ier": 1874,
      "lish": 1875,
      "oice": 1876,
      "ular": 1877,
      "xed": 1878,
      "ĠV": 1879,
      "Ġag": 1880,
      "ories": 1881,
      "sen": 1882,
      "select": 1883,
      "Ġtem": 1884,
      "Ġsoci": 1885,
      "Ġsale": 1886,
      "Ġsave": 1887,
      "Ġcross": 1888,
      "Ġinf": 1889,
      "Ġwire": 1890,
      "less": 1891,
      "Ġfig": 1892,
      "Ġflap": 1893,
      "Ġball": 1894,
      "Ġpack": 1895,
      "Ġpointed": 1896,
      "ener": 1897,
      "anc": 1898,
      "oint": 1899,
      "stract": 1900,
      "Ġstart": 1901,
      "Ġsuccess": 1902,
      "vered": 1903,
      "Ġvol": 1904,
      "Ġvoice": 1905,
      "Ġfixed": 1906,
      "iling": 1907,
      "Ġtype": 1908,
      "Ġapps": 1909,
      "Ġcone": 1910,
      "Ġlightbulb": 1911,
      "ected": 1912,
      "Ġdisk": 1913,
      "Ġedited": 1914,
      "Ġpreferen": 1915,
      "amp": 1916,
      "Ġenabled": 1917,
      "Ġbrown": 1918,
      "Ġhandles": 1919,
      "Ġcurrently": 1920,
      "Ġrecent": 1921,
      "Ġbranches": 1922,
      "Ġabstract": 1923,
      "Ġenclo": 1924,
      "Ġqueries": 1925,
      "Ġorder": 1926,
      "Ġprovide": 1927,
      "Ġblock": 1928,
      "Ġbehind": 1929,
      "Ġsocial": 1930,
      "Ġsales": 1931,
      "Ġwireless": 1932,
      "Ġfigure": 1933,
      "Ġsuccessful": 1934,
      "Byte": 1935,
      "Point": 1936,
      "cl": 1937,
      "cket": 1938,
      "duct": 1939,
      "grams": 1940,
      "glish": 1941,
      "ld": 1942,
      "nglish": 1943,
      "su": 1944,
      "sis": 1945,
      "tes": 1946,
      "ĠG": 1947,
      "ĠI": 1948,
      "ĠL": 1949,
      "ĠT": 1950,
      "ĠX": 1951,
      "inu": 1952,
      "onent": 1953,
      "ses": 1954,
      "Ġtail": 1955,
      "ression": 1956,
      "Ġdist": 1957,
      "Ġland": 1958,
      "Ġtoget": 1959,
      "keting": 1960,
      "Ġmay": 1961,
      "Ġprin": 1962,
      "Ġglow": 1963,
      "Ġgiv": 1964,
      "Ġsuite": 1965,
      "tions": 1966,
      "Ġcomb": 1967,
      "ations": 1968,
      "lograms": 1969,
      "Ġhum": 1970,
      "Ġindicators": 1971,
      "ape": 1972,
      "Ġstyling": 1973,
      "Ġproper": 1974,
      "Ġspaced": 1975,
      "Ġselectable": 1976,
      "Ġend": 1977,
      "Ġeven": 1978,
      "Ġspeed": 1979,
      "Ġspeak": 1980,
      "Ġsilhouettes": 1981,
      "Ġstoring": 1982,
      "Ġreferen": 1983,
      "Ġwebs": 1984,
      "Ġcreating": 1985,
      "Ġ20": 1986,
      "scape": 1987,
      "Ġexploration": 1988,
      "Ġdiamonds": 1989,
      "ĠSt": 1990,
      "Ġparame": 1991,
      "Ġtimest": 1992,
      "Ġfavorites": 1993,
      "ĠEnglish": 1994,
      "Ġinserting": 1995,
      "Ġconfirmed": 1996,
      "Ġmarketing": 1997,
      "Ġoffset": 1998,
      "Ġlengths": 1999,
      "Ġparallelograms": 2000,
      "Ġneedle": 2001,
      "Ġperformance": 2002,
      "selected": 2003,
      "Ġenclosed": 2004,
      "sugges": 2005,
      "Ġlandscape": 2006,
      "Ġtogether": 2007,
      "Ġpropert": 2008,
      "Ġevenly": 2009,
      "Ġparameters": 2010,
      "Ġtimestamp": 2011,
      "',": 2012,
      "CD": 2013,
      "Cont": 2014,
      "Home": 2015,
      "The": 2016,
      "app": 2017,
      "apping": 2018,
      "dge": 2019,
      "gh": 2020,
      "kn": 2021,
      "mi": 2022,
      "ming": 2023,
      "ool": 2024,
      "ous": 2025,
      "ves": 2026,
      "wel": 2027,
      "Ġi": 2028,
      "Ġaw": 2029,
      "Ġair": 2030,
      "atch": 2031,
      "Ġtwel": 2032,
      "Ġsk": 2033,
      "Ġsort": 2034,
      "Ġcal": 2035,
      "Ġwav": 2036,
      "Ġfl": 2037,
      "Ġface": 2038,
      "Ġfound": 2039,
      "Ġrece": 2040,
      "Ġpick": 2041,
      "Ġpast": 2042,
      "roke": 2043,
      "imension": 2044,
      "ownload": 2045,
      "rast": 2046,
      "Ġoper": 2047,
      "Ġstroke": 2048,
      "agraph": 2049,
      "rough": 2050,
      "Ġhas": 2051,
      "Ġhollow": 2052,
      "etch": 2053,
      "Ġanot": 2054,
      "Ġviews": 2055,
      "Ġprot": 2056,
      "Ġbeen": 2057,
      "ountain": 2058,
      "Ġchang": 2059,
      "Ġcompass": 2060,
      "Ġcomponent": 2061,
      "Ġconnectivity": 2062,
      "Ġbright": 2063,
      "Ġplayed": 2064,
      "Ġtrack": 2065,
      "ĠCI": 2066,
      "Ġatt": 2067,
      "Ġlanguages": 2068,
      "Ġlinking": 2069,
      "ĠPower": 2070,
      "Ġanalysis": 2071,
      "Ġdevices": 2072,
      "Ġdotted": 2073,
      "Ġreverse": 2074,
      "Ġmultiling": 2075,
      "Ġdeletion": 2076,
      "Ġstyles": 2077,
      "Ġunselected": 2078,
      "allery": 2079,
      "ĠWord": 2080,
      "Ġparagraph": 2081,
      "Ġcustomers": 2082,
      "Ġrocket": 2083,
      "Ġtheme": 2084,
      "Ġcollapsing": 2085,
      "ĠEdge": 2086,
      "Ġinsert": 2087,
      "Ġvalue": 2088,
      "Ġchoices": 2089,
      "Ġswitching": 2090,
      "Ġheights": 2091,
      "Ġcategorized": 2092,
      "Ġlaunch": 2093,
      "Ġprioritization": 2094,
      "Ġguid": 2095,
      "ĠBlaze": 2096,
      "Ġpreferences": 2097,
      "inuous": 2098,
      "Ġdistrib": 2099,
      "Ġspeaker": 2100,
      "Ġreference": 2101,
      "Ġwebsite": 2102,
      "Ġproperties": 2103,
      "Continuous": 2104,
      "Ġtwelve": 2105,
      "Ġcalcu": 2106,
      "Ġanother": 2107,
      "ĠPowerPoint": 2108,
      "Ġmultilingual": 2109,
      "11": 2110,
      "13": 2111,
      "Cre": 2112,
      "Clo": 2113,
      "Se": 2114,
      "Tool": 2115,
      "ake": 2116,
      "base": 2117,
      "dimension": 2118,
      "gr": 2119,
      "ging": 2120,
      "king": 2121,
      "lic": 2122,
      "mst": 2123,
      "ne": 2124,
      "ni": 2125,
      "pt": 2126,
      "par": 2127,
      "sing": 2128,
      "und": 2129,
      "ution": 2130,
      "Ġ5": 2131,
      "ingle": 2132,
      "itation": 2133,
      "Ġshe": 2134,
      "Ġsorting": 2135,
      "Ġsingle": 2136,
      "Ġdif": 2137,
      "Ġlar": 2138,
      "Ġfall": 2139,
      "Ġbag": 2140,
      "head": 2141,
      "Ġdatabase": 2142,
      "Ġmac": 2143,
      "Ġmix": 2144,
      "Ġmapping": 2145,
      "Ġmountain": 2146,
      "Ġpub": 2147,
      "Ġgener": 2148,
      "Ġgallery": 2149,
      "enn": 2150,
      "Ġsepar": 2151,
      "Ġblad": 2152,
      "Ġthrough": 2153,
      "Ġhier": 2154,
      "Ġarc": 2155,
      "rie": 2156,
      "Ġrevealing": 2157,
      "Ġminimize": 2158,
      "Ġring": 2159,
      "Ġproduct": 2160,
      "book": 2161,
      "cending": 2162,
      "Ġequ": 2163,
      "Ġeff": 2164,
      "Ġservices": 2165,
      "Ġlevel": 2166,
      "Ġfilmst": 2167,
      "Ġscore": 2168,
      "Ġmarker": 2169,
      "Ġcontains": 2170,
      "Ġsignal": 2171,
      "Ġwheel": 2172,
      "Ġshaped": 2173,
      "Ġprojects": 2174,
      "Ġdesktop": 2175,
      "Ġimages": 2176,
      "Ġupdated": 2177,
      "Ġpersonal": 2178,
      "Ġmodify": 2179,
      "ume": 2180,
      "Ġoutwards": 2181,
      "locking": 2182,
      "ferent": 2183,
      "Ġfoot": 2184,
      "Ġprogram": 2185,
      "Ġunderline": 2186,
      "Ġframes": 2187,
      "Ġsubtract": 2188,
      "Ġswitch": 2189,
      "Ġactivity": 2190,
      "Ġerror": 2191,
      "Ġincreasing": 2192,
      "Ġshadow": 2193,
      "Ġscheduling": 2194,
      "Ġmerge": 2195,
      "Ġinfrast": 2196,
      "Ġgiven": 2197,
      "Ġhuman": 2198,
      "ĠiClo": 2199,
      "Ġpicker": 2200,
      "ownloads": 2201,
      "Ġprotected": 2202,
      "Ġguidance": 2203,
      "Create": 2204,
      "Tools": 2205,
      "dimensional": 2206,
      "Ġdifferent": 2207,
      "Ġlarger": 2208,
      "Ġfalling": 2209,
      "Ġblades": 2210,
      "Ġhierarch": 2211,
      "Ġfilmstrip": 2212,
      "Ġinfrastructure": 2213,
      "ĠiCloud": 2214,
      "LL": 2215,
      "Map": 2216,
      "Open": 2217,
      "SS": 2218,
      "cent": 2219,
      "cut": 2220,
      "ie": 2221,
      "ll": 2222,
      "pple": 2223,
      "ssed": 2224,
      "yn": 2225,
      "Ġide": 2226,
      "ining": 2227,
      "Ġac": 2228,
      "Ġaround": 2229,
      "Ġtenn": 2230,
      "reet": 2231,
      "ich": 2232,
      "Ġdrive": 2233,
      "Ġlap": 2234,
      "Ġfam": 2235,
      "Ġbin": 2236,
      "alic": 2237,
      "icating": 2238,
      "Ġmat": 2239,
      "Ġmicro": 2240,
      "acing": 2241,
      "ane": 2242,
      "Ġseg": 2243,
      "Ġsending": 2244,
      "Ġseven": 2245,
      "Ġasset": 2246,
      "Ġcontact": 2247,
      "tionary": 2248,
      "Ġinterlocking": 2249,
      "Ġitalic": 2250,
      "Ġhues": 2251,
      "ission": 2252,
      "pper": 2253,
      "ppet": 2254,
      "admin": 2255,
      "istory": 2256,
      "Ġdocumentation": 2257,
      "Ġrun": 2258,
      "Ġproce": 2259,
      "Ġdecre": 2260,
      "Ġaccessibility": 2261,
      "uds": 2262,
      "Ġalph": 2263,
      "Ġdisc": 2264,
      "Ġcoral": 2265,
      "Ġclouds": 2266,
      "Ġleftward": 2267,
      "Ġscan": 2268,
      "Ġvisibility": 2269,
      "ipitation": 2270,
      "Ġsilver": 2271,
      "Ġnotes": 2272,
      "Ġsources": 2273,
      "Ġcreative": 2274,
      "Ġexplore": 2275,
      "ĠAr": 2276,
      "This": 2277,
      "plane": 2278,
      "Ġbranched": 2279,
      "Ġsecure": 2280,
      "Ġsyncing": 2281,
      "Ġdenotes": 2282,
      "racting": 2283,
      "Ġsubmitting": 2284,
      "Ġautom": 2285,
      "Ġprecipitation": 2286,
      "Ġextracting": 2287,
      "ĠOpen": 2288,
      "Ġaccompanies": 2289,
      "Ġaccompanied": 2290,
      "Ġability": 2291,
      "Ġconvers": 2292,
      "Ġtips": 2293,
      "spe": 2294,
      "Ġsnow": 2295,
      "Ġcovered": 2296,
      "Ġfinanc": 2297,
      "Street": 2298,
      "ĠRSS": 2299,
      "Ġclear": 2300,
      "Ġvolume": 2301,
      "Ġends": 2302,
      "ĠStore": 2303,
      "suggests": 2304,
      "Ġairplane": 2305,
      "nippet": 2306,
      "Ġmixed": 2307,
      "Ġpublic": 2308,
      "Ġeffect": 2309,
      "Ġfootball": 2310,
      "Ġidea": 2311,
      "Ġtennis": 2312,
      "Ġlaptop": 2313,
      "Ġfamily": 2314,
      "Ġmicrophone": 2315,
      "Ġproceed": 2316,
      "ĠOpenStreet": 2317,
      "Ġfinancial": 2318,
      "ĠOpenStreetMap": 2319,
      "Ar": 2320,
      "Ex": 2321,
      "OS": 2322,
      "SH": 2323,
      "au": 2324,
      "bility": 2325,
      "cling": 2326,
      "do": 2327,
      "fla": 2328,
      "fetch": 2329,
      "ges": 2330,
      "gers": 2331,
      "horiz": 2332,
      "lator": 2333,
      "me": 2334,
      "ness": 2335,
      "she": 2336,
      "view": 2337,
      "åŃ": 2338,
      "ĠH": 2339,
      "Ġj": 2340,
      "ĠâĢ": 2341,
      "ond": 2342,
      "ature": 2343,
      "Ġcard": 2344,
      "Ġcla": 2345,
      "Ġcase": 2346,
      "Ġdig": 2347,
      "Ġflo": 2348,
      "Ġfront": 2349,
      "Ġreset": 2350,
      "Ġbra": 2351,
      "Ġbul": 2352,
      "Ġbatter": 2353,
      "hent": 2354,
      "Ġmouse": 2355,
      "Ġpop": 2356,
      "Ġpai": 2357,
      "Ġpale": 2358,
      "Ġpath": 2359,
      "tings": 2360,
      "Ġgo": 2361,
      "Ġblur": 2362,
      "ider": 2363,
      "Ġwhich": 2364,
      "cus": 2365,
      "Ġvia": 2366,
      "Ġhour": 2367,
      "Ġadmin": 2368,
      "isio": 2369,
      "ppy": 2370,
      "abet": 2371,
      "abling": 2372,
      "Ġconcent": 2373,
      "Ġproble": 2374,
      "Ġspread": 2375,
      "Ġcurly": 2376,
      "Ġclosed": 2377,
      "ured": 2378,
      "Ġredu": 2379,
      "Ġey": 2380,
      "Ġevent": 2381,
      "Ġdisabled": 2382,
      "Ġcolors": 2383,
      "Ġscrol": 2384,
      "Ġprefer": 2385,
      "Ġtoggling": 2386,
      "Ġopening": 2387,
      "Ġpurch": 2388,
      "Ġcategories": 2389,
      "Ġfilters": 2390,
      "Ġbrac": 2391,
      "Ġbraces": 2392,
      "Ġlocations": 2393,
      "âĢĿ": 2394,
      "Ġlayers": 2395,
      "Ġcomments": 2396,
      "Ġappearance": 2397,
      "Ġratings": 2398,
      "Ġteam": 2399,
      "Ġtriggers": 2400,
      "Ġretrie": 2401,
      "Ġeditors": 2402,
      "Ġavailability": 2403,
      "irection": 2404,
      "Ġload": 2405,
      "Ġlook": 2406,
      "Ġcustomization": 2407,
      "Ġcustomize": 2408,
      "Ġidentify": 2409,
      "Ġprocessing": 2410,
      "ribe": 2411,
      "iki": 2412,
      "Ġauthoriz": 2413,
      "Ġauthent": 2414,
      "Ġpreviewed": 2415,
      "Ġreading": 2416,
      "Ġextension": 2417,
      "ĠOne": 2418,
      "Ġcategorize": 2419,
      "Ġimportant": 2420,
      "Ġtasks": 2421,
      "Ġquery": 2422,
      "Ġtransfer": 2423,
      "Ġhighlighted": 2424,
      "Ġshortcut": 2425,
      "Ġactiv": 2426,
      "Ġrestric": 2427,
      "Ġexecute": 2428,
      "Ġissue": 2429,
      "Ġissues": 2430,
      "Ġcopy": 2431,
      "ĠVisio": 2432,
      "Ġpackage": 2433,
      "Ġglowing": 2434,
      "known": 2435,
      "Ġpaste": 2436,
      "Ġchanges": 2437,
      "Ġdistribution": 2438,
      "Ġcalculator": 2439,
      "Ġshell": 2440,
      "ĠmacOS": 2441,
      "Ġgenerating": 2442,
      "Ġprogramming": 2443,
      "Ġhierarchical": 2444,
      "Ġacross": 2445,
      "Ġsegments": 2446,
      "Ġdecrease": 2447,
      "Ġalphabet": 2448,
      "Ġconversation": 2449,
      "Ġsnowfla": 2450,
      "sheet": 2451,
      "åŃĹ": 2452,
      "ĠâĢľ": 2453,
      "Ġfloppy": 2454,
      "Ġbattery": 2455,
      "Ġpaired": 2456,
      "Ġblurred": 2457,
      "Ġconcentric": 2458,
      "Ġproblem": 2459,
      "Ġspreadsheet": 2460,
      "Ġpreferred": 2461,
      "Ġsnowflake": 2462,
      "Col": 2463,
      "DF": 2464,
      "De": 2465,
      "Drop": 2466,
      "EG": 2467,
      "Ed": 2468,
      "ELL": 2469,
      "Get": 2470,
      "Langu": 2471,
      "More": 2472,
      "Qu": 2473,
      "Snippet": 2474,
      "af": 2475,
      "air": 2476,
      "bl": 2477,
      "bu": 2478,
      "bur": 2479,
      "cir": 2480,
      "categ": 2481,
      "cript": 2482,
      "down": 2483,
      "dot": 2484,
      "front": 2485,
      "gap": 2486,
      "hone": 2487,
      "ise": 2488,
      "ient": 2489,
      "mp": 2490,
      "mission": 2491,
      "oun": 2492,
      "sight": 2493,
      "two": 2494,
      "tte": 2495,
      "umb": 2496,
      "upl": 2497,
      "wide": 2498,
      "wise": 2499,
      "yle": 2500,
      "ĠN": 2501,
      "orld": 2502,
      "ats": 2503,
      "Ġcro": 2504,
      "Ġdic": 2505,
      "Ġdol": 2506,
      "Ġdupl": 2507,
      "Ġinte": 2508,
      "Ġinvent": 2509,
      "Ġincl": 2510,
      "Ġinsight": 2511,
      "Ġwave": 2512,
      "Ġwiki": 2513,
      "Ġworld": 2514,
      "Ġfaint": 2515,
      "Ġfollow": 2516,
      "ern": 2517,
      "Ġrem": 2518,
      "arrow": 2519,
      "arvel": 2520,
      "Ġbid": 2521,
      "alth": 2522,
      "hem": 2523,
      "kets": 2524,
      "Ġmir": 2525,
      "ested": 2526,
      "rocess": 2527,
      "Ġgau": 2528,
      "Ġreports": 2529,
      "Ġreprocess": 2530,
      "Ġnight": 2531,
      "Ġnose": 2532,
      "Ġnarrow": 2533,
      "Ġnested": 2534,
      "Ġsemi": 2535,
      "Ġascending": 2536,
      "Ġcontrib": 2537,
      "ides": 2538,
      "Ġstrip": 2539,
      "Ġstuds": 2540,
      "Ġsupp": 2541,
      "Ġinteract": 2542,
      "Ġho": 2543,
      "eline": 2544,
      "rif": 2545,
      "ccer": 2546,
      "istr": 2547,
      "Ġcontents": 2548,
      "Ġhealth": 2549,
      "Ġsymbols": 2550,
      "cements": 2551,
      "aser": 2552,
      "ainst": 2553,
      "Ġsoccer": 2554,
      "Ġdiv": 2555,
      "Ġedges": 2556,
      "Ġchange": 2557,
      "Ġothers": 2558,
      "ordered": 2559,
      "Ġvisible": 2560,
      "Ġmotion": 2561,
      "Ġtoggled": 2562,
      "Ġsubf": 2563,
      "Ġsubcateg": 2564,
      "Ġenable": 2565,
      "Ġconnecting": 2566,
      "Ġbrick": 2567,
      "Ġtabs": 2568,
      "Ġplayer": 2569,
      "Ġdisplays": 2570,
      "Ġlower": 2571,
      "Ġmodular": 2572,
      "Ġcollapsed": 2573,
      "ĠPro": 2574,
      "Ġswatch": 2575,
      "ĠApp": 2576,
      "Ġslats": 2577,
      "Ġremoval": 2578,
      "Ġorganized": 2579,
      "Ġconnections": 2580,
      "Ġunit": 2581,
      "Ġunknown": 2582,
      "Ġupper": 2583,
      "Ġlater": 2584,
      "Ġfavoriting": 2585,
      "Ġcommunicating": 2586,
      "Ġrot": 2587,
      "Ġname": 2588,
      "Ġprogression": 2589,
      "Ġcapture": 2590,
      "Ġdeploying": 2591,
      "Ġannoun": 2592,
      "Ġpending": 2593,
      "Ġmeas": 2594,
      "Ġmegap": 2595,
      "Ġinitiate": 2596,
      "Ġresources": 2597,
      "Ġ136": 2598,
      "Ġstorefront": 2599,
      "perature": 2600,
      "Ġdiagonally": 2601,
      "Ġeraser": 2602,
      "Ġsnake": 2603,
      "Ġcutting": 2604,
      "Ġfins": 2605,
      "Ġpreceded": 2606,
      "Ġprecedes": 2607,
      "Ġrecords": 2608,
      "Ġgraphic": 2609,
      "Ġapproved": 2610,
      "Ġapproval": 2611,
      "Share": 2612,
      "Ġagainst": 2613,
      "senal": 2614,
      "Ġtemperature": 2615,
      "Ġrecently": 2616,
      "ĠGit": 2617,
      "ĠInt": 2618,
      "ĠLEG": 2619,
      "Ġcombine": 2620,
      "Ġawning": 2621,
      "Ġsky": 2622,
      "Ġwaves": 2623,
      "Ġoperation": 2624,
      "Ġtracker": 2625,
      "headed": 2626,
      "Ġwheels": 2627,
      "Ġassets": 2628,
      "specific": 2629,
      "Ġeffects": 2630,
      "SHELL": 2631,
      "Ġclapper": 2632,
      "Ġdigital": 2633,
      "Ġbulle": 2634,
      "Ġpalette": 2635,
      "Ġadministr": 2636,
      "Ġscroll": 2637,
      "irectional": 2638,
      "Ġauthentication": 2639,
      "Languages": 2640,
      "blue": 2641,
      "burst": 2642,
      "circular": 2643,
      "Ġdollar": 2644,
      "Ġinventory": 2645,
      "Ġworldwide": 2646,
      "Ġbidirectional": 2647,
      "Ġmirror": 2648,
      "Ġgauge": 2649,
      "Ġannouncements": 2650,
      "Ġmegaphone": 2651,
      "ĠLEGO": 2652,
      ".\"": 2653,
      "65": 2654,
      "AL": 2655,
      "Aa": 2656,
      "Ad": 2657,
      "Drive": 2658,
      "Fi": 2659,
      "Hide": 2660,
      "Menu": 2661,
      "NG": 2662,
      "Play": 2663,
      "bordered": 2664,
      "cor": 2665,
      "cod": 2666,
      "elated": 2667,
      "egr": 2668,
      "lin": 2669,
      "of": 2670,
      "por": 2671,
      "rim": 2672,
      "sible": 2673,
      "syn": 2674,
      "ula": 2675,
      "uler": 2676,
      "web": 2677,
      "yd": 2678,
      "Ġ6": 2679,
      "Ġ8": 2680,
      "ĠJ": 2681,
      "Ġear": 2682,
      "atical": 2683,
      "rew": 2684,
      "rest": 2685,
      "ities": 2686,
      "Ġswo": 2687,
      "Ġway": 2688,
      "ional": 2689,
      "level": 2690,
      "Ġfir": 2691,
      "Ġfur": 2692,
      "Ġtoward": 2693,
      "Ġreorder": 2694,
      "Ġbug": 2695,
      "Ġbund": 2696,
      "Ġus": 2697,
      "Ġmed": 2698,
      "Ġpain": 2699,
      "Ġpix": 2700,
      "Ġoval": 2701,
      "Ġtheir": 2702,
      "Ġgold": 2703,
      "Ġgame": 2704,
      "Ġreport": 2705,
      "ime": 2706,
      "ention": 2707,
      "Ġno": 2708,
      "Ġnine": 2709,
      "step": 2710,
      "Ġstand": 2711,
      "Ġstick": 2712,
      "Ġthread": 2713,
      "Ġthumb": 2714,
      "Ġshou": 2715,
      "irDrop": 2716,
      "loyment": 2717,
      "Ġhard": 2718,
      "Ġhave": 2719,
      "Ġart": 2720,
      "Ġchess": 2721,
      "Ġdrop": 2722,
      "abc": 2723,
      "Ġexpression": 2724,
      "uster": 2725,
      "olders": 2726,
      "osh": 2727,
      "Ġtypes": 2728,
      "Ġminute": 2729,
      "Ġruler": 2730,
      "Ġpromo": 2731,
      "Ġproces": 2732,
      "Ġcluster": 2733,
      "Ġspacing": 2734,
      "urement": 2735,
      "Ġmanages": 2736,
      "Ġplaced": 2737,
      "Ġeight": 2738,
      "ners": 2739,
      "lications": 2740,
      "tered": 2741,
      "Ġstatist": 2742,
      "Ġfiltered": 2743,
      "Ġscor": 2744,
      "ull": 2745,
      "ults": 2746,
      "Ġformula": 2747,
      "Ġcounts": 2748,
      "Ġenabling": 2749,
      "Ġcomparing": 2750,
      "Ġenter": 2751,
      "Ġhands": 2752,
      "ĠMarvel": 2753,
      "Ġcreation": 2754,
      "Ġ365": 2755,
      "meric": 2756,
      "merce": 2757,
      "itories": 2758,
      "Ġmovement": 2759,
      "Ġswap": 2760,
      "Ġswapp": 2761,
      "eployment": 2762,
      "ĠApple": 2763,
      "iving": 2764,
      "Ġempt": 2765,
      "Ġorganization": 2766,
      "Ġresting": 2767,
      "Ġresults": 2768,
      "Ġreversible": 2769,
      "place": 2770,
      "Analy": 2771,
      "Ġ17": 2772,
      "Ġrecy": 2773,
      "Ġretail": 2774,
      "Ġsunburst": 2775,
      "Ġbranch": 2776,
      "ĠWi": 2777,
      "ketplace": 2778,
      "Ġheader": 2779,
      "Ġcustomer": 2780,
      "Ġcompletion": 2781,
      "Ġprocessor": 2782,
      "Ġtray": 2783,
      "Ġtravel": 2784,
      "ĠDes": 2785,
      "ĠDownloads": 2786,
      "ĠDeployment": 2787,
      "Ġchoosing": 2788,
      "Ġinteractive": 2789,
      "Ġswitches": 2790,
      "Ġpriv": 2791,
      "Ġsubscribe": 2792,
      "Ġrepositories": 2793,
      "Ġaccompanying": 2794,
      "Ġencir": 2795,
      "Ġmarketplace": 2796,
      "Ġcutout": 2797,
      "Ġlaunching": 2798,
      "Ġrestore": 2799,
      "Ġprioritized": 2800,
      "Ġincrease": 2801,
      "Ġexecuted": 2802,
      "Ġrecording": 2803,
      "Ġcollaboration": 2804,
      "Ġcollaborative": 2805,
      "Ġcommands": 2806,
      "Ġlooping": 2807,
      "Show": 2808,
      "Ġpackaging": 2809,
      "Ġfigures": 2810,
      "lders": 2811,
      "Ġprinter": 2812,
      "Ġcombining": 2813,
      "Ġreceiving": 2814,
      "Ġbrightness": 2815,
      "Ġattention": 2816,
      "Ġseparated": 2817,
      "Ġmathem": 2818,
      "Ġrunning": 2819,
      "ĠArsenal": 2820,
      "Ġautomating": 2821,
      "Art": 2822,
      "Ġbrand": 2823,
      "Ġbrackets": 2824,
      "Ġauthorization": 2825,
      "ĠOneDrive": 2826,
      "Ġrestricted": 2827,
      "Ġalphabetical": 2828,
      "Edit": 2829,
      "Snippets": 2830,
      "Ġcrossed": 2831,
      "Ġdictionary": 2832,
      "Ġcontribut": 2833,
      "Ġsubfolders": 2834,
      "Ġsubcategories": 2835,
      "ĠApplications": 2836,
      "Ġmeasurement": 2837,
      "ĠIntegr": 2838,
      "Ġadministrator": 2839,
      "Ġswoosh": 2840,
      "Ġfirst": 2841,
      "Ġfurther": 2842,
      "Ġbundling": 2843,
      "Ġpixelated": 2844,
      "Ġshoulders": 2845,
      "Ġswapped": 2846,
      "Ġempty": 2847,
      "Ġmathematical": 2848,
      "ĠIntegration": 2849,
      "12": 2850,
      "21": 2851,
      "AT": 2852,
      "AV": 2853,
      "Aut": 2854,
      "CS": 2855,
      "CAT": 2856,
      "Des": 2857,
      "Dis": 2858,
      "Downloads": 2859,
      "File": 2860,
      "Hot": 2861,
      "History": 2862,
      "Log": 2863,
      "ME": 2864,
      "New": 2865,
      "Not": 2866,
      "OG": 2867,
      "Pro": 2868,
      "Rep": 2869,
      "Sign": 2870,
      "Work": 2871,
      "bow": 2872,
      "con": 2873,
      "ced": 2874,
      "com": 2875,
      "cast": 2876,
      "dish": 2877,
      "ecu": 2878,
      "eep": 2879,
      "ffe": 2880,
      "ged": 2881,
      "hod": 2882,
      "hair": 2883,
      "lined": 2884,
      "ligh": 2885,
      "nition": 2886,
      "ocus": 2887,
      "pers": 2888,
      "ring": 2889,
      "rit": 2890,
      "sun": 2891,
      "square": 2892,
      "sure": 2893,
      "vanc": 2894,
      "wn": 2895,
      "word": 2896,
      "ys": 2897,
      "yin": 2898,
      "yball": 2899,
      "¨ĭ": 2900,
      "Â°": 2901,
      "æĭ": 2902,
      "ç¨ĭ": 2903,
      "Ġ/": 2904,
      "Ġ0": 2905,
      "Ġrou": 2906,
      "ĠâĢĶ": 2907,
      "ination": 2908,
      "Ġach": 2909,
      "ored": 2910,
      "orange": 2911,
      "ortions": 2912,
      "ater": 2913,
      "ators": 2914,
      "icol": 2915,
      "itive": 2916,
      "Ġcar": 2917,
      "Ġcall": 2918,
      "Ġcup": 2919,
      "Ġorig": 2920,
      "Ġwater": 2921,
      "les": 2922,
      "leyball": 2923,
      "Ġfull": 2924,
      "erim": 2925,
      "Ġreg": 2926,
      "Ġreapp": 2927,
      "Ġreview": 2928,
      "Ġbro": 2929,
      "als": 2930,
      "ows": 2931,
      "key": 2932,
      "Ġlikes": 2933,
      "icate": 2934,
      "Ġmail": 2935,
      "nded": 2936,
      "Ġpu": 2937,
      "Ġpas": 2938,
      "Ġpie": 2939,
      "Ġportions": 2940,
      "Ġrepeat": 2941,
      "ently": 2942,
      "enter": 2943,
      "olt": 2944,
      "Ġasking": 2945,
      "iding": 2946,
      "style": 2947,
      "Ġstop": 2948,
      "Ġsupers": 2949,
      "izable": 2950,
      "ackle": 2951,
      "vement": 2952,
      "Ġshackle": 2953,
      "anging": 2954,
      "Ġvir": 2955,
      "acebook": 2956,
      "Ġfirew": 2957,
      "gging": 2958,
      "gged": 2959,
      "itioning": 2960,
      "ĠUp": 2961,
      "Ġhal": 2962,
      "Ġhill": 2963,
      "Ġhoc": 2964,
      "Ġhistory": 2965,
      "isses": 2966,
      "etting": 2967,
      "Ġexperim": 2968,
      "ili": 2969,
      "ilib": 2970,
      "ava": 2971,
      "adcast": 2972,
      "Ġang": 2973,
      "Ġany": 2974,
      "Ġreveals": 2975,
      "Ġshows": 2976,
      "Ġconce": 2977,
      "Ġsmart": 2978,
      "Ġnavigated": 2979,
      "Ġpromp": 2980,
      "Ġdebu": 2981,
      "ssword": 2982,
      "igned": 2983,
      "Ġfolders": 2984,
      "Ġlightning": 2985,
      "Ġreddish": 2986,
      "Ġall": 2987,
      "Ġsearching": 2988,
      "Ġsymbolizing": 2989,
      "Ġemer": 2990,
      "Ġdisable": 2991,
      "Ġisometric": 2992,
      "Ġserver": 2993,
      "Ġdiag": 2994,
      "Ġspec": 2995,
      "Ġleaf": 2996,
      "cked": 2997,
      "Ġfilled": 2998,
      "Ġpremi": 2999,
      "Ġmarks": 3000,
      "ample": 3001,
      "amsun": 3002,
      "Ġsignify": 3003,
      "Ġquant": 3004,
      "Ġselections": 3005,
      "ognition": 3006,
      "Ġpartners": 3007,
      "Ġconfigured": 3008,
      "Ġtabular": 3009,
      "ĠCenter": 3010,
      "ĠMag": 3011,
      "Ġlayered": 3012,
      "Ġarrange": 3013,
      "Ġ22": 3014,
      "Ġmodal": 3015,
      "ĠPrin": 3016,
      "ĠPicture": 3017,
      "ĠPDF": 3018,
      "screen": 3019,
      "Ġpinyin": 3020,
      "ailed": 3021,
      "ĠAirDrop": 3022,
      "ĠAmeric": 3023,
      "eedback": 3024,
      "Ġremoving": 3025,
      "Ġremoves": 3026,
      "Ġresize": 3027,
      "Ġmulticol": 3028,
      "Ġnode": 3029,
      "Ġdeleted": 3030,
      "ĠByte": 3031,
      "Ġnumeric": 3032,
      "Ġunche": 3033,
      "Ġunread": 3034,
      "Ġadjustment": 3035,
      "Ġadjustable": 3036,
      "Ġrecognition": 3037,
      "Ġcharacters": 3038,
      "Ġphone": 3039,
      "Ġtriggering": 3040,
      "ĠSamsun": 3041,
      "Ġlogged": 3042,
      "Ġsecured": 3043,
      "Ġsync": 3044,
      "Ġcustomizable": 3045,
      "Ġcomplete": 3046,
      "Ġcommunity": 3047,
      "Ġrook": 3048,
      "Ġvari": 3049,
      "ography": 3050,
      "Ġpawn": 3051,
      "Ġpassword": 3052,
      "Ġchosen": 3053,
      "Ġnotebook": 3054,
      "Ġlogin": 3055,
      "Ġmethod": 3056,
      "Ġexte": 3057,
      "Ġextern": 3058,
      "Ġhighligh": 3059,
      "Ġdismisses": 3060,
      "Ġrainbow": 3061,
      "Ġworksp": 3062,
      "Ġdirectional": 3063,
      "Ġbaseball": 3064,
      "Ġmemb": 3065,
      "Ġtransitioning": 3066,
      "Ġannotate": 3067,
      "aking": 3068,
      "Ġtags": 3069,
      "Ġconvert": 3070,
      "Ġoutputs": 3071,
      "ĠFacebook": 3072,
      "Ġordered": 3073,
      "ugin": 3074,
      "Ġcoffe": 3075,
      "athy": 3076,
      "Ġpictures": 3077,
      "Ġshades": 3078,
      "Ġcollaborators": 3079,
      "Ġcopied": 3080,
      "Ġfreely": 3081,
      "Ġbasketball": 3082,
      "Ġago": 3083,
      "Ġcrosshair": 3084,
      "Ġvolleyball": 3085,
      "ĠID": 3086,
      "ĠXbox": 3087,
      "Ġprint": 3088,
      "Ġaway": 3089,
      "Ġreceive": 3090,
      "Ġattach": 3091,
      "136": 3092,
      "undo": 3093,
      "Ġ56": 3094,
      "Ġarcs": 3095,
      "ievement": 3096,
      "Ġitalicized": 3097,
      "Ġscanning": 3098,
      "Ġpublicly": 3099,
      "Ġeyes": 3100,
      "Ġpurchasing": 3101,
      "Ġloading": 3102,
      "Ġactivate": 3103,
      "Develop": 3104,
      "Quick": 3105,
      "Ġinterest": 3106,
      "Ġfollowed": 3107,
      "Ġremind": 3108,
      "Ġsupport": 3109,
      "Ġmirroring": 3110,
      "ALOG": 3111,
      "Add": 3112,
      "ĠJava": 3113,
      "Ġpromoting": 3114,
      "Ġencircling": 3115,
      "CATALOG": 3116,
      "vanced": 3117,
      "æĭ¼": 3118,
      "Ġachievement": 3119,
      "Ġorigin": 3120,
      "Ġreapply": 3121,
      "Ġbroadcast": 3122,
      "Ġpasting": 3123,
      "Ġsuperscript": 3124,
      "Ġfirewall": 3125,
      "Ġhills": 3126,
      "Ġhockey": 3127,
      "Ġexperiment": 3128,
      "ilibili": 3129,
      "Ġsmartphone": 3130,
      "Ġprompting": 3131,
      "Ġdebugging": 3132,
      "Ġemerging": 3133,
      "Ġpremium": 3134,
      "ĠPrinter": 3135,
      "ĠAmerican": 3136,
      "Ġunchecked": 3137,
      "ĠSamsung": 3138,
      "Ġexternal": 3139,
      "Ġworkspace": 3140,
      "Ġcoffee": 3141,
      "'.": 3142,
      "..": 3143,
      ".âĢĿ": 3144,
      "@\"": 3145,
      "DME": 3146,
      "ENG": 3147,
      "Lin": 3148,
      "Man": 3149,
      "Prim": 3150,
      "ST": 3151,
      "Set": 3152,
      "UL": 3153,
      "ax": 3154,
      "aled": 3155,
      "bile": 3156,
      "core": 3157,
      "etings": 3158,
      "fo": 3159,
      "iver": 3160,
      "iled": 3161,
      "lla": 3162,
      "na": 3163,
      "nel": 3164,
      "nail": 3165,
      "oy": 3166,
      "oon": 3167,
      "off": 3168,
      "pro": 3169,
      "pts": 3170,
      "play": 3171,
      "porting": 3172,
      "ptions": 3173,
      "ten": 3174,
      "turing": 3175,
      "time": 3176,
      "taking": 3177,
      "uc": 3178,
      "use": 3179,
      "wit": 3180,
      "xis": 3181,
      "Ġ&": 3182,
      "Ġ4": 3183,
      "Ġown": 3184,
      "Ġkn": 3185,
      "inst": 3186,
      "incl": 3187,
      "Ġapple": 3188,
      "Ġaxis": 3189,
      "atial": 3190,
      "serif": 3191,
      "Ġtre": 3192,
      "Ġter": 3193,
      "Ġtar": 3194,
      "Ġtro": 3195,
      "Ġtong": 3196,
      "Ġtech": 3197,
      "Ġtile": 3198,
      "requ": 3199,
      "rella": 3200,
      "icen": 3201,
      "icip": 3202,
      "Ġsans": 3203,
      "Ġclass": 3204,
      "Ġdart": 3205,
      "Ġday": 3206,
      "Ġinv": 3207,
      "Ġwra": 3208,
      "Ġwid": 3209,
      "Ġwren": 3210,
      "Ġwrit": 3211,
      "Ġfit": 3212,
      "Ġfla": 3213,
      "Ġfast": 3214,
      "Ġflam": 3215,
      "Ġfetch": 3216,
      "Ġfrequ": 3217,
      "arr": 3218,
      "arily": 3219,
      "Ġlis": 3220,
      "Ġbu": 3221,
      "Ġbat": 3222,
      "Ġbite": 3223,
      "Ġbri": 3224,
      "Ġbolt": 3225,
      "Ġbetting": 3226,
      "alled": 3227,
      "heast": 3228,
      "Ġut": 3229,
      "Ġmug": 3230,
      "Ġpi": 3231,
      "Ġpag": 3232,
      "Ġpla": 3233,
      "Ġpul": 3234,
      "Ġpip": 3235,
      "Ġplaying": 3236,
      "Ġouter": 3237,
      "Ġgam": 3238,
      "acy": 3239,
      "imedia": 3240,
      "ctions": 3241,
      "ento": 3242,
      "raction": 3243,
      "Ġnort": 3244,
      "Ġserif": 3245,
      "igher": 3246,
      "stle": 3247,
      "star": 3248,
      "omme": 3249,
      "Ġste": 3250,
      "Ġstre": 3251,
      "Ġstem": 3252,
      "Ġgraysc": 3253,
      "izes": 3254,
      "Ġ\"@\"": 3255,
      "ird": 3256,
      "iral": 3257,
      "cused": 3258,
      "Ġfunnel": 3259,
      "losure": 3260,
      "arent": 3261,
      "arena": 3262,
      "idelin": 3263,
      "Ġham": 3264,
      "Ġhigher": 3265,
      "Ġadvanced": 3266,
      "htag": 3267,
      "Ġsuggestion": 3268,
      "Ġsuggestions": 3269,
      "chant": 3270,
      "pped": 3271,
      "Ġexecu": 3272,
      "mbrella": 3273,
      "ilities": 3274,
      "Ġdoor": 3275,
      "elp": 3276,
      "usion": 3277,
      "essional": 3278,
      "Ġsets": 3279,
      "Ġsetup": 3280,
      "ific": 3281,
      "Ġrevealed": 3282,
      "Ġtypography": 3283,
      "Ġpositive": 3284,
      "allic": 3285,
      "verage": 3286,
      "Ġsmooth": 3287,
      "Ġdeg": 3288,
      "Ġdecor": 3289,
      "Ġspiral": 3290,
      "Ġbeing": 3291,
      "Ġbear": 3292,
      "Ġbeverage": 3293,
      "Ġcurves": 3294,
      "Ġrightward": 3295,
      "Ġplugin": 3296,
      "Ġtoolbox": 3297,
      "Ġemb": 3298,
      "rolled": 3299,
      "Ġspecif": 3300,
      "indows": 3301,
      "Ġapplications": 3302,
      "Ġscale": 3303,
      "Ġscient": 3304,
      "Ġmarked": 3305,
      "Ġlock": 3306,
      "Ġlocate": 3307,
      "Ġmobile": 3308,
      "Ġsignifying": 3309,
      "Ġcounterc": 3310,
      "ipedia": 3311,
      "ource": 3312,
      "Ġdescending": 3313,
      "Ġparts": 3314,
      "Ġparticip": 3315,
      "Ġchecked": 3316,
      "Ġforwarding": 3317,
      "Ġbrush": 3318,
      "Ġconfiguring": 3319,
      "phy": 3320,
      "Ġgradients": 3321,
      "Ġrefine": 3322,
      "Ġdesignated": 3323,
      "ĠCh": 3324,
      "ĠMode": 3325,
      "Ġlinks": 3326,
      "Ġcheckmarks": 3327,
      "Ġbrowsing": 3328,
      "Ġassigned": 3329,
      "Ġmodes": 3330,
      "Ġmodifying": 3331,
      "Ġmodified": 3332,
      "outlined": 3333,
      "Ġ37": 3334,
      "Ġtoolbars": 3335,
      "Ġanalyz": 3336,
      "ĠAP": 3337,
      "ivoy": 3338,
      "Ġremoved": 3339,
      "Ġpanels": 3340,
      "Ġresult": 3341,
      "Ġlayouts": 3342,
      "plate": 3343,
      "Ġcharging": 3344,
      "Ġ112": 3345,
      "Ġrecomme": 3346,
      "Ġprofessional": 3347,
      "Ġcancellation": 3348,
      "Ġversions": 3349,
      "ĠWindows": 3350,
      "Ġloose": 3351,
      "Ġtiming": 3352,
      "Ġtimeline": 3353,
      "ousel": 3354,
      "Ġrose": 3355,
      "Ġroof": 3356,
      "lockwise": 3357,
      "Ġfocus": 3358,
      "oundation": 3359,
      "Ġcapturing": 3360,
      "crew": 3361,
      "Ġinserted": 3362,
      "Ġpause": 3363,
      "Ġchoice": 3364,
      "Ġchoose": 3365,
      "Ġdrawer": 3366,
      "Ġreadily": 3367,
      "Ġmetallic": 3368,
      "Ġreplace": 3369,
      "Ġclockwise": 3370,
      "Ġarea": 3371,
      "Ġkeys": 3372,
      "Ġforecasts": 3373,
      "Ġmeetings": 3374,
      "minal": 3375,
      "rint": 3376,
      "Ġdiscussions": 3377,
      "Ġtaskbar": 3378,
      "Ġenvironments": 3379,
      "Ġpermission": 3380,
      "Ġtransformation": 3381,
      "Ġconversion": 3382,
      "ĠWiktionary": 3383,
      "ĠWikimedia": 3384,
      "ĠWikipedia": 3385,
      "ĠWikivoy": 3386,
      "Ġobjects": 3387,
      "ĠFeedback": 3388,
      "ĠFoundation": 3389,
      "Ġprovides": 3390,
      "Ġcoiled": 3391,
      "Ġpreceding": 3392,
      "Ġparallel": 3393,
      "Ġpairing": 3394,
      "Ġscheduled": 3395,
      "Ġmerchant": 3396,
      "Ġguidelin": 3397,
      "Ġworkflows": 3398,
      "Ġtempor": 3399,
      "Ġtemplate": 3400,
      "Ġinfo": 3401,
      "Ġblocks": 3402,
      "Ġsuccessfully": 3403,
      "ĠTwit": 3404,
      "suggesting": 3405,
      "Ġskies": 3406,
      "Ġwavy": 3407,
      "Ġflat": 3408,
      "Ġflag": 3409,
      "Ġoperations": 3410,
      "Ġstrokes": 3411,
      "Ġhashtag": 3412,
      "Ġchanging": 3413,
      "Ġcomponents": 3414,
      "Ġtracking": 3415,
      "Ġcalculation": 3416,
      "Search": 3417,
      "Select": 3418,
      "Ġequation": 3419,
      "Ġequals": 3420,
      "Ġdisclosure": 3421,
      "Export": 3422,
      "ĠHelp": 3423,
      "Ġreduce": 3424,
      "Ġreducing": 3425,
      "Ġeye": 3426,
      "Ġevents": 3427,
      "Ġpurchase": 3428,
      "Ġretrieve": 3429,
      "Ġloaded": 3430,
      "Ġlookup": 3431,
      "Ġextensions": 3432,
      "Ġtransferring": 3433,
      "Ġshortcuts": 3434,
      "Ġproblems": 3435,
      "Collapse": 3436,
      "ĠNet": 3437,
      "Ġduplicate": 3438,
      "Ġinclud": 3439,
      "Ġstriped": 3440,
      "Ġinteracted": 3441,
      "Ġhole": 3442,
      "Ġhovered": 3443,
      "Ġdivider": 3444,
      "ĠProject": 3445,
      "Ġrotation": 3446,
      "Ġrotate": 3447,
      "Ġbulleted": 3448,
      "sync": 3449,
      "Ġusable": 3450,
      "Ġmedal": 3451,
      "Ġpainting": 3452,
      "Ġgolden": 3453,
      "Ġthumbnail": 3454,
      "Ġexpressions": 3455,
      "Ġprocessed": 3456,
      "Ġstatistics": 3457,
      "Ġscores": 3458,
      "Ġrecycling": 3459,
      "ĠDesign": 3460,
      "Ġprivate": 3461,
      "Ġcontributors": 3462,
      "Auto": 3463,
      "Ġrouter": 3464,
      "Ġcarousel": 3465,
      "Ġconcepts": 3466,
      "Ġquantity": 3467,
      "ĠMagento": 3468,
      "Ġarrangement": 3469,
      "ĠPictures": 3470,
      "Ġmulticolored": 3471,
      "Ġvariable": 3472,
      "Ġextending": 3473,
      "Ġmember": 3474,
      "Ġreminder": 3475,
      "Ġoriginates": 3476,
      "Link": 3477,
      "Primer": 3478,
      "Ġterminal": 3479,
      "Ġtrophy": 3480,
      "Ġtongue": 3481,
      "Ġtechn": 3482,
      "Ġwrapping": 3483,
      "Ġwidget": 3484,
      "Ġwrench": 3485,
      "Ġfrequently": 3486,
      "Ġbristle": 3487,
      "Ġpulse": 3488,
      "Ġpipeline": 3489,
      "Ġnortheast": 3490,
      "Ġgrayscale": 3491,
      "Ġhammer": 3492,
      "Ġexecuting": 3493,
      "Ġdecorative": 3494,
      "Ġspecifically": 3495,
      "Ġscientific": 3496,
      "Ġcounterclockwise": 3497,
      "ĠWikivoyage": 3498,
      "Ġguidelines": 3499,
      "Ġtemporarily": 3500,
      "ĠTwitter": 3501,
      "!\"": 3502,
      "),": 3503,
      "17": 3504,
      "ADME": 3505,
      "Bla": 3506,
      "Cl": 3507,
      "Com": 3508,
      "DI": 3509,
      "Do": 3510,
      "EM": 3511,
      "ES": 3512,
      "Ent": 3513,
      "Ease": 3514,
      "EADME": 3515,
      "FO": 3516,
      "Fil": 3517,
      "Fix": 3518,
      "Focus": 3519,
      "Failed": 3520,
      "Give": 3521,
      "Game": 3522,
      "In": 3523,
      "Int": 3524,
      "IDI": 3525,
      "JUL": 3526,
      "Keep": 3527,
      "MA": 3528,
      "MMA": 3529,
      "NT": 3530,
      "OD": 3531,
      "OW": 3532,
      "Pick": 3533,
      "Press": 3534,
      "PDF": 3535,
      "Print": 3536,
      "QR": 3537,
      "SY": 3538,
      "Sub": 3539,
      "Script": 3540,
      "TX": 3541,
      "Text": 3542,
      "Upd": 3543,
      "View": 3544,
      "VIDI": 3545,
      "Wa": 3546,
      "aid": 3547,
      "amb": 3548,
      "afe": 3549,
      "ber": 3550,
      "beat": 3551,
      "buds": 3552,
      "bilibili": 3553,
      "cont": 3554,
      "creen": 3555,
      "cover": 3556,
      "cond": 3557,
      "du": 3558,
      "dle": 3559,
      "den": 3560,
      "ee": 3561,
      "eg": 3562,
      "eking": 3563,
      "face": 3564,
      "go": 3565,
      "gu": 3566,
      "gy": 3567,
      "gent": 3568,
      "glass": 3569,
      "hting": 3570,
      "ior": 3571,
      "ipping": 3572,
      "ired": 3573,
      "ience": 3574,
      "ji": 3575,
      "kra": 3576,
      "list": 3577,
      "lating": 3578,
      "lip": 3579,
      "lusion": 3580,
      "ms": 3581,
      "mit": 3582,
      "mil": 3583,
      "mart": 3584,
      "main": 3585,
      "mome": 3586,
      "mpt": 3587,
      "nn": 3588,
      "no": 3589,
      "neath": 3590,
      "nected": 3591,
      "ob": 3592,
      "oo": 3593,
      "pe": 3594,
      "py": 3595,
      "pst": 3596,
      "page": 3597,
      "ports": 3598,
      "pathy": 3599,
      "rs": 3600,
      "rown": 3601,
      "ryp": 3602,
      "ster": 3603,
      "snippet": 3604,
      "source": 3605,
      "tal": 3606,
      "tain": 3607,
      "tual": 3608,
      "ura": 3609,
      "uses": 3610,
      "vative": 3611,
      "way": 3612,
      "where": 3613,
      "yC": 3614,
      "ycle": 3615,
      "ystem": 3616,
      "zz": 3617,
      "¸Ń": 3618,
      "ä¸Ń": 3619,
      "èĭ": 3620,
      "Ġ9": 3621,
      "ĠK": 3622,
      "ĠZ": 3623,
      "Ġk": 3624,
      "Ġes": 3625,
      "Ġsent": 3626,
      "Ġont": 3627,
      "Ġill": 3628,
      "ĠGo": 3629,
      "Ġrolled": 3630,
      "ĠQR": 3631,
      "inal": 3632,
      "inition": 3633,
      "iness": 3634,
      "Ġant": 3635,
      "ones": 3636,
      "orical": 3637,
      "atar": 3638,
      "Ġtit": 3639,
      "Ġtier": 3640,
      "Ġtones": 3641,
      "rep": 3642,
      "reat": 3643,
      "referen": 3644,
      "ressed": 3645,
      "icle": 3646,
      "inger": 3647,
      "Ġslo": 3648,
      "Ġsafe": 3649,
      "Ġcit": 3650,
      "Ġcare": 3651,
      "Ġcric": 3652,
      "Ġcover": 3653,
      "Ġcrown": 3654,
      "Ġorient": 3655,
      "Ġdri": 3656,
      "Ġdai": 3657,
      "Ġdrin": 3658,
      "Ġdyn": 3659,
      "Ġinbox": 3660,
      "Ġinno": 3661,
      "Ġwas": 3662,
      "Ġlicen": 3663,
      "lem": 3664,
      "leep": 3665,
      "lenn": 3666,
      "Ġflash": 3667,
      "Ġfinger": 3668,
      "erly": 3669,
      "ergy": 3670,
      "ermome": 3671,
      "Ġtopped": 3672,
      "Ġtotal": 3673,
      "Ġreal": 3674,
      "Ġrend": 3675,
      "Ġreward": 3676,
      "aris": 3677,
      "arbu": 3678,
      "Ġlive": 3679,
      "Ġliked": 3680,
      "Ġlipst": 3681,
      "Ġbi": 3682,
      "Ġbal": 3683,
      "Ġbound": 3684,
      "Ġbird": 3685,
      "ataset": 3686,
      "icated": 3687,
      "ctivity": 3688,
      "Ġumbrella": 3689,
      "Ġmb": 3690,
      "Ġmont": 3691,
      "Ġmatch": 3692,
      "Ġpent": 3693,
      "Ġpet": 3694,
      "Ġpome": 3695,
      "Ġprim": 3696,
      "Ġparent": 3697,
      "Ġoct": 3698,
      "Ġuseful": 3699,
      "Ġgen": 3700,
      "access": 3701,
      "acket": 3702,
      "aning": 3703,
      "anate": 3704,
      "anked": 3705,
      "anking": 3706,
      "Ġreply": 3707,
      "Ġreporting": 3708,
      "imate": 3709,
      "import": 3710,
      "ential": 3711,
      "olar": 3712,
      "olog": 3713,
      "Ġneg": 3714,
      "plet": 3715,
      "plete": 3716,
      "Ġsession": 3717,
      "Ġsecond": 3718,
      "Ġask": 3719,
      "Ġforked": 3720,
      "Ġcontin": 3721,
      "idation": 3722,
      "iders": 3723,
      "idden": 3724,
      "arding": 3725,
      "ardrop": 3726,
      "Ġthick": 3727,
      "Ġthreat": 3728,
      "Ġthermome": 3729,
      "utable": 3730,
      "Ġshif": 3731,
      "iring": 3732,
      "agged": 3733,
      "unctions": 3734,
      "cuit": 3735,
      "Ġinterlin": 3736,
      "Ġintercon": 3737,
      "urb": 3738,
      "ural": 3739,
      "urger": 3740,
      "Ġcommerce": 3741,
      "Ġfist": 3742,
      "ĠUkra": 3743,
      "Ġcircuit": 3744,
      "Ġhue": 3745,
      "Ġhist": 3746,
      "Ġhamb": 3747,
      "etic": 3748,
      "Ġarms": 3749,
      "Ġdroplet": 3750,
      "Ġsquared": 3751,
      "ild": 3752,
      "Ġaddress": 3753,
      "Ġarrowhead": 3754,
      "ell": 3755,
      "els": 3756,
      "elling": 3757,
      "usic": 3758,
      "usive": 3759,
      "usiness": 3760,
      "Ġtexture": 3761,
      "Ġtextual": 3762,
      "Ġtextured": 3763,
      "rise": 3764,
      "arkdown": 3765,
      "arkles": 3766,
      "osite": 3767,
      "ade": 3768,
      "ader": 3769,
      "ifies": 3770,
      "ifunctions": 3771,
      "Ġaccent": 3772,
      "Ġtyping": 3773,
      "istic": 3774,
      "isturb": 3775,
      "Ġminimizing": 3776,
      "Ġrange": 3777,
      "Ġrug": 3778,
      "Ġracing": 3779,
      "Ġracket": 3780,
      "Ġranking": 3781,
      "Ġviewable": 3782,
      "Ġnavigable": 3783,
      "Ġnavigates": 3784,
      "Ġpositioning": 3785,
      "ote": 3786,
      "Ġprompt": 3787,
      "ssy": 3788,
      "Ġspace": 3789,
      "Ġsplash": 3790,
      "Ġspatial": 3791,
      "Ġspelling": 3792,
      "Ġsparkles": 3793,
      "Ġclickable": 3794,
      "Ġcurated": 3795,
      "Ġcloth": 3796,
      "Ġclosing": 3797,
      "Ġlighting": 3798,
      "Ġverification": 3799,
      "Ġlights": 3800,
      "Ġredo": 3801,
      "Ġheat": 3802,
      "Ġoutdo": 3803,
      "Ġsymbolizes": 3804,
      "Ġplan": 3805,
      "artial": 3806,
      "Ġsuggests": 3807,
      "Ġemo": 3808,
      "Ġending": 3809,
      "Ġdisabling": 3810,
      "Ġedge": 3811,
      "Ġeduc": 3812,
      "cks": 3813,
      "Ġstates": 3814,
      "Ġstatuses": 3815,
      "Ġcollections": 3816,
      "Ġcoloring": 3817,
      "forward": 3818,
      "Ġchain": 3819,
      "Ġscrip": 3820,
      "Ġscience": 3821,
      "formerly": 3822,
      "erscore": 3823,
      "Ġpresen": 3824,
      "ames": 3825,
      "Ġlocated": 3826,
      "Ġsignifies": 3827,
      "Ġglossy": 3828,
      "Ġconferen": 3829,
      "rome": 3830,
      "Ġresearch": 3831,
      "Ġformats": 3832,
      "Ġstarred": 3833,
      "Ġenergy": 3834,
      "iplication": 3835,
      "erclip": 3836,
      "Ġrays": 3837,
      "ogle": 3838,
      "Ġcomparis": 3839,
      "hole": 3840,
      "sert": 3841,
      "Ġdesc": 3842,
      "Ġnews": 3843,
      "Ġconnector": 3844,
      "Ġinformational": 3845,
      "Ġconfigura": 3846,
      "Ġimporting": 3847,
      "ustification": 3848,
      "Ġplaylist": 3849,
      "phas": 3850,
      "Ġupdating": 3851,
      "Ġtrim": 3852,
      "Ġstores": 3853,
      "Ġsourced": 3854,
      "Ġhandball": 3855,
      "Ġatop": 3856,
      "Ġwebarena": 3857,
      "Ġwebpage": 3858,
      "Ġcloses": 3859,
      "ĠMac": 3860,
      "ĠMail": 3861,
      "ĠMond": 3862,
      "ĠMusic": 3863,
      "ĠMarkdown": 3864,
      "Ġinputting": 3865,
      "Ġcreated": 3866,
      "Ġbrowse": 3867,
      "Ġgroups": 3868,
      "Ġarranging": 3869,
      "Ġwindy": 3870,
      "Ġassist": 3871,
      "Ġ23": 3872,
      "Ġsweep": 3873,
      "Ġwindows": 3874,
      "Ġaccounts": 3875,
      "ĠAn": 3876,
      "ĠAccess": 3877,
      "ials": 3878,
      "ump": 3879,
      "umination": 3880,
      "Ġmonitors": 3881,
      "Ġundone": 3882,
      "Ġunderscore": 3883,
      "Ġquestions": 3884,
      "Ġslides": 3885,
      "Ġsliders": 3886,
      "Ġexploring": 3887,
      "Ġemphas": 3888,
      "brown": 3889,
      "Ġteardrop": 3890,
      "Ġresol": 3891,
      "Ġresized": 3892,
      "Ġreverting": 3893,
      "Ġmultiplication": 3894,
      "ĠBin": 3895,
      "ĠBilibili": 3896,
      "ĠBaid": 3897,
      "ecycle": 3898,
      "Ġuninst": 3899,
      "Ġ12": 3900,
      "Ġavatar": 3901,
      "Ġsunrise": 3902,
      "Ġphys": 3903,
      "Ġpresentations": 3904,
      "ĠScreen": 3905,
      "ĠSmart": 3906,
      "Ġlatch": 3907,
      "Ġprofiles": 3908,
      "Ġcustomizing": 3909,
      "Ġtimes": 3910,
      "Ġroute": 3911,
      "Ġroles": 3912,
      "Ġthemes": 3913,
      "Ġnames": 3914,
      "Ġprograms": 3915,
      "Ġuploading": 3916,
      "Ġunderneath": 3917,
      "overy": 3918,
      "rawing": 3919,
      "Ġoverlayed": 3920,
      "ĠDataset": 3921,
      "ĠDrawing": 3922,
      "ĠEx": 3923,
      "Ġauto": 3924,
      "Ġvalidation": 3925,
      "Ġsubtraction": 3926,
      "pane": 3927,
      "Ġpeeking": 3928,
      "Ġexclusion": 3929,
      "Ġsurrounded": 3930,
      "Ġsubscript": 3931,
      "Ġdirections": 3932,
      "ĠOptions": 3933,
      "Ġrequest": 3934,
      "Ġrequiring": 3935,
      "Ġpaddle": 3936,
      "Ġdefinition": 3937,
      "Ġheartbeat": 3938,
      "Ġencryp": 3939,
      "Ġcategorization": 3940,
      "Ġenvironmental": 3941,
      "Ġconfirmation": 3942,
      "Ġtranslating": 3943,
      "aks": 3944,
      "ants": 3945,
      "Ġtagging": 3946,
      "Ġpaperclip": 3947,
      "Ġconverted": 3948,
      "Ġraindrops": 3949,
      "oston": 3950,
      "ĠWikis": 3951,
      "ĠFocus": 3952,
      "Ġsplits": 3953,
      "Ġcheckboxes": 3954,
      "Ġmodels": 3955,
      "Ġmodeling": 3956,
      "aths": 3957,
      "Ġexecutable": 3958,
      "Ġannotations": 3959,
      "ĠREADME": 3960,
      "ĠRecycle": 3961,
      "Ġclearing": 3962,
      "Ġcopying": 3963,
      "Ġgraphical": 3964,
      "ĠBlaster": 3965,
      "Ġperforming": 3966,
      "ĠView": 3967,
      "eneral": 3968,
      "Ġpreference": 3969,
      "Ġblocking": 3970,
      "ducts": 3971,
      "ĠGame": 3972,
      "ĠGeneral": 3973,
      "ĠTV": 3974,
      "ĠTime": 3975,
      "Ġgiving": 3976,
      "ĠStarbu": 3977,
      "Ġtimestamps": 3978,
      "Ġflanked": 3979,
      "Ġpasted": 3980,
      "granate": 3981,
      "Ġ55": 3982,
      "Ġmachine": 3983,
      "Ġseparate": 3984,
      "Ġseparator": 3985,
      "Ġproductivity": 3986,
      "Ġequations": 3987,
      "Ġhierarchy": 3988,
      "LLOW": 3989,
      "Ġcontacts": 3990,
      "Ġautomation": 3991,
      "speech": 3992,
      "Example": 3993,
      "meaning": 3994,
      "ĠHT": 3995,
      "Ġjar": 3996,
      "Ġjagged": 3997,
      "Ġjustification": 3998,
      "Ġcardinal": 3999,
      "Ġpopcor": 4000,
      "Ġhourglass": 4001,
      "Ġbracket": 4002,
      "Ġretrieval": 4003,
      "ĠOneNot": 4004,
      "Ġactivates": 4005,
      "Ġalphabetically": 4006,
      "mpathy": 4007,
      "ĠNVIDI": 4008,
      "Ġduplicating": 4009,
      "Ġintegr": 4010,
      "Ġinclusive": 4011,
      "Ġwaveform": 4012,
      "Ġremote": 4013,
      "Ġnighttime": 4014,
      "Ġnarrowing": 4015,
      "Ġstripes": 4016,
      "Ġhealthy": 4017,
      "Ġdividing": 4018,
      "Ġbullet": 4019,
      "Ġmirrored": 4020,
      "coding": 4021,
      "coded": 4022,
      "webage": 4023,
      "Ġ84": 4024,
      "Ġearth": 4025,
      "Ġearbuds": 4026,
      "Ġusage": 4027,
      "Ġmedical": 4028,
      "Ġpainter": 4029,
      "Ġstandard": 4030,
      "Ġhardware": 4031,
      "Ġarticle": 4032,
      "Ġprocesses": 4033,
      "Ġstatistical": 4034,
      "Ġscoring": 4035,
      "Ġentertain": 4036,
      "ĠMarvels": 4037,
      "Analyt": 4038,
      "Analytics": 4039,
      "Ġrecycle": 4040,
      "ĠDesktop": 4041,
      "Ġprivacy": 4042,
      "Ġcontributor": 4043,
      "Desk": 4044,
      "Desktop": 4045,
      "Display": 4046,
      "Discover": 4047,
      "Products": 4048,
      "Reports": 4049,
      "commerce": 4050,
      "Ġfullscreen": 4051,
      "Ġregional": 4052,
      "Ġpuck": 4053,
      "Ġpuzz": 4054,
      "Ġpiece": 4055,
      "Ġvirus": 4056,
      "Ġvirtual": 4057,
      "Ġhalves": 4058,
      "Ġangle": 4059,
      "Ġdiagram": 4060,
      "Ġdiagrams": 4061,
      "Ġspecial": 4062,
      "Ġspecified": 4063,
      "Ġhighlighting": 4064,
      "Ġhighlighter": 4065,
      "ĠIDE": 4066,
      "Ġattached": 4067,
      "Ġattachment": 4068,
      "ĠJavaScript": 4069,
      "Ġexperimentation": 4070,
      "STEM": 4071,
      "Settings": 4072,
      "axim": 4073,
      "focused": 4074,
      "Ġ49": 4075,
      "Ġowner": 4076,
      "Ġknob": 4077,
      "include": 4078,
      "Ġtrend": 4079,
      "Ġtarget": 4080,
      "Ġclassic": 4081,
      "Ġinvol": 4082,
      "Ġwriting": 4083,
      "Ġflame": 4084,
      "arranged": 4085,
      "Ġlisting": 4086,
      "Ġbuild": 4087,
      "Ġutility": 4088,
      "Ġpagination": 4089,
      "Ġplain": 4090,
      "Ġgaming": 4091,
      "Ġstream": 4092,
      "Ġdegree": 4093,
      "Ġplugins": 4094,
      "Ġemblem": 4095,
      "ĠChrome": 4096,
      "Ġanalyzing": 4097,
      "ĠAPI": 4098,
      "Ġrecommended": 4099,
      "Ġpermissions": 4100,
      "Ġcalculations": 4101,
      "ĠNetEase": 4102,
      "Ġincludes": 4103,
      "Ġtechnical": 4104,
      "Blaze": 4105,
      "Entries": 4106,
      "FOLLOW": 4107,
      "Insert": 4108,
      "Pickup": 4109,
      "SYSTEM": 4110,
      "TXT": 4111,
      "Update": 4112,
      "Wait": 4113,
      "guarding": 4114,
      "millenn": 4115,
      "èĭ±": 4116,
      "Ġesports": 4117,
      "Ġonto": 4118,
      "Ġillumination": 4119,
      "ĠGoogle": 4120,
      "Ġslots": 4121,
      "Ġsafeguarding": 4122,
      "Ġcaret": 4123,
      "Ġcricket": 4124,
      "Ġorientation": 4125,
      "Ġdaily": 4126,
      "Ġdrink": 4127,
      "Ġdynam": 4128,
      "Ġinnovative": 4129,
      "Ġlicensing": 4130,
      "Ġlipstick": 4131,
      "Ġmonth": 4132,
      "Ġpomegranate": 4133,
      "Ġprimary": 4134,
      "accessibility": 4135,
      "Ġnegative": 4136,
      "Ġthermometer": 4137,
      "Ġshift": 4138,
      "Ġinterlinked": 4139,
      "Ġinterconnected": 4140,
      "ĠUkraine": 4141,
      "Ġhistorical": 4142,
      "Ġhamburger": 4143,
      "Ġrugby": 4144,
      "Ġclothing": 4145,
      "Ġoutdoor": 4146,
      "Ġemoji": 4147,
      "Ġeducational": 4148,
      "Ġpresence": 4149,
      "Ġconferencing": 4150,
      "Ġcomparison": 4151,
      "Ġconfigurable": 4152,
      "ĠMonday": 4153,
      "Ġsweeping": 4154,
      "ĠBaidu": 4155,
      "Ġuninstalled": 4156,
      "Ġphysical": 4157,
      "ĠSmartArt": 4158,
      "Ġencrypted": 4159,
      "ĠStarbucks": 4160,
      "Ġpopcorn": 4161,
      "ĠOneNote": 4162,
      "ĠNVIDIA": 4163,
      "Ġentertainment": 4164,
      "Ġpuzzle": 4165
    },
    "merges": [
      [
        "i",
        "n"
      ],
      [
        "Ġ",
        "a"
      ],
      [
        "o",
        "n"
      ],
      [
        "o",
        "r"
      ],
      [
        "a",
        "t"
      ],
      [
        "s",
        "e"
      ],
      [
        "Ġ",
        "t"
      ],
      [
        "r",
        "e"
      ],
      [
        "i",
        "c"
      ],
      [
        "in",
        "g"
      ],
      [
        "i",
        "t"
      ],
      [
        "Ġ",
        "s"
      ],
      [
        "Ġ",
        "c"
      ],
      [
        "Ġ",
        "or"
      ],
      [
        "Ġ",
        "d"
      ],
      [
        "Ġ",
        "in"
      ],
      [
        "Ġ",
        "w"
      ],
      [
        "Ġ",
        "l"
      ],
      [
        "i",
        "on"
      ],
      [
        "l",
        "e"
      ],
      [
        "Ġ",
        "f"
      ],
      [
        "l",
        "y"
      ],
      [
        "e",
        "d"
      ],
      [
        "e",
        "r"
      ],
      [
        "Ġt",
        "o"
      ],
      [
        "Ġ",
        "re"
      ],
      [
        "n",
        "t"
      ],
      [
        "a",
        "r"
      ],
      [
        "Ġl",
        "i"
      ],
      [
        "Ġ",
        "b"
      ],
      [
        "Ġ",
        "ic"
      ],
      [
        "Ġic",
        "on"
      ],
      [
        "it",
        "h"
      ],
      [
        "Ġw",
        "ith"
      ],
      [
        "a",
        "l"
      ],
      [
        "h",
        "e"
      ],
      [
        "o",
        "w"
      ],
      [
        "k",
        "e"
      ],
      [
        "at",
        "a"
      ],
      [
        "Ġd",
        "ata"
      ],
      [
        "Ġli",
        "ke"
      ],
      [
        "ic",
        "at"
      ],
      [
        "Ġlike",
        "ly"
      ],
      [
        "c",
        "t"
      ],
      [
        "Ġ",
        "u"
      ],
      [
        "se",
        "t"
      ],
      [
        "Ġ",
        "m"
      ],
      [
        "Ġin",
        "d"
      ],
      [
        "Ġind",
        "icat"
      ],
      [
        "n",
        "d"
      ],
      [
        "Ġ",
        "p"
      ],
      [
        "Ġ",
        "o"
      ],
      [
        "Ġu",
        "se"
      ],
      [
        "e",
        "s"
      ],
      [
        "r",
        "o"
      ],
      [
        "t",
        "ing"
      ],
      [
        "Ġdata",
        "set"
      ],
      [
        "Ġt",
        "he"
      ],
      [
        "Ġ",
        "g"
      ],
      [
        "e",
        "x"
      ],
      [
        "a",
        "c"
      ],
      [
        "e",
        "n"
      ],
      [
        "Ġuse",
        "d"
      ],
      [
        "a",
        "n"
      ],
      [
        "Ġre",
        "p"
      ],
      [
        "i",
        "m"
      ],
      [
        "se",
        "nt"
      ],
      [
        "re",
        "sent"
      ],
      [
        "Ġrep",
        "resent"
      ],
      [
        "ow",
        "n"
      ],
      [
        "ct",
        "ion"
      ],
      [
        "e",
        "nt"
      ],
      [
        "on",
        "t"
      ],
      [
        "o",
        "l"
      ],
      [
        "Ġindicat",
        "ing"
      ],
      [
        "it",
        "e"
      ],
      [
        "r",
        "a"
      ],
      [
        "Ġ",
        "n"
      ],
      [
        "ex",
        "t"
      ],
      [
        "p",
        "le"
      ],
      [
        "Ġ",
        "se"
      ],
      [
        "Ġwith",
        "in"
      ],
      [
        "t",
        "er"
      ],
      [
        "Ġa",
        "s"
      ],
      [
        "Ġb",
        "l"
      ],
      [
        "Ġf",
        "or"
      ],
      [
        "Ġrepresent",
        "ing"
      ],
      [
        "i",
        "g"
      ],
      [
        "Ġs",
        "im"
      ],
      [
        "o",
        "in"
      ],
      [
        "Ġsim",
        "ple"
      ],
      [
        "Ġc",
        "ont"
      ],
      [
        "i",
        "d"
      ],
      [
        "s",
        "t"
      ],
      [
        "o",
        "m"
      ],
      [
        "Ġg",
        "ra"
      ],
      [
        "oin",
        "ting"
      ],
      [
        "ar",
        "d"
      ],
      [
        "Ġo",
        "p"
      ],
      [
        "Ġs",
        "t"
      ],
      [
        "Ġs",
        "u"
      ],
      [
        "Ġa",
        "nd"
      ],
      [
        "t",
        "ion"
      ],
      [
        "Ġgra",
        "y"
      ],
      [
        "i",
        "z"
      ],
      [
        "Ġ",
        "\""
      ],
      [
        "u",
        "e"
      ],
      [
        "ac",
        "k"
      ],
      [
        "w",
        "ard"
      ],
      [
        "v",
        "e"
      ],
      [
        "Ġw",
        "h"
      ],
      [
        "Ġt",
        "h"
      ],
      [
        "u",
        "t"
      ],
      [
        "Ġwh",
        "ite"
      ],
      [
        "Ġs",
        "h"
      ],
      [
        "i",
        "r"
      ],
      [
        "a",
        "g"
      ],
      [
        "u",
        "n"
      ],
      [
        "an",
        "g"
      ],
      [
        "c",
        "u"
      ],
      [
        "Ġop",
        "tion"
      ],
      [
        "Ġ",
        "v"
      ],
      [
        "Ġin",
        "ter"
      ],
      [
        "ro",
        "u"
      ],
      [
        "u",
        "r"
      ],
      [
        "p",
        "ointing"
      ],
      [
        "Ġbl",
        "ue"
      ],
      [
        "Ġc",
        "om"
      ],
      [
        "ac",
        "e"
      ],
      [
        "at",
        "ion"
      ],
      [
        "l",
        "a"
      ],
      [
        "Ġd",
        "own"
      ],
      [
        "Ġf",
        "i"
      ],
      [
        "g",
        "g"
      ],
      [
        "it",
        "ion"
      ],
      [
        "en",
        "u"
      ],
      [
        "m",
        "ent"
      ],
      [
        "Ġf",
        "un"
      ],
      [
        "Ġfun",
        "ction"
      ],
      [
        "l",
        "o"
      ],
      [
        "Ġm",
        "enu"
      ],
      [
        "q",
        "u"
      ],
      [
        "rou",
        "nd"
      ],
      [
        "Ġo",
        "f"
      ],
      [
        "Ġ",
        "U"
      ],
      [
        "Ġc",
        "ir"
      ],
      [
        "a",
        "re"
      ],
      [
        "ĠU",
        "I"
      ],
      [
        "id",
        "e"
      ],
      [
        "Ġ",
        "it"
      ],
      [
        "l",
        "ar"
      ],
      [
        "Ġinter",
        "f"
      ],
      [
        "Ġ",
        "h"
      ],
      [
        "Ġinterf",
        "ace"
      ],
      [
        "Ġa",
        "d"
      ],
      [
        "ic",
        "al"
      ],
      [
        "p",
        "d"
      ],
      [
        "gg",
        "es"
      ],
      [
        "h",
        "t"
      ],
      [
        "at",
        "ed"
      ],
      [
        "Ġsu",
        "gges"
      ],
      [
        "i",
        "s"
      ],
      [
        "m",
        "on"
      ],
      [
        "Ġdown",
        "ward"
      ],
      [
        "r",
        "ow"
      ],
      [
        "c",
        "h"
      ],
      [
        "p",
        "p"
      ],
      [
        "Ġoption",
        "s"
      ],
      [
        "Ġ",
        "on"
      ],
      [
        "e",
        "t"
      ],
      [
        "Ġa",
        "r"
      ],
      [
        "Ġc",
        "he"
      ],
      [
        "Ġ",
        "ex"
      ],
      [
        "Ġd",
        "ro"
      ],
      [
        "a",
        "b"
      ],
      [
        "qu",
        "are"
      ],
      [
        "pd",
        "own"
      ],
      [
        "Ġdro",
        "pdown"
      ],
      [
        "Ġs",
        "quare"
      ],
      [
        "Ġindicat",
        "e"
      ],
      [
        "l",
        "ated"
      ],
      [
        "Ġfi",
        "le"
      ],
      [
        "Ġth",
        "at"
      ],
      [
        "Ġcom",
        "mon"
      ],
      [
        "Ġex",
        "p"
      ],
      [
        "Ġcommon",
        "ly"
      ],
      [
        "s",
        "ide"
      ],
      [
        "m",
        "b"
      ],
      [
        "i",
        "l"
      ],
      [
        "Ġad",
        "d"
      ],
      [
        "r",
        "on"
      ],
      [
        "Ġd",
        "o"
      ],
      [
        "a",
        "nd"
      ],
      [
        "Ġar",
        "row"
      ],
      [
        "v",
        "ron"
      ],
      [
        "Ġche",
        "vron"
      ],
      [
        "e",
        "l"
      ],
      [
        "u",
        "s"
      ],
      [
        "Ġcont",
        "ext"
      ],
      [
        "a",
        "v"
      ],
      [
        "Ġl",
        "in"
      ],
      [
        "Ġt",
        "ext"
      ],
      [
        "r",
        "i"
      ],
      [
        "e",
        "w"
      ],
      [
        "ar",
        "k"
      ],
      [
        "Ġ",
        "ite"
      ],
      [
        "ol",
        "d"
      ],
      [
        "Ġite",
        "m"
      ],
      [
        "o",
        "s"
      ],
      [
        "es",
        "s"
      ],
      [
        "ag",
        "e"
      ],
      [
        "Ġ",
        "set"
      ],
      [
        "a",
        "d"
      ],
      [
        "Ġin",
        "side"
      ],
      [
        "or",
        "iz"
      ],
      [
        "Ġuse",
        "r"
      ],
      [
        "ition",
        "al"
      ],
      [
        "Ġadd",
        "itional"
      ],
      [
        "e",
        "at"
      ],
      [
        "cu",
        "lar"
      ],
      [
        "Ġsugges",
        "ting"
      ],
      [
        "Ġcir",
        "cular"
      ],
      [
        "c",
        "c"
      ],
      [
        "Ġa",
        "n"
      ],
      [
        "Ġs",
        "y"
      ],
      [
        "Ġb",
        "ack"
      ],
      [
        "ical",
        "ly"
      ],
      [
        "Ġexp",
        "and"
      ],
      [
        "ig",
        "ht"
      ],
      [
        "i",
        "f"
      ],
      [
        "Ġh",
        "oriz"
      ],
      [
        "Ġindicat",
        "or"
      ],
      [
        "ont",
        "al"
      ],
      [
        "Ġhoriz",
        "ontal"
      ],
      [
        "y",
        "p"
      ],
      [
        "Ġre",
        "ve"
      ],
      [
        "Ġa",
        "cc"
      ],
      [
        "at",
        "e"
      ],
      [
        "Ġt",
        "yp"
      ],
      [
        "Ġreve",
        "al"
      ],
      [
        "Ġc",
        "ol"
      ],
      [
        "Ġp",
        "os"
      ],
      [
        "i",
        "st"
      ],
      [
        "Ġset",
        "ting"
      ],
      [
        "Ġsh",
        "ow"
      ],
      [
        "Ġbl",
        "ack"
      ],
      [
        "Ġm",
        "in"
      ],
      [
        "re",
        "en"
      ],
      [
        "Ġst",
        "y"
      ],
      [
        "Ġre",
        "lated"
      ],
      [
        "Ġa",
        "pp"
      ],
      [
        "round",
        "ed"
      ],
      [
        "Ġ",
        "rounded"
      ],
      [
        "Ġtyp",
        "ically"
      ],
      [
        "t",
        "on"
      ],
      [
        "Ġb",
        "ut"
      ],
      [
        "Ġbut",
        "ton"
      ],
      [
        "Ġn",
        "ext"
      ],
      [
        "i",
        "ew"
      ],
      [
        "Ġmin",
        "im"
      ],
      [
        "Ġse",
        "le"
      ],
      [
        "w",
        "o"
      ],
      [
        "g",
        "round"
      ],
      [
        "Ġback",
        "ground"
      ],
      [
        "a",
        "p"
      ],
      [
        "re",
        "e"
      ],
      [
        "Ġf",
        "old"
      ],
      [
        "cu",
        "ment"
      ],
      [
        "Ġdo",
        "cument"
      ],
      [
        "al",
        "ist"
      ],
      [
        "Ġminim",
        "alist"
      ],
      [
        "Ġ",
        "r"
      ],
      [
        "al",
        "l"
      ],
      [
        "iz",
        "ed"
      ],
      [
        "ang",
        "le"
      ],
      [
        "Ġsetting",
        "s"
      ],
      [
        "Ġli",
        "st"
      ],
      [
        "ic",
        "k"
      ],
      [
        "Ġsty",
        "l"
      ],
      [
        "Ġg",
        "reen"
      ],
      [
        "Ġshow",
        "ing"
      ],
      [
        "v",
        "er"
      ],
      [
        "Ġv",
        "iew"
      ],
      [
        "Ġc",
        "on"
      ],
      [
        "av",
        "ig"
      ],
      [
        "c",
        "le"
      ],
      [
        "Ġs",
        "m"
      ],
      [
        "Ġn",
        "avig"
      ],
      [
        "Ġpos",
        "ition"
      ],
      [
        "Ġstyl",
        "ized"
      ],
      [
        "ang",
        "u"
      ],
      [
        "Ġcir",
        "cle"
      ],
      [
        "o",
        "t"
      ],
      [
        "Ġcont",
        "ent"
      ],
      [
        "Ġposition",
        "ed"
      ],
      [
        "Ġp",
        "ro"
      ],
      [
        "Ġt",
        "wo"
      ],
      [
        "f",
        "t"
      ],
      [
        "Ġc",
        "l"
      ],
      [
        "ab",
        "le"
      ],
      [
        "Ġre",
        "ct"
      ],
      [
        "Ġlin",
        "es"
      ],
      [
        "Ġc",
        "an"
      ],
      [
        "Ġd",
        "e"
      ],
      [
        "Ġth",
        "ree"
      ],
      [
        "Ġse",
        "ction"
      ],
      [
        "Ġacc",
        "ess"
      ],
      [
        "u",
        "d"
      ],
      [
        "Ġt",
        "ri"
      ],
      [
        "Ġsm",
        "all"
      ],
      [
        "h",
        "er"
      ],
      [
        "Ġf",
        "eat"
      ],
      [
        "s",
        "s"
      ],
      [
        "Ġs",
        "p"
      ],
      [
        "Ġcl",
        "ick"
      ],
      [
        "Ġb",
        "e"
      ],
      [
        "icat",
        "ion"
      ],
      [
        "ig",
        "n"
      ],
      [
        "o",
        "u"
      ],
      [
        "Ġc",
        "ur"
      ],
      [
        "Ġc",
        "lo"
      ],
      [
        "u",
        "re"
      ],
      [
        "Ġfold",
        "er"
      ],
      [
        "Ġli",
        "g"
      ],
      [
        "Ġr",
        "ight"
      ],
      [
        "Ġv",
        "er"
      ],
      [
        "Ġm",
        "an"
      ],
      [
        "Ġlig",
        "ht"
      ],
      [
        "ar",
        "ch"
      ],
      [
        "Ġsele",
        "ct"
      ],
      [
        "Ġre",
        "d"
      ],
      [
        "in",
        "e"
      ],
      [
        "y",
        "ing"
      ],
      [
        "e",
        "ct"
      ],
      [
        "angu",
        "lar"
      ],
      [
        "e",
        "ar"
      ],
      [
        "Ġa",
        "l"
      ],
      [
        "Ġse",
        "arch"
      ],
      [
        "Ġ",
        "he"
      ],
      [
        "Ġo",
        "ut"
      ],
      [
        "b",
        "o"
      ],
      [
        "mb",
        "ol"
      ],
      [
        "Ġsy",
        "mbol"
      ],
      [
        "s",
        "h"
      ],
      [
        "l",
        "ow"
      ],
      [
        "Ġn",
        "u"
      ],
      [
        "c",
        "e"
      ],
      [
        "Ġnavig",
        "ation"
      ],
      [
        "Ġtri",
        "angle"
      ],
      [
        "Ġp",
        "l"
      ],
      [
        "ar",
        "t"
      ],
      [
        "Ġsugges",
        "t"
      ],
      [
        "il",
        "l"
      ],
      [
        "Ġto",
        "ol"
      ],
      [
        "a",
        "se"
      ],
      [
        "Ġd",
        "ark"
      ],
      [
        "o",
        "c"
      ],
      [
        "Ġ",
        "e"
      ],
      [
        "Ġw",
        "ill"
      ],
      [
        "Ġclick",
        "ing"
      ],
      [
        "lo",
        "ad"
      ],
      [
        "Ġo",
        "ver"
      ],
      [
        "b",
        "le"
      ],
      [
        "a",
        "in"
      ],
      [
        "t",
        "s"
      ],
      [
        "Ġd",
        "is"
      ],
      [
        "la",
        "y"
      ],
      [
        "Ġp",
        "ointing"
      ],
      [
        "o",
        "d"
      ],
      [
        "Ġexpand",
        "able"
      ],
      [
        "Ġsh",
        "own"
      ],
      [
        "Ġ",
        "is"
      ],
      [
        "Ġrect",
        "angular"
      ],
      [
        "ou",
        "nt"
      ],
      [
        "Ġnu",
        "mb"
      ],
      [
        "Ġitem",
        "s"
      ],
      [
        "Ġver",
        "t"
      ],
      [
        "Ġse",
        "r"
      ],
      [
        "Ġb",
        "y"
      ],
      [
        "n",
        "er"
      ],
      [
        "re",
        "lated"
      ],
      [
        "Ġl",
        "ab"
      ],
      [
        "Ġser",
        "v"
      ],
      [
        "Ġl",
        "et"
      ],
      [
        "Ġout",
        "l"
      ],
      [
        "Ġlet",
        "ter"
      ],
      [
        "Ġs",
        "o"
      ],
      [
        "Ġu",
        "p"
      ],
      [
        "ro",
        "l"
      ],
      [
        "Ġd",
        "i"
      ],
      [
        "l",
        "ication"
      ],
      [
        "Ġsp",
        "e"
      ],
      [
        "Ġa",
        "ction"
      ],
      [
        "in",
        "d"
      ],
      [
        "pp",
        "ing"
      ],
      [
        "Ġman",
        "age"
      ],
      [
        "Ġnumb",
        "er"
      ],
      [
        "t",
        "e"
      ],
      [
        "Ġ",
        "ed"
      ],
      [
        "or",
        "y"
      ],
      [
        "Ġc",
        "or"
      ],
      [
        "Ġapp",
        "lication"
      ],
      [
        "l",
        "ing"
      ],
      [
        "v",
        "ed"
      ],
      [
        "Ġl",
        "e"
      ],
      [
        "Ġcont",
        "rol"
      ],
      [
        "c",
        "k"
      ],
      [
        "if",
        "ying"
      ],
      [
        "ur",
        "ing"
      ],
      [
        "la",
        "ss"
      ],
      [
        "Ġed",
        "it"
      ],
      [
        "Ġst",
        "at"
      ],
      [
        "Ġm",
        "ag"
      ],
      [
        "Ġg",
        "lass"
      ],
      [
        "Ġcor",
        "ner"
      ],
      [
        "Ġmag",
        "n"
      ],
      [
        "Ġcur",
        "ved"
      ],
      [
        "Ġmagn",
        "ifying"
      ],
      [
        "on",
        "g"
      ],
      [
        "re",
        "d"
      ],
      [
        "Ġvert",
        "ical"
      ],
      [
        "Ġfeat",
        "uring"
      ],
      [
        "e",
        "m"
      ],
      [
        "or",
        "e"
      ],
      [
        "le",
        "ction"
      ],
      [
        "Ġcol",
        "lection"
      ],
      [
        "Ġclo",
        "ud"
      ],
      [
        "Ġad",
        "j"
      ],
      [
        "Ġcol",
        "or"
      ],
      [
        "Ġstat",
        "us"
      ],
      [
        "Ġb",
        "ar"
      ],
      [
        "Ġle",
        "ft"
      ],
      [
        "at",
        "ing"
      ],
      [
        "f",
        "or"
      ],
      [
        "Ġc",
        "h"
      ],
      [
        "Ġfi",
        "l"
      ],
      [
        "Ġto",
        "p"
      ],
      [
        "Ġover",
        "la"
      ],
      [
        "t",
        "her"
      ],
      [
        "Ġs",
        "c"
      ],
      [
        "Ġc",
        "ent"
      ],
      [
        "u",
        "b"
      ],
      [
        "u",
        "l"
      ],
      [
        "Ġfor",
        "m"
      ],
      [
        "for",
        "m"
      ],
      [
        "er",
        "s"
      ],
      [
        "Ġcon",
        "n"
      ],
      [
        "Ġo",
        "ther"
      ],
      [
        "i",
        "o"
      ],
      [
        "Ġp",
        "re"
      ],
      [
        "ol",
        "id"
      ],
      [
        "Ġs",
        "olid"
      ],
      [
        "t",
        "ed"
      ],
      [
        "Ġdown",
        "load"
      ],
      [
        "st",
        "em"
      ],
      [
        "Ġfeat",
        "ure"
      ],
      [
        "Ġsu",
        "ch"
      ],
      [
        "ang",
        "e"
      ],
      [
        "Ġoutl",
        "ine"
      ],
      [
        "or",
        "d"
      ],
      [
        "it",
        "y"
      ],
      [
        "Ġsy",
        "stem"
      ],
      [
        "Ġn",
        "ear"
      ],
      [
        "a",
        "il"
      ],
      [
        "u",
        "al"
      ],
      [
        "Ġto",
        "gg"
      ],
      [
        "Ġm",
        "ark"
      ],
      [
        "Ġit",
        "s"
      ],
      [
        "j",
        "ect"
      ],
      [
        "Ġserv",
        "ing"
      ],
      [
        "Ġmanage",
        "ment"
      ],
      [
        "a",
        "m"
      ],
      [
        "Ġa",
        "bo"
      ],
      [
        "Ġcont",
        "ain"
      ],
      [
        "Ġfile",
        "s"
      ],
      [
        "Ġlin",
        "e"
      ],
      [
        "Ġlab",
        "el"
      ],
      [
        "Ġv",
        "is"
      ],
      [
        "i",
        "ve"
      ],
      [
        "r",
        "id"
      ],
      [
        "Ġ",
        "y"
      ],
      [
        "Ġl",
        "oc"
      ],
      [
        "Ġm",
        "o"
      ],
      [
        "Ġg",
        "rid"
      ],
      [
        "Ġs",
        "ign"
      ],
      [
        "el",
        "low"
      ],
      [
        "Ġuser",
        "s"
      ],
      [
        "Ġal",
        "ong"
      ],
      [
        "Ġy",
        "ellow"
      ],
      [
        "Ġalong",
        "side"
      ],
      [
        "Ġg",
        "lo"
      ],
      [
        "Ġde",
        "p"
      ],
      [
        "Ġtogg",
        "le"
      ],
      [
        "Ġc",
        "ount"
      ],
      [
        "Ġsu",
        "b"
      ],
      [
        "Ġglo",
        "b"
      ],
      [
        "se",
        "d"
      ],
      [
        "Ġrepresent",
        "s"
      ],
      [
        "m",
        "ark"
      ],
      [
        "Ġw",
        "eat"
      ],
      [
        "la",
        "p"
      ],
      [
        "Ġdis",
        "p"
      ],
      [
        "Ġweat",
        "her"
      ],
      [
        "d",
        "i"
      ],
      [
        "Ġf",
        "av"
      ],
      [
        "Ġfunction",
        "s"
      ],
      [
        "Ġcon",
        "f"
      ],
      [
        "Ġrect",
        "angle"
      ],
      [
        "Ġfav",
        "or"
      ],
      [
        "b",
        "y"
      ],
      [
        "ro",
        "m"
      ],
      [
        "Ġor",
        "ange"
      ],
      [
        "Ġse",
        "en"
      ],
      [
        "Ġop",
        "en"
      ],
      [
        "et",
        "w"
      ],
      [
        "Ġoverla",
        "pping"
      ],
      [
        "Ġf",
        "rom"
      ],
      [
        "Ġre",
        "se"
      ],
      [
        "ue",
        "t"
      ],
      [
        "Ġselect",
        "ed"
      ],
      [
        "Ġw",
        "he"
      ],
      [
        "Ġsh",
        "ap"
      ],
      [
        "ate",
        "g"
      ],
      [
        "Ġform",
        "at"
      ],
      [
        "Ġst",
        "ar"
      ],
      [
        "mb",
        "ling"
      ],
      [
        "Ġpl",
        "us"
      ],
      [
        "Ġvis",
        "ual"
      ],
      [
        "Ġrese",
        "mbling"
      ],
      [
        "r",
        "ic"
      ],
      [
        "or",
        "t"
      ],
      [
        "ag",
        "ing"
      ],
      [
        "Ġnear",
        "by"
      ],
      [
        "Ġ",
        "qu"
      ],
      [
        "le",
        "d"
      ],
      [
        "a",
        "y"
      ],
      [
        "Ġ",
        "en"
      ],
      [
        "Ġp",
        "ur"
      ],
      [
        "a",
        "s"
      ],
      [
        "i",
        "p"
      ],
      [
        "Ġdo",
        "ts"
      ],
      [
        "Ġsele",
        "ction"
      ],
      [
        "Ġs",
        "il"
      ],
      [
        "er",
        "c"
      ],
      [
        "Ġpro",
        "ject"
      ],
      [
        "Ġ",
        "ra"
      ],
      [
        "Ġc",
        "ateg"
      ],
      [
        "Ġfil",
        "ter"
      ],
      [
        "o",
        "g"
      ],
      [
        "o",
        "ur"
      ],
      [
        "Ġcom",
        "p"
      ],
      [
        "e",
        "ch"
      ],
      [
        "Ġpur",
        "ple"
      ],
      [
        "erc",
        "ase"
      ],
      [
        "h",
        "o"
      ],
      [
        "se",
        "r"
      ],
      [
        "o",
        "p"
      ],
      [
        "s",
        "ion"
      ],
      [
        "Ġd",
        "es"
      ],
      [
        "Ġso",
        "ft"
      ],
      [
        "form",
        "ation"
      ],
      [
        "Ġsil",
        "ho"
      ],
      [
        "Ġsilho",
        "uet"
      ],
      [
        "Ġp",
        "art"
      ],
      [
        "Ġn",
        "ew"
      ],
      [
        "Ġn",
        "ot"
      ],
      [
        "Ġche",
        "ck"
      ],
      [
        "Ġup",
        "ward"
      ],
      [
        "Ġconn",
        "ect"
      ],
      [
        "Ġfor",
        "ward"
      ],
      [
        "Ġspe",
        "ech"
      ],
      [
        "i",
        "a"
      ],
      [
        "Ġin",
        "formation"
      ],
      [
        "Ġfold",
        "ed"
      ],
      [
        "i",
        "b"
      ],
      [
        "p",
        "ut"
      ],
      [
        "le",
        "r"
      ],
      [
        "Ġb",
        "r"
      ],
      [
        "Ġselect",
        "ing"
      ],
      [
        "Ġconf",
        "ig"
      ],
      [
        "i",
        "es"
      ],
      [
        "e",
        "en"
      ],
      [
        "Ġt",
        "ab"
      ],
      [
        "ic",
        "ting"
      ],
      [
        "Ġb",
        "etw"
      ],
      [
        "Ġdep",
        "icting"
      ],
      [
        "Ġbetw",
        "een"
      ],
      [
        "Ġ",
        "im"
      ],
      [
        "ic",
        "e"
      ],
      [
        "et",
        "ric"
      ],
      [
        "Ġcircle",
        "s"
      ],
      [
        "Ġdi",
        "re"
      ],
      [
        "Ġformat",
        "ting"
      ],
      [
        "e",
        "red"
      ],
      [
        "u",
        "st"
      ],
      [
        "Ġabo",
        "ve"
      ],
      [
        "ct",
        "ive"
      ],
      [
        "Ġm",
        "ess"
      ],
      [
        "Ġm",
        "ore"
      ],
      [
        "iz",
        "ation"
      ],
      [
        "Ġedit",
        "ing"
      ],
      [
        "Ġb",
        "ub"
      ],
      [
        "Ġview",
        "ed"
      ],
      [
        "Ġloc",
        "ation"
      ],
      [
        "Ġbub",
        "ble"
      ],
      [
        "Ġ",
        "ent"
      ],
      [
        "Ġp",
        "lay"
      ],
      [
        "Ġpre",
        "v"
      ],
      [
        "Ġcontain",
        "ing"
      ],
      [
        "Ġsilhouet",
        "te"
      ],
      [
        "p",
        "h"
      ],
      [
        "w",
        "are"
      ],
      [
        "ed",
        "ia"
      ],
      [
        "Ġu",
        "pd"
      ],
      [
        "Ġon",
        "e"
      ],
      [
        "Ġpl",
        "ace"
      ],
      [
        "e",
        "b"
      ],
      [
        "Ġt",
        "r"
      ],
      [
        "Ġm",
        "ap"
      ],
      [
        "Ġgra",
        "di"
      ],
      [
        "Ġst",
        "or"
      ],
      [
        "iz",
        "e"
      ],
      [
        "ur",
        "ation"
      ],
      [
        "if",
        "i"
      ],
      [
        "Ġconfig",
        "uration"
      ],
      [
        "Ġgradi",
        "ent"
      ],
      [
        "o",
        "k"
      ],
      [
        "Ġre",
        "f"
      ],
      [
        "Ġso",
        "ur"
      ],
      [
        "Ġdes",
        "ign"
      ],
      [
        "Ġ",
        "C"
      ],
      [
        "Ġp",
        "ers"
      ],
      [
        "Ġh",
        "and"
      ],
      [
        "Ġsoft",
        "ware"
      ],
      [
        "Ġpers",
        "on"
      ],
      [
        "l",
        "p"
      ],
      [
        "Ġb",
        "o"
      ],
      [
        "Ġg",
        "e"
      ],
      [
        "bo",
        "ard"
      ],
      [
        "Ġfavor",
        "ite"
      ],
      [
        "Ġa",
        "t"
      ],
      [
        "Ġb",
        "old"
      ],
      [
        "Ġview",
        "ing"
      ],
      [
        "Ġhe",
        "lp"
      ],
      [
        "oc",
        "i"
      ],
      [
        "Ġdisp",
        "lay"
      ],
      [
        "Ġw",
        "eb"
      ],
      [
        "Ġclo",
        "se"
      ],
      [
        "u",
        "ct"
      ],
      [
        "â",
        "Ģ"
      ],
      [
        "Ġ",
        "M"
      ],
      [
        "Ġl",
        "ay"
      ],
      [
        "sh",
        "ap"
      ],
      [
        "Ġl",
        "ow"
      ],
      [
        "Ġl",
        "angu"
      ],
      [
        "Ġm",
        "edia"
      ],
      [
        "Ġlin",
        "k"
      ],
      [
        "Ġcateg",
        "ory"
      ],
      [
        "Ġconnect",
        "ed"
      ],
      [
        "Ġin",
        "put"
      ],
      [
        "rou",
        "p"
      ],
      [
        "ul",
        "t"
      ],
      [
        "Ġc",
        "re"
      ],
      [
        "Ġst",
        "ate"
      ],
      [
        "Ġnavig",
        "ate"
      ],
      [
        "Ġcheck",
        "mark"
      ],
      [
        "\"",
        "."
      ],
      [
        "g",
        "e"
      ],
      [
        "Ġb",
        "row"
      ],
      [
        "Ġicon",
        "s"
      ],
      [
        "Ġg",
        "roup"
      ],
      [
        "Ġar",
        "r"
      ],
      [
        "'",
        "s"
      ],
      [
        "Ġw",
        "ind"
      ],
      [
        "Ġdataset",
        "s"
      ],
      [
        "Ġas",
        "s"
      ],
      [
        "lo",
        "p"
      ],
      [
        "Ġsour",
        "ce"
      ],
      [
        "at",
        "ter"
      ],
      [
        "ve",
        "lop"
      ],
      [
        "a",
        "ly"
      ],
      [
        "b",
        "ar"
      ],
      [
        "Ġ",
        "2"
      ],
      [
        "re",
        "nt"
      ],
      [
        "Ġm",
        "od"
      ],
      [
        "Ġindicat",
        "ed"
      ],
      [
        "oin",
        "ted"
      ],
      [
        "Ġcol",
        "lap"
      ],
      [
        "Ġcolor",
        "ed"
      ],
      [
        "o",
        "ut"
      ],
      [
        "Ġ",
        "3"
      ],
      [
        "ang",
        "ed"
      ],
      [
        "Ġglob",
        "e"
      ],
      [
        "Ġlow",
        "ercase"
      ],
      [
        "c",
        "ol"
      ],
      [
        "m",
        "er"
      ],
      [
        "s",
        "ib"
      ],
      [
        "Ġa",
        "ctive"
      ],
      [
        "Ġpos",
        "sib"
      ],
      [
        "Ġwhe",
        "n"
      ],
      [
        "Ġhand",
        "le"
      ],
      [
        "Ġbrow",
        "ser"
      ],
      [
        "Ġpossib",
        "ly"
      ],
      [
        "Ġ",
        "P"
      ],
      [
        "re",
        "sh"
      ],
      [
        "Ġf",
        "our"
      ],
      [
        "Ġcom",
        "ment"
      ],
      [
        "ri",
        "p"
      ],
      [
        "Ġdire",
        "ct"
      ],
      [
        "Ġref",
        "resh"
      ],
      [
        "c",
        "if"
      ],
      [
        "r",
        "uct"
      ],
      [
        "it",
        "or"
      ],
      [
        "Ġw",
        "ord"
      ],
      [
        "ac",
        "ent"
      ],
      [
        "Ġtool",
        "bar"
      ],
      [
        "Ġadj",
        "acent"
      ],
      [
        "Ġmo",
        "ve"
      ],
      [
        "oci",
        "ated"
      ],
      [
        "Ġlangu",
        "age"
      ],
      [
        "Ġarr",
        "anged"
      ],
      [
        "Ġdirect",
        "ory"
      ],
      [
        "Ġf",
        "ind"
      ],
      [
        "Ġb",
        "ot"
      ],
      [
        "Ġp",
        "age"
      ],
      [
        "Ġexp",
        "l"
      ],
      [
        "ud",
        "e"
      ],
      [
        "Ġass",
        "ociated"
      ],
      [
        "ruct",
        "ure"
      ],
      [
        "s",
        "c"
      ],
      [
        "t",
        "om"
      ],
      [
        "Ġs",
        "w"
      ],
      [
        "Ġd",
        "et"
      ],
      [
        "ra",
        "m"
      ],
      [
        "el",
        "d"
      ],
      [
        "Ġan",
        "aly"
      ],
      [
        "if",
        "ication"
      ],
      [
        "Ġclick",
        "ed"
      ],
      [
        "Ġwind",
        "ow"
      ],
      [
        "Ġbot",
        "tom"
      ],
      [
        "m",
        "o"
      ],
      [
        "Ġ",
        "z"
      ],
      [
        "it",
        "ude"
      ],
      [
        "Ġp",
        "in"
      ],
      [
        "Ġp",
        "atter"
      ],
      [
        "ide",
        "o"
      ],
      [
        "Ġacc",
        "ount"
      ],
      [
        "cif",
        "ic"
      ],
      [
        "Ġdet",
        "ail"
      ],
      [
        "Ġpatter",
        "n"
      ],
      [
        "a",
        "i"
      ],
      [
        "a",
        "ct"
      ],
      [
        "e",
        "p"
      ],
      [
        "e",
        "led"
      ],
      [
        "i",
        "ble"
      ],
      [
        "Ġ",
        "A"
      ],
      [
        "Ġv",
        "ideo"
      ],
      [
        "Ġman",
        "aging"
      ],
      [
        "Ġlab",
        "eled"
      ],
      [
        "Ġshap",
        "e"
      ],
      [
        "Ġplace",
        "ment"
      ],
      [
        "Ġdetail",
        "s"
      ],
      [
        "e",
        "ed"
      ],
      [
        "i",
        "v"
      ],
      [
        "i",
        "al"
      ],
      [
        "r",
        "y"
      ],
      [
        "om",
        "etric"
      ],
      [
        "us",
        "h"
      ],
      [
        "Ġde",
        "v"
      ],
      [
        "Ġcur",
        "rent"
      ],
      [
        "ase",
        "d"
      ],
      [
        "u",
        "m"
      ],
      [
        "on",
        "itor"
      ],
      [
        "ic",
        "s"
      ],
      [
        "Ġm",
        "onitor"
      ],
      [
        "es",
        "tion"
      ],
      [
        "Ġcent",
        "er"
      ],
      [
        "Ġbo",
        "ok"
      ],
      [
        "a",
        "le"
      ],
      [
        "i",
        "le"
      ],
      [
        "r",
        "ight"
      ],
      [
        "Ġ",
        "'"
      ],
      [
        "or",
        "k"
      ],
      [
        "ar",
        "ing"
      ],
      [
        "Ġu",
        "nd"
      ],
      [
        "Ġinter",
        "n"
      ],
      [
        "Ġdo",
        "t"
      ],
      [
        "io",
        "us"
      ],
      [
        "Ġqu",
        "estion"
      ],
      [
        "Ġprev",
        "ious"
      ],
      [
        "ifi",
        "ed"
      ],
      [
        "p",
        "ointed"
      ],
      [
        "Ġa",
        "ud"
      ],
      [
        "Ġapp",
        "ear"
      ],
      [
        "Ġal",
        "low"
      ],
      [
        "Ġsub",
        "m"
      ],
      [
        "Ġglob",
        "al"
      ],
      [
        "Ġaud",
        "io"
      ],
      [
        "g",
        "er"
      ],
      [
        "h",
        "ine"
      ],
      [
        "t",
        "h"
      ],
      [
        "in",
        "ed"
      ],
      [
        "Ġs",
        "l"
      ],
      [
        "ag",
        "es"
      ],
      [
        "Ġtri",
        "angular"
      ],
      [
        "Ġspe",
        "cific"
      ],
      [
        "Ġaction",
        "s"
      ],
      [
        "Ġim",
        "age"
      ],
      [
        "Ġupd",
        "ate"
      ],
      [
        "Ġexpl",
        "or"
      ],
      [
        "Ġ",
        "row"
      ],
      [
        "ic",
        "ro"
      ],
      [
        "le",
        "ment"
      ],
      [
        "Ġg",
        "ear"
      ],
      [
        "Ġsh",
        "are"
      ],
      [
        "Ġcom",
        "m"
      ],
      [
        "Ġfi",
        "ve"
      ],
      [
        "Ġal",
        "ign"
      ],
      [
        "Ġhe",
        "re"
      ],
      [
        "Ġe",
        "lement"
      ],
      [
        "Ġcent",
        "ered"
      ],
      [
        "Ġnot",
        "ification"
      ],
      [
        "Ġent",
        "ry"
      ],
      [
        "Ġstor",
        "age"
      ],
      [
        "Ġge",
        "ometric"
      ],
      [
        "Ġa",
        "mon"
      ],
      [
        "Ġre",
        "mo"
      ],
      [
        "Ġp",
        "an"
      ],
      [
        "Ġst",
        "ack"
      ],
      [
        "Ġst",
        "ructure"
      ],
      [
        "Ġr",
        "ating"
      ],
      [
        "Ġe",
        "m"
      ],
      [
        "Ġamon",
        "g"
      ],
      [
        "Ġpan",
        "el"
      ],
      [
        "b",
        "r"
      ],
      [
        "Ġt",
        "e"
      ],
      [
        "ĠC",
        "hine"
      ],
      [
        "ĠChine",
        "se"
      ],
      [
        "a",
        "st"
      ],
      [
        "e",
        "ction"
      ],
      [
        "g",
        "an"
      ],
      [
        "t",
        "ics"
      ],
      [
        "Ġor",
        "gan"
      ],
      [
        "Ġre",
        "s"
      ],
      [
        "Ġre",
        "ver"
      ],
      [
        "Ġb",
        "el"
      ],
      [
        "Ġm",
        "ult"
      ],
      [
        "Ġn",
        "od"
      ],
      [
        "Ġoutl",
        "ined"
      ],
      [
        "Ġlay",
        "out"
      ],
      [
        "T",
        "h"
      ],
      [
        "i",
        "ke"
      ],
      [
        "n",
        "ing"
      ],
      [
        "Ġsh",
        "aring"
      ],
      [
        "Ġde",
        "le"
      ],
      [
        "Ġconn",
        "ection"
      ],
      [
        "Ġtr",
        "ig"
      ],
      [
        "shap",
        "ed"
      ],
      [
        "a",
        "mon"
      ],
      [
        "l",
        "ike"
      ],
      [
        "p",
        "l"
      ],
      [
        "Ġ",
        "B"
      ],
      [
        "Ġc",
        "art"
      ],
      [
        "Ġl",
        "en"
      ],
      [
        "Ġsquare",
        "s"
      ],
      [
        "Ġsty",
        "le"
      ],
      [
        "Ġnu",
        "mer"
      ],
      [
        "Ġdi",
        "amon"
      ],
      [
        "Ġch",
        "ar"
      ],
      [
        "Ġanaly",
        "tics"
      ],
      [
        "Ġdev",
        "ice"
      ],
      [
        "Ġdiamon",
        "d"
      ],
      [
        "e",
        "c"
      ],
      [
        "Ġu",
        "n"
      ],
      [
        "Ġp",
        "oin"
      ],
      [
        "Ġadj",
        "ust"
      ],
      [
        "Ġmess",
        "aging"
      ],
      [
        "Ġbook",
        "mark"
      ],
      [
        "Ġappear",
        "s"
      ],
      [
        "A",
        "n"
      ],
      [
        "o",
        "ft"
      ],
      [
        "v",
        "ing"
      ],
      [
        "al",
        "ler"
      ],
      [
        "Ġm",
        "us"
      ],
      [
        "om",
        "e"
      ],
      [
        "us",
        "ting"
      ],
      [
        "od",
        "e"
      ],
      [
        "Ġadj",
        "usting"
      ],
      [
        "Ġnod",
        "es"
      ],
      [
        "b",
        "ased"
      ],
      [
        "c",
        "el"
      ],
      [
        "l",
        "ine"
      ],
      [
        "o",
        "pping"
      ],
      [
        "s",
        "oft"
      ],
      [
        "Ġ",
        "1"
      ],
      [
        "Ġa",
        "v"
      ],
      [
        "Ġre",
        "c"
      ],
      [
        "Ġre",
        "t"
      ],
      [
        "Ġsu",
        "n"
      ],
      [
        "Ġsh",
        "opping"
      ],
      [
        "la",
        "ying"
      ],
      [
        "Ġbar",
        "s"
      ],
      [
        "ub",
        "e"
      ],
      [
        "Ġshap",
        "es"
      ],
      [
        "ĠM",
        "icro"
      ],
      [
        "ĠMicro",
        "soft"
      ],
      [
        "a",
        "sh"
      ],
      [
        "Ġc",
        "ube"
      ],
      [
        "Ġfi",
        "eld"
      ],
      [
        "Ġapp",
        "ly"
      ],
      [
        "Ġpro",
        "f"
      ],
      [
        "Ġcan",
        "cel"
      ],
      [
        "Ġver",
        "sion"
      ],
      [
        "Ġbr",
        "an"
      ],
      [
        "âĢ",
        "Ķ"
      ],
      [
        "ai",
        "la"
      ],
      [
        "Ġem",
        "ail"
      ],
      [
        "Ġnumer",
        "ical"
      ],
      [
        "Ġchar",
        "act"
      ],
      [
        "c",
        "ess"
      ],
      [
        "Ġ",
        "W"
      ],
      [
        "Ġ",
        "Y"
      ],
      [
        "Ġa",
        "ler"
      ],
      [
        "on",
        "al"
      ],
      [
        "Ġs",
        "av"
      ],
      [
        "Ġc",
        "ode"
      ],
      [
        "Ġd",
        "ash"
      ],
      [
        "Ġf",
        "ont"
      ],
      [
        "Ġp",
        "h"
      ],
      [
        "Ġp",
        "resent"
      ],
      [
        "en",
        "ce"
      ],
      [
        "Ġedit",
        "or"
      ],
      [
        "Ġsc",
        "reen"
      ],
      [
        "Ġav",
        "aila"
      ],
      [
        "b",
        "ack"
      ],
      [
        "t",
        "o"
      ],
      [
        "Ġ",
        "ke"
      ],
      [
        "on",
        "e"
      ],
      [
        "ke",
        "t"
      ],
      [
        "Ġu",
        "pp"
      ],
      [
        "Ġindicat",
        "es"
      ],
      [
        "ra",
        "ph"
      ],
      [
        "ag",
        "onal"
      ],
      [
        "il",
        "ity"
      ],
      [
        "Ġaccess",
        "ing"
      ],
      [
        "Ġhe",
        "ad"
      ],
      [
        "Ġabo",
        "ut"
      ],
      [
        "Ġdisp",
        "laying"
      ],
      [
        "Ġcomp",
        "o"
      ],
      [
        "Ġstack",
        "ed"
      ],
      [
        "Ġtrig",
        "ger"
      ],
      [
        "Ġpresent",
        "ation"
      ],
      [
        "i",
        "re"
      ],
      [
        "r",
        "al"
      ],
      [
        "Ġ",
        "S"
      ],
      [
        "Ġc",
        "ust"
      ],
      [
        "Ġl",
        "o"
      ],
      [
        "Ġl",
        "at"
      ],
      [
        "Ġf",
        "eed"
      ],
      [
        "Ġb",
        "ad"
      ],
      [
        "Ġp",
        "ar"
      ],
      [
        "an",
        "ce"
      ],
      [
        "Ġse",
        "cu"
      ],
      [
        "Ġse",
        "qu"
      ],
      [
        "Ġsy",
        "n"
      ],
      [
        "Ġcent",
        "ral"
      ],
      [
        "Ġdownload",
        "ed"
      ],
      [
        "Ġprof",
        "ile"
      ],
      [
        "Ġcompo",
        "sed"
      ],
      [
        "Ġcust",
        "om"
      ],
      [
        "Ġt",
        "im"
      ],
      [
        "Ġs",
        "ize"
      ],
      [
        "Ġd",
        "en"
      ],
      [
        "er",
        "o"
      ],
      [
        "id",
        "ent"
      ],
      [
        "Ġcom",
        "ple"
      ],
      [
        "Ġfavor",
        "it"
      ],
      [
        "Ġvisual",
        "ization"
      ],
      [
        "Ġz",
        "ero"
      ],
      [
        "Ġexplor",
        "er"
      ],
      [
        "Ġcomm",
        "un"
      ],
      [
        "Th",
        "ree"
      ],
      [
        "Ġcharact",
        "er"
      ],
      [
        "Ġbad",
        "ge"
      ],
      [
        "Ġsequ",
        "ence"
      ],
      [
        "Ġden",
        "ot"
      ],
      [
        "T",
        "wo"
      ],
      [
        "Ġ",
        "ident"
      ],
      [
        "is",
        "s"
      ],
      [
        "ss",
        "ion"
      ],
      [
        "ou",
        "se"
      ],
      [
        "Ġout",
        "ward"
      ],
      [
        "Ġch",
        "art"
      ],
      [
        "Ġwhe",
        "re"
      ],
      [
        "c",
        "es"
      ],
      [
        "f",
        "ul"
      ],
      [
        "i",
        "x"
      ],
      [
        "Ġ",
        "ro"
      ],
      [
        "or",
        "ting"
      ],
      [
        "re",
        "n"
      ],
      [
        "Ġin",
        "to"
      ],
      [
        "lo",
        "ck"
      ],
      [
        "ain",
        "t"
      ],
      [
        "lap",
        "se"
      ],
      [
        "Ġfilter",
        "ing"
      ],
      [
        "Ġdash",
        "board"
      ],
      [
        "i",
        "lar"
      ],
      [
        "Ġre",
        "load"
      ],
      [
        "ar",
        "y"
      ],
      [
        "Ġthe",
        "m"
      ],
      [
        "ra",
        "ct"
      ],
      [
        "Ġn",
        "am"
      ],
      [
        "Ġsim",
        "ilar"
      ],
      [
        "ch",
        "ing"
      ],
      [
        "Ġvert",
        "ically"
      ],
      [
        "Ġletter",
        "s"
      ],
      [
        "Ġoverla",
        "id"
      ],
      [
        "Ġmo",
        "ving"
      ],
      [
        "Ġen",
        "velop"
      ],
      [
        "Ġenvelop",
        "e"
      ],
      [
        "f",
        "e"
      ],
      [
        "u",
        "es"
      ],
      [
        "or",
        "ts"
      ],
      [
        "ic",
        "es"
      ],
      [
        "Ġf",
        "o"
      ],
      [
        "al",
        "og"
      ],
      [
        "Ġsm",
        "aller"
      ],
      [
        "Ġpro",
        "g"
      ],
      [
        "ou",
        "nd"
      ],
      [
        "Ġup",
        "load"
      ],
      [
        "di",
        "ating"
      ],
      [
        "Ġpart",
        "ial"
      ],
      [
        "Ġund",
        "er"
      ],
      [
        "Ġsubm",
        "it"
      ],
      [
        "Ġavaila",
        "ble"
      ],
      [
        "Ġupp",
        "ercase"
      ],
      [
        "Ġc",
        "ap"
      ],
      [
        "nd",
        "ing"
      ],
      [
        "iz",
        "ing"
      ],
      [
        "Ġexp",
        "ort"
      ],
      [
        "Ġarrow",
        "s"
      ],
      [
        "Ġpro",
        "cess"
      ],
      [
        "Ġcontain",
        "er"
      ],
      [
        "Ġra",
        "diating"
      ],
      [
        "Ġbubble",
        "s"
      ],
      [
        "Ġcollap",
        "se"
      ],
      [
        "col",
        "or"
      ],
      [
        "col",
        "lapse"
      ],
      [
        "Ġremo",
        "ve"
      ],
      [
        "Ġph",
        "ot"
      ],
      [
        "Ġt",
        "ra"
      ],
      [
        "Ġl",
        "ong"
      ],
      [
        "Ġv",
        "ar"
      ],
      [
        "ation",
        "al"
      ],
      [
        "Ġcontrol",
        "s"
      ],
      [
        "ord",
        "er"
      ],
      [
        "Ġdep",
        "lo"
      ],
      [
        "Ġopen",
        "ed"
      ],
      [
        "etric",
        "s"
      ],
      [
        "Ġmult",
        "i"
      ],
      [
        "Ġdele",
        "te"
      ],
      [
        "Ġlen",
        "s"
      ],
      [
        "u",
        "p"
      ],
      [
        "u",
        "ter"
      ],
      [
        "y",
        "ment"
      ],
      [
        "Ġf",
        "ram"
      ],
      [
        "Ġm",
        "etrics"
      ],
      [
        "ro",
        "p"
      ],
      [
        "ig",
        "h"
      ],
      [
        "ri",
        "b"
      ],
      [
        "Ġback",
        "ward"
      ],
      [
        "Ġde",
        "velop"
      ],
      [
        "Ġallow",
        "s"
      ],
      [
        "Ġstructure",
        "d"
      ],
      [
        "Ġlat",
        "itude"
      ],
      [
        "Ġphot",
        "o"
      ],
      [
        "Ġlong",
        "itude"
      ],
      [
        "Ġdevelop",
        "ment"
      ],
      [
        "o",
        "ver"
      ],
      [
        "p",
        "in"
      ],
      [
        "p",
        "ort"
      ],
      [
        "at",
        "form"
      ],
      [
        "Ġp",
        "en"
      ],
      [
        "Ġp",
        "ush"
      ],
      [
        "ra",
        "w"
      ],
      [
        "ur",
        "n"
      ],
      [
        "ri",
        "es"
      ],
      [
        "Ġexpand",
        "ing"
      ],
      [
        "Ġcon",
        "d"
      ],
      [
        "Ġaccess",
        "ible"
      ],
      [
        "Ġver",
        "ified"
      ],
      [
        "Ġpl",
        "atform"
      ],
      [
        "Ġover",
        "lay"
      ],
      [
        "og",
        "raph"
      ],
      [
        "Ġcollap",
        "s"
      ],
      [
        "rip",
        "t"
      ],
      [
        "Ġfind",
        "ing"
      ],
      [
        "Ġintern",
        "ational"
      ],
      [
        "Ġalign",
        "ment"
      ],
      [
        "Ġnotification",
        "s"
      ],
      [
        "Ġbel",
        "ow"
      ],
      [
        "Ġret",
        "urn"
      ],
      [
        "Ġdenot",
        "e"
      ],
      [
        "Ġpush",
        "pin"
      ],
      [
        "c",
        "re"
      ],
      [
        "i",
        "k"
      ],
      [
        "r",
        "ity"
      ],
      [
        "Ġ",
        "D"
      ],
      [
        "Ġ",
        "E"
      ],
      [
        "Ġa",
        "ut"
      ],
      [
        "at",
        "es"
      ],
      [
        "Ġc",
        "ale"
      ],
      [
        "Ġin",
        "ser"
      ],
      [
        "ow",
        "er"
      ],
      [
        "nd",
        "ar"
      ],
      [
        "Ġp",
        "a"
      ],
      [
        "Ġp",
        "aint"
      ],
      [
        "ve",
        "l"
      ],
      [
        "Ġv",
        "al"
      ],
      [
        "Ġfunction",
        "al"
      ],
      [
        "Ġh",
        "ome"
      ],
      [
        "Ġan",
        "n"
      ],
      [
        "bo",
        "x"
      ],
      [
        "Ġch",
        "o"
      ],
      [
        "Ġsub",
        "t"
      ],
      [
        "Ġnot",
        "e"
      ],
      [
        "Ġprev",
        "iew"
      ],
      [
        "shap",
        "e"
      ],
      [
        "Ġbookmark",
        "ed"
      ],
      [
        "Ġcomple",
        "ted"
      ],
      [
        "Ġcond",
        "ition"
      ],
      [
        "Ġcale",
        "ndar"
      ],
      [
        "a",
        "ve"
      ],
      [
        "t",
        "ure"
      ],
      [
        "Ġt",
        "able"
      ],
      [
        "it",
        "al"
      ],
      [
        "Ġd",
        "raw"
      ],
      [
        "Ġl",
        "og"
      ],
      [
        "Ġre",
        "ad"
      ],
      [
        "Ġm",
        "et"
      ],
      [
        "ac",
        "es"
      ],
      [
        "Ġrep",
        "l"
      ],
      [
        "ut",
        "ed"
      ],
      [
        "Ġinter",
        "a"
      ],
      [
        "la",
        "m"
      ],
      [
        "Ġon",
        "line"
      ],
      [
        "eat",
        "h"
      ],
      [
        "Ġclo",
        "ck"
      ],
      [
        "Ġfil",
        "l"
      ],
      [
        "Ġpre",
        "c"
      ],
      [
        "ifi",
        "er"
      ],
      [
        "Ġcre",
        "ate"
      ],
      [
        "Ġsw",
        "it"
      ],
      [
        "Ġintern",
        "et"
      ],
      [
        "Ġaler",
        "t"
      ],
      [
        "Ġident",
        "ifier"
      ],
      [
        "b",
        "all"
      ],
      [
        "l",
        "ight"
      ],
      [
        "n",
        "ed"
      ],
      [
        "p",
        "an"
      ],
      [
        "Ġ",
        "ext"
      ],
      [
        "Ġa",
        "re"
      ],
      [
        "se",
        "ct"
      ],
      [
        "Ġp",
        "e"
      ],
      [
        "Ġp",
        "ri"
      ],
      [
        "an",
        "s"
      ],
      [
        "la",
        "sh"
      ],
      [
        "Ġh",
        "ide"
      ],
      [
        "Ġh",
        "igh"
      ],
      [
        "ch",
        "ed"
      ],
      [
        "ch",
        "ron"
      ],
      [
        "Ġex",
        "c"
      ],
      [
        "Ġdis",
        "m"
      ],
      [
        "Ġra",
        "in"
      ],
      [
        "Ġcomp",
        "uter"
      ],
      [
        "op",
        "e"
      ],
      [
        "Ġgroup",
        "ed"
      ],
      [
        "Ġpin",
        "ned"
      ],
      [
        "iv",
        "ity"
      ],
      [
        "br",
        "ush"
      ],
      [
        "Ġmus",
        "ic"
      ],
      [
        "Ġsecu",
        "rity"
      ],
      [
        "Ġsyn",
        "chron"
      ],
      [
        "Ġcommun",
        "ication"
      ],
      [
        "Ġnam",
        "ed"
      ],
      [
        "Ġvar",
        "ying"
      ],
      [
        "Ġpaint",
        "brush"
      ],
      [
        "Ġfunctional",
        "ity"
      ],
      [
        "k",
        "ed"
      ],
      [
        "l",
        "ation"
      ],
      [
        "o",
        "om"
      ],
      [
        "t",
        "op"
      ],
      [
        "or",
        "s"
      ],
      [
        "Ġs",
        "ide"
      ],
      [
        "Ġin",
        "it"
      ],
      [
        "Ġw",
        "ork"
      ],
      [
        "Ġb",
        "en"
      ],
      [
        "Ġb",
        "od"
      ],
      [
        "Ġb",
        "order"
      ],
      [
        "Ġn",
        "etw"
      ],
      [
        "Ġfor",
        "ec"
      ],
      [
        "Ġsu",
        "r"
      ],
      [
        "Ġinter",
        "sect"
      ],
      [
        "ĠUI",
        "s"
      ],
      [
        "Ġh",
        "ouse"
      ],
      [
        "old",
        "er"
      ],
      [
        "Ġexpand",
        "ed"
      ],
      [
        "Ġdis",
        "cu"
      ],
      [
        "Ġserv",
        "es"
      ],
      [
        "Ġsc",
        "ope"
      ],
      [
        "Ġsub",
        "sc"
      ],
      [
        "Ġqu",
        "ick"
      ],
      [
        "Ġdire",
        "ction"
      ],
      [
        "Ġent",
        "ries"
      ],
      [
        "Ġge",
        "ograph"
      ],
      [
        "Ġpoin",
        "t"
      ],
      [
        "Ġke",
        "y"
      ],
      [
        "color",
        "ed"
      ],
      [
        "Ġdeplo",
        "yment"
      ],
      [
        "Ġcondition",
        "s"
      ],
      [
        "Ġben",
        "eath"
      ],
      [
        "Ġbod",
        "y"
      ],
      [
        "Ġnetw",
        "ork"
      ],
      [
        "Ġforec",
        "ast"
      ],
      [
        "Ġintersect",
        "ing"
      ],
      [
        "c",
        "he"
      ],
      [
        "h",
        "older"
      ],
      [
        "v",
        "al"
      ],
      [
        "Ġ",
        "O"
      ],
      [
        "at",
        "ive"
      ],
      [
        "Ġt",
        "as"
      ],
      [
        "Ġw",
        "ar"
      ],
      [
        "le",
        "ft"
      ],
      [
        "Ġre",
        "qu"
      ],
      [
        "Ġb",
        "ase"
      ],
      [
        "he",
        "re"
      ],
      [
        "Ġm",
        "e"
      ],
      [
        "Ġrep",
        "os"
      ],
      [
        "om",
        "pan"
      ],
      [
        "os",
        "ing"
      ],
      [
        "Ġacc",
        "es"
      ],
      [
        "Ġacc",
        "ompan"
      ],
      [
        "Ġhe",
        "ight"
      ],
      [
        "Ġserv",
        "ice"
      ],
      [
        "Ġplace",
        "holder"
      ],
      [
        "Ġte",
        "al"
      ],
      [
        "lam",
        "ation"
      ],
      [
        "Ġexc",
        "lamation"
      ],
      [
        "Ġsynchron",
        "ization"
      ],
      [
        "Ġinit",
        "i"
      ],
      [
        "Ġwar",
        "ning"
      ],
      [
        "c",
        "il"
      ],
      [
        "d",
        "io"
      ],
      [
        "m",
        "in"
      ],
      [
        "o",
        "ot"
      ],
      [
        "r",
        "in"
      ],
      [
        "v",
        "ir"
      ],
      [
        "Ġa",
        "b"
      ],
      [
        "on",
        "ment"
      ],
      [
        "re",
        "ss"
      ],
      [
        "Ġp",
        "ad"
      ],
      [
        "ac",
        "h"
      ],
      [
        "an",
        "sion"
      ],
      [
        "ir",
        "m"
      ],
      [
        "Ġexp",
        "ansion"
      ],
      [
        "if",
        "y"
      ],
      [
        "Ġcl",
        "ip"
      ],
      [
        "able",
        "d"
      ],
      [
        "Ġde",
        "f"
      ],
      [
        "Ġsp",
        "orts"
      ],
      [
        "Ġman",
        "ag"
      ],
      [
        "Ġhe",
        "art"
      ],
      [
        "Ġtriangle",
        "s"
      ],
      [
        "Ġsuggest",
        "ed"
      ],
      [
        "Ġtool",
        "s"
      ],
      [
        "Ġcorner",
        "s"
      ],
      [
        "am",
        "e"
      ],
      [
        "Ġen",
        "c"
      ],
      [
        "Ġen",
        "vir"
      ],
      [
        "Ġra",
        "dio"
      ],
      [
        "Ġcateg",
        "oriz"
      ],
      [
        "Ġim",
        "port"
      ],
      [
        "Ġ2",
        "1"
      ],
      [
        "Ġz",
        "oom"
      ],
      [
        "Ġelement",
        "s"
      ],
      [
        "Ġres",
        "our"
      ],
      [
        "Ġ1",
        "3"
      ],
      [
        "Ġsav",
        "ed"
      ],
      [
        "Ġmulti",
        "ple"
      ],
      [
        "Ġpen",
        "cil"
      ],
      [
        "Ġdraw",
        "ing"
      ],
      [
        "Ġrepl",
        "ies"
      ],
      [
        "Ġdiscu",
        "ssion"
      ],
      [
        "Ġgeograph",
        "ic"
      ],
      [
        "Ġtas",
        "k"
      ],
      [
        "Ġacces",
        "sed"
      ],
      [
        "Ġenvir",
        "onment"
      ],
      [
        "u",
        "ble"
      ],
      [
        "v",
        "en"
      ],
      [
        "y",
        "th"
      ],
      [
        "Ġli",
        "br"
      ],
      [
        "Ġp",
        "er"
      ],
      [
        "ro",
        "ss"
      ],
      [
        "Ġst",
        "ore"
      ],
      [
        "round",
        "ing"
      ],
      [
        "Ġdo",
        "uble"
      ],
      [
        "Ġbutton",
        "s"
      ],
      [
        "Ġdocument",
        "s"
      ],
      [
        "Ġsp",
        "here"
      ],
      [
        "Ġcur",
        "led"
      ],
      [
        "Ġhe",
        "x"
      ],
      [
        "Ġform",
        "ing"
      ],
      [
        "Ġconf",
        "irm"
      ],
      [
        "Ġqu",
        "er"
      ],
      [
        "ib",
        "ility"
      ],
      [
        "Ġmess",
        "age"
      ],
      [
        "Ġtr",
        "ans"
      ],
      [
        "Ġlink",
        "ed"
      ],
      [
        "um",
        "n"
      ],
      [
        "Ġsl",
        "ide"
      ],
      [
        "Ġpoin",
        "ts"
      ],
      [
        "Ġann",
        "ot"
      ],
      [
        "Ġintera",
        "ction"
      ],
      [
        "Ġhigh",
        "light"
      ],
      [
        "Ġdism",
        "iss"
      ],
      [
        "Ġsur",
        "rounding"
      ],
      [
        "Ġclip",
        "board"
      ],
      [
        "Ġmanag",
        "ed"
      ],
      [
        "yth",
        "on"
      ],
      [
        "Ġlibr",
        "ary"
      ],
      [
        "a",
        "k"
      ],
      [
        "a",
        "nt"
      ],
      [
        "a",
        "ult"
      ],
      [
        "p",
        "er"
      ],
      [
        "Ġt",
        "ag"
      ],
      [
        "ic",
        "ture"
      ],
      [
        "Ġs",
        "lash"
      ],
      [
        "Ġm",
        "uted"
      ],
      [
        "Ġp",
        "ap"
      ],
      [
        "Ġo",
        "b"
      ],
      [
        "en",
        "sion"
      ],
      [
        "Ġst",
        "ep"
      ],
      [
        "Ġsh",
        "ort"
      ],
      [
        "is",
        "h"
      ],
      [
        "Ġcon",
        "ver"
      ],
      [
        "ind",
        "rop"
      ],
      [
        "Ġcloud",
        "y"
      ],
      [
        "Ġsc",
        "ript"
      ],
      [
        "Ġra",
        "indrop"
      ],
      [
        "Ġmess",
        "ages"
      ],
      [
        "Ġbo",
        "x"
      ],
      [
        "ĠP",
        "ython"
      ],
      [
        "Ġsubm",
        "enu"
      ],
      [
        "Ġorgan",
        "izing"
      ],
      [
        "Ġbel",
        "l"
      ],
      [
        "pl",
        "ified"
      ],
      [
        "Ġpartial",
        "ly"
      ],
      [
        "Ġcap",
        "ital"
      ],
      [
        "Ġfram",
        "e"
      ],
      [
        "over",
        "ing"
      ],
      [
        "Ġpri",
        "or"
      ],
      [
        "oot",
        "h"
      ],
      [
        "Ġpad",
        "lock"
      ],
      [
        "Ġhex",
        "agonal"
      ],
      [
        "G",
        "o"
      ],
      [
        "i",
        "eld"
      ],
      [
        "o",
        "st"
      ],
      [
        "p",
        "en"
      ],
      [
        "s",
        "or"
      ],
      [
        "Ġ",
        "("
      ],
      [
        "Ġa",
        "ct"
      ],
      [
        "Ġt",
        "ip"
      ],
      [
        "Ġc",
        "at"
      ],
      [
        "Ġin",
        "ner"
      ],
      [
        "Ġm",
        "ar"
      ],
      [
        "ac",
        "ed"
      ],
      [
        "ig",
        "e"
      ],
      [
        "Ġsim",
        "plified"
      ],
      [
        "Ġop",
        "p"
      ],
      [
        "Ġth",
        "in"
      ],
      [
        "ut",
        "e"
      ],
      [
        "la",
        "b"
      ],
      [
        "Ġh",
        "overing"
      ],
      [
        "Ġexp",
        "orting"
      ],
      [
        "ad",
        "ata"
      ],
      [
        "Ġcol",
        "umn"
      ],
      [
        "Ġsection",
        "s"
      ],
      [
        "Ġbe",
        "ige"
      ],
      [
        "Ġout",
        "put"
      ],
      [
        "Ġe",
        "as"
      ],
      [
        "Ġcolor",
        "ful"
      ],
      [
        "Ġvisual",
        "ly"
      ],
      [
        "Ġpart",
        "ly"
      ],
      [
        "Ġmod",
        "e"
      ],
      [
        "Ġshare",
        "d"
      ],
      [
        "Ġmus",
        "ical"
      ],
      [
        "ĠW",
        "ik"
      ],
      [
        "Ġfavorit",
        "ed"
      ],
      [
        "Ġmet",
        "adata"
      ],
      [
        "Ġkey",
        "board"
      ],
      [
        "che",
        "s"
      ],
      [
        "Ġdef",
        "ault"
      ],
      [
        "Ġob",
        "ject"
      ],
      [
        "f",
        "f"
      ],
      [
        "g",
        "et"
      ],
      [
        "l",
        "it"
      ],
      [
        "m",
        "m"
      ],
      [
        "r",
        "ical"
      ],
      [
        "t",
        "ip"
      ],
      [
        "Ġ",
        "F"
      ],
      [
        "at",
        "or"
      ],
      [
        "re",
        "ad"
      ],
      [
        "it",
        "ory"
      ],
      [
        "Ġor",
        "d"
      ],
      [
        "Ġd",
        "ate"
      ],
      [
        "le",
        "ct"
      ],
      [
        "Ġb",
        "es"
      ],
      [
        "es",
        "t"
      ],
      [
        "ol",
        "low"
      ],
      [
        "Ġth",
        "is"
      ],
      [
        "Ġsh",
        "ield"
      ],
      [
        "ment",
        "s"
      ],
      [
        "Ġinterf",
        "aces"
      ],
      [
        "et",
        "h"
      ],
      [
        "Ġhorizontal",
        "ly"
      ],
      [
        "Ġmin",
        "us"
      ],
      [
        "Ġnavig",
        "ating"
      ],
      [
        "Ġpro",
        "v"
      ],
      [
        "Ġpro",
        "te"
      ],
      [
        "Ġsp",
        "lit"
      ],
      [
        "Ġcur",
        "sor"
      ],
      [
        "sh",
        "ip"
      ],
      [
        "Ġtool",
        "tip"
      ],
      [
        "Ġdark",
        "er"
      ],
      [
        "Ġdi",
        "agonal"
      ],
      [
        "Ġdownload",
        "ing"
      ],
      [
        "Ġmo",
        "on"
      ],
      [
        "Ġcheck",
        "box"
      ],
      [
        "Ġupd",
        "ates"
      ],
      [
        "âĢ",
        "Ļ"
      ],
      [
        "Ġmod",
        "el"
      ],
      [
        "Ġmonitor",
        "ing"
      ],
      [
        "Ġund",
        "o"
      ],
      [
        "Ġsl",
        "ight"
      ],
      [
        "Ġalign",
        "ed"
      ],
      [
        "Ġapply",
        "ing"
      ],
      [
        "Ġsav",
        "ing"
      ],
      [
        "Ġfeed",
        "back"
      ],
      [
        "Ġfo",
        "x"
      ],
      [
        "Ġcollaps",
        "ible"
      ],
      [
        "Ġlog",
        "o"
      ],
      [
        "Ġrepos",
        "itory"
      ],
      [
        "Ġpap",
        "er"
      ],
      [
        "Ġopp",
        "osing"
      ],
      [
        "Ġcolumn",
        "s"
      ],
      [
        "Ġeas",
        "y"
      ],
      [
        "Ġbes",
        "ide"
      ],
      [
        "Ġprote",
        "ction"
      ],
      [
        "a",
        "un"
      ],
      [
        "g",
        "th"
      ],
      [
        "l",
        "uet"
      ],
      [
        "o",
        "ple"
      ],
      [
        "r",
        "or"
      ],
      [
        "s",
        "p"
      ],
      [
        "u",
        "g"
      ],
      [
        "y",
        "te"
      ],
      [
        "Ġ",
        "er"
      ],
      [
        "Ġs",
        "n"
      ],
      [
        "Ġs",
        "ound"
      ],
      [
        "Ġc",
        "o"
      ],
      [
        "Ġc",
        "ut"
      ],
      [
        "Ġl",
        "aun"
      ],
      [
        "Ġf",
        "in"
      ],
      [
        "Ġre",
        "st"
      ],
      [
        "Ġre",
        "lation"
      ],
      [
        "Ġli",
        "d"
      ],
      [
        "Ġp",
        "ower"
      ],
      [
        "Ġof",
        "f"
      ],
      [
        "et",
        "rical"
      ],
      [
        "cc",
        "ess"
      ],
      [
        "Ġsy",
        "mm"
      ],
      [
        "Ġnumb",
        "ered"
      ],
      [
        "Ġfeature",
        "s"
      ],
      [
        "Ġloc",
        "al"
      ],
      [
        "Ġstar",
        "ting"
      ],
      [
        "rip",
        "tion"
      ],
      [
        "ram",
        "s"
      ],
      [
        "Ġallow",
        "ing"
      ],
      [
        "Ġorgan",
        "ize"
      ],
      [
        "ĠB",
        "luet"
      ],
      [
        "fe",
        "ren"
      ],
      [
        "Ġprec",
        "ed"
      ],
      [
        "Ġrequ",
        "ire"
      ],
      [
        "Ġprior",
        "it"
      ],
      [
        "Ġcat",
        "alog"
      ],
      [
        "Ġslight",
        "ly"
      ],
      [
        "Ġrelation",
        "ship"
      ],
      [
        "Ġsymm",
        "etrical"
      ],
      [
        "ĠBluet",
        "ooth"
      ],
      [
        "\"",
        ","
      ],
      [
        ",",
        "\""
      ],
      [
        "a",
        "ctive"
      ],
      [
        "c",
        "ing"
      ],
      [
        "f",
        "er"
      ],
      [
        "f",
        "low"
      ],
      [
        "i",
        "ly"
      ],
      [
        "at",
        "h"
      ],
      [
        "Ġs",
        "ix"
      ],
      [
        "Ġc",
        "am"
      ],
      [
        "Ġin",
        "cre"
      ],
      [
        "Ġin",
        "active"
      ],
      [
        "Ġf",
        "low"
      ],
      [
        "er",
        "a"
      ],
      [
        "al",
        "le"
      ],
      [
        "Ġm",
        "ain"
      ],
      [
        "Ġp",
        "icture"
      ],
      [
        "Ġsh",
        "ad"
      ],
      [
        "Ġex",
        "ec"
      ],
      [
        "Ġcol",
        "lab"
      ],
      [
        "Ġe",
        "ach"
      ],
      [
        "Ġis",
        "s"
      ],
      [
        "Ġdi",
        "alog"
      ],
      [
        "Ġlabel",
        "s"
      ],
      [
        "as",
        "ing"
      ],
      [
        "Ġplay",
        "back"
      ],
      [
        "Ġstor",
        "ed"
      ],
      [
        "Ġcre",
        "sc"
      ],
      [
        "Ġgroup",
        "ing"
      ],
      [
        "Ġrow",
        "s"
      ],
      [
        "Ġte",
        "eth"
      ],
      [
        "Ġlen",
        "gth"
      ],
      [
        "Ġrec",
        "ord"
      ],
      [
        "Ġke",
        "ep"
      ],
      [
        "Ġpar",
        "alle"
      ],
      [
        "Ġtim",
        "e"
      ],
      [
        "Ġpa",
        "ir"
      ],
      [
        "Ġpe",
        "ople"
      ],
      [
        "ched",
        "u"
      ],
      [
        "Ġrain",
        "y"
      ],
      [
        "Ġsubsc",
        "ription"
      ],
      [
        "Ġiniti",
        "ating"
      ],
      [
        "Ġresour",
        "ce"
      ],
      [
        "Ġannot",
        "ation"
      ],
      [
        "Ġrequire",
        "s"
      ],
      [
        "Ġcam",
        "era"
      ],
      [
        "Ġcollab",
        "or"
      ],
      [
        "Ġcresc",
        "ent"
      ],
      [
        "S",
        "t"
      ],
      [
        "e",
        "ren"
      ],
      [
        "k",
        "top"
      ],
      [
        "o",
        "se"
      ],
      [
        "r",
        "ont"
      ],
      [
        "v",
        "ent"
      ],
      [
        "z",
        "e"
      ],
      [
        "Ġ",
        "7"
      ],
      [
        "Ġ",
        "R"
      ],
      [
        "Ġs",
        "chedu"
      ],
      [
        "Ġc",
        "le"
      ],
      [
        "Ġc",
        "op"
      ],
      [
        "Ġf",
        "ree"
      ],
      [
        "Ġb",
        "as"
      ],
      [
        "Ġb",
        "ased"
      ],
      [
        "Ġm",
        "er"
      ],
      [
        "Ġp",
        "ost"
      ],
      [
        "Ġg",
        "u"
      ],
      [
        "Ġn",
        "eed"
      ],
      [
        "Ġse",
        "nd"
      ],
      [
        "ter",
        "s"
      ],
      [
        "Ġbl",
        "oc"
      ],
      [
        "Ġgra",
        "ph"
      ],
      [
        "ir",
        "ling"
      ],
      [
        "Ġadd",
        "ing"
      ],
      [
        "Ġchevron",
        "s"
      ],
      [
        "ri",
        "ve"
      ],
      [
        "Ġexpand",
        "s"
      ],
      [
        "Ġapp",
        "ro"
      ],
      [
        "Ġbe",
        "h"
      ],
      [
        "Ġnumber",
        "s"
      ],
      [
        "Ġch",
        "at"
      ],
      [
        "Ġsc",
        "iss"
      ],
      [
        "ul",
        "b"
      ],
      [
        "Ġdownload",
        "able"
      ],
      [
        "Ġloc",
        "ked"
      ],
      [
        "Ġrectangle",
        "s"
      ],
      [
        "Ġopen",
        "s"
      ],
      [
        "ph",
        "one"
      ],
      [
        "Ġdisplay",
        "ed"
      ],
      [
        "Ġlay",
        "er"
      ],
      [
        "Ġsw",
        "irling"
      ],
      [
        "Ġpin",
        "k"
      ],
      [
        "Ġcomm",
        "and"
      ],
      [
        "Ġrever",
        "t"
      ],
      [
        "Ġrever",
        "sed"
      ],
      [
        "ĠB",
        "la"
      ],
      [
        "Ġbran",
        "ching"
      ],
      [
        "Ġaler",
        "ts"
      ],
      [
        "Ġlo",
        "op"
      ],
      [
        "Ġprog",
        "ress"
      ],
      [
        "Ġtra",
        "sh"
      ],
      [
        "Ġval",
        "ues"
      ],
      [
        "Ġsubt",
        "le"
      ],
      [
        "Ġread",
        "y"
      ],
      [
        "Ġwork",
        "flow"
      ],
      [
        "Ġper",
        "form"
      ],
      [
        "Ġinteraction",
        "s"
      ],
      [
        "Ġbas",
        "ket"
      ],
      [
        "Ġsciss",
        "ors"
      ],
      [
        "S",
        "h"
      ],
      [
        "a",
        "ss"
      ],
      [
        "b",
        "ulb"
      ],
      [
        "i",
        "ed"
      ],
      [
        "i",
        "er"
      ],
      [
        "l",
        "ish"
      ],
      [
        "o",
        "ice"
      ],
      [
        "u",
        "lar"
      ],
      [
        "x",
        "ed"
      ],
      [
        "Ġ",
        "V"
      ],
      [
        "Ġa",
        "g"
      ],
      [
        "or",
        "ies"
      ],
      [
        "se",
        "n"
      ],
      [
        "se",
        "lect"
      ],
      [
        "Ġt",
        "em"
      ],
      [
        "Ġs",
        "oci"
      ],
      [
        "Ġs",
        "ale"
      ],
      [
        "Ġs",
        "ave"
      ],
      [
        "Ġc",
        "ross"
      ],
      [
        "Ġin",
        "f"
      ],
      [
        "Ġw",
        "ire"
      ],
      [
        "le",
        "ss"
      ],
      [
        "Ġf",
        "ig"
      ],
      [
        "Ġf",
        "lap"
      ],
      [
        "Ġb",
        "all"
      ],
      [
        "Ġp",
        "ack"
      ],
      [
        "Ġp",
        "ointed"
      ],
      [
        "en",
        "er"
      ],
      [
        "an",
        "c"
      ],
      [
        "oin",
        "t"
      ],
      [
        "st",
        "ract"
      ],
      [
        "Ġst",
        "art"
      ],
      [
        "Ġsu",
        "ccess"
      ],
      [
        "ve",
        "red"
      ],
      [
        "Ġv",
        "ol"
      ],
      [
        "Ġv",
        "oice"
      ],
      [
        "Ġfi",
        "xed"
      ],
      [
        "il",
        "ing"
      ],
      [
        "Ġtyp",
        "e"
      ],
      [
        "Ġapp",
        "s"
      ],
      [
        "Ġcon",
        "e"
      ],
      [
        "Ġlight",
        "bulb"
      ],
      [
        "ect",
        "ed"
      ],
      [
        "Ġdis",
        "k"
      ],
      [
        "Ġedit",
        "ed"
      ],
      [
        "Ġpre",
        "feren"
      ],
      [
        "am",
        "p"
      ],
      [
        "Ġen",
        "abled"
      ],
      [
        "Ġbr",
        "own"
      ],
      [
        "Ġhandle",
        "s"
      ],
      [
        "Ġcurrent",
        "ly"
      ],
      [
        "Ġrec",
        "ent"
      ],
      [
        "Ġbran",
        "ches"
      ],
      [
        "Ġab",
        "stract"
      ],
      [
        "Ġenc",
        "lo"
      ],
      [
        "Ġquer",
        "ies"
      ],
      [
        "Ġord",
        "er"
      ],
      [
        "Ġprov",
        "ide"
      ],
      [
        "Ġbloc",
        "k"
      ],
      [
        "Ġbeh",
        "ind"
      ],
      [
        "Ġsoci",
        "al"
      ],
      [
        "Ġsale",
        "s"
      ],
      [
        "Ġwire",
        "less"
      ],
      [
        "Ġfig",
        "ure"
      ],
      [
        "Ġsuccess",
        "ful"
      ],
      [
        "B",
        "yte"
      ],
      [
        "P",
        "oint"
      ],
      [
        "c",
        "l"
      ],
      [
        "c",
        "ket"
      ],
      [
        "d",
        "uct"
      ],
      [
        "g",
        "rams"
      ],
      [
        "g",
        "lish"
      ],
      [
        "l",
        "d"
      ],
      [
        "n",
        "glish"
      ],
      [
        "s",
        "u"
      ],
      [
        "s",
        "is"
      ],
      [
        "t",
        "es"
      ],
      [
        "Ġ",
        "G"
      ],
      [
        "Ġ",
        "I"
      ],
      [
        "Ġ",
        "L"
      ],
      [
        "Ġ",
        "T"
      ],
      [
        "Ġ",
        "X"
      ],
      [
        "in",
        "u"
      ],
      [
        "on",
        "ent"
      ],
      [
        "se",
        "s"
      ],
      [
        "Ġt",
        "ail"
      ],
      [
        "re",
        "ssion"
      ],
      [
        "Ġd",
        "ist"
      ],
      [
        "Ġl",
        "and"
      ],
      [
        "Ġto",
        "get"
      ],
      [
        "ke",
        "ting"
      ],
      [
        "Ġm",
        "ay"
      ],
      [
        "Ġp",
        "rin"
      ],
      [
        "Ġg",
        "low"
      ],
      [
        "Ġg",
        "iv"
      ],
      [
        "Ġsu",
        "ite"
      ],
      [
        "tion",
        "s"
      ],
      [
        "Ġcom",
        "b"
      ],
      [
        "ation",
        "s"
      ],
      [
        "lo",
        "grams"
      ],
      [
        "Ġh",
        "um"
      ],
      [
        "Ġindicator",
        "s"
      ],
      [
        "ap",
        "e"
      ],
      [
        "Ġstyl",
        "ing"
      ],
      [
        "Ġpro",
        "per"
      ],
      [
        "Ġsp",
        "aced"
      ],
      [
        "Ġselect",
        "able"
      ],
      [
        "Ġe",
        "nd"
      ],
      [
        "Ġe",
        "ven"
      ],
      [
        "Ġspe",
        "ed"
      ],
      [
        "Ġspe",
        "ak"
      ],
      [
        "Ġsilhouet",
        "tes"
      ],
      [
        "Ġstor",
        "ing"
      ],
      [
        "Ġref",
        "eren"
      ],
      [
        "Ġweb",
        "s"
      ],
      [
        "Ġcre",
        "ating"
      ],
      [
        "Ġ2",
        "0"
      ],
      [
        "sc",
        "ape"
      ],
      [
        "Ġexplor",
        "ation"
      ],
      [
        "Ġdiamond",
        "s"
      ],
      [
        "ĠS",
        "t"
      ],
      [
        "Ġpar",
        "ame"
      ],
      [
        "Ġtim",
        "est"
      ],
      [
        "Ġfavorit",
        "es"
      ],
      [
        "ĠE",
        "nglish"
      ],
      [
        "Ġinser",
        "ting"
      ],
      [
        "Ġconfirm",
        "ed"
      ],
      [
        "Ġmar",
        "keting"
      ],
      [
        "Ġoff",
        "set"
      ],
      [
        "Ġlength",
        "s"
      ],
      [
        "Ġparalle",
        "lograms"
      ],
      [
        "Ġneed",
        "le"
      ],
      [
        "Ġperform",
        "ance"
      ],
      [
        "select",
        "ed"
      ],
      [
        "Ġenclo",
        "sed"
      ],
      [
        "su",
        "gges"
      ],
      [
        "Ġland",
        "scape"
      ],
      [
        "Ġtoget",
        "her"
      ],
      [
        "Ġproper",
        "t"
      ],
      [
        "Ġeven",
        "ly"
      ],
      [
        "Ġparame",
        "ters"
      ],
      [
        "Ġtimest",
        "amp"
      ],
      [
        "'",
        ","
      ],
      [
        "C",
        "D"
      ],
      [
        "C",
        "ont"
      ],
      [
        "H",
        "ome"
      ],
      [
        "T",
        "he"
      ],
      [
        "a",
        "pp"
      ],
      [
        "a",
        "pping"
      ],
      [
        "d",
        "ge"
      ],
      [
        "g",
        "h"
      ],
      [
        "k",
        "n"
      ],
      [
        "m",
        "i"
      ],
      [
        "m",
        "ing"
      ],
      [
        "o",
        "ol"
      ],
      [
        "o",
        "us"
      ],
      [
        "v",
        "es"
      ],
      [
        "w",
        "el"
      ],
      [
        "Ġ",
        "i"
      ],
      [
        "Ġa",
        "w"
      ],
      [
        "Ġa",
        "ir"
      ],
      [
        "at",
        "ch"
      ],
      [
        "Ġt",
        "wel"
      ],
      [
        "Ġs",
        "k"
      ],
      [
        "Ġs",
        "ort"
      ],
      [
        "Ġc",
        "al"
      ],
      [
        "Ġw",
        "av"
      ],
      [
        "Ġf",
        "l"
      ],
      [
        "Ġf",
        "ace"
      ],
      [
        "Ġf",
        "ound"
      ],
      [
        "Ġre",
        "ce"
      ],
      [
        "Ġp",
        "ick"
      ],
      [
        "Ġp",
        "ast"
      ],
      [
        "ro",
        "ke"
      ],
      [
        "im",
        "ension"
      ],
      [
        "own",
        "load"
      ],
      [
        "ra",
        "st"
      ],
      [
        "Ġop",
        "er"
      ],
      [
        "Ġst",
        "roke"
      ],
      [
        "ag",
        "raph"
      ],
      [
        "rou",
        "gh"
      ],
      [
        "Ġh",
        "as"
      ],
      [
        "Ġh",
        "ollow"
      ],
      [
        "et",
        "ch"
      ],
      [
        "Ġan",
        "ot"
      ],
      [
        "Ġview",
        "s"
      ],
      [
        "Ġpro",
        "t"
      ],
      [
        "Ġbe",
        "en"
      ],
      [
        "ount",
        "ain"
      ],
      [
        "Ġch",
        "ang"
      ],
      [
        "Ġcomp",
        "ass"
      ],
      [
        "Ġcomp",
        "onent"
      ],
      [
        "Ġconnect",
        "ivity"
      ],
      [
        "Ġbr",
        "ight"
      ],
      [
        "Ġplay",
        "ed"
      ],
      [
        "Ġtr",
        "ack"
      ],
      [
        "ĠC",
        "I"
      ],
      [
        "Ġat",
        "t"
      ],
      [
        "Ġlangu",
        "ages"
      ],
      [
        "Ġlink",
        "ing"
      ],
      [
        "ĠP",
        "ower"
      ],
      [
        "Ġanaly",
        "sis"
      ],
      [
        "Ġdev",
        "ices"
      ],
      [
        "Ġdot",
        "ted"
      ],
      [
        "Ġrever",
        "se"
      ],
      [
        "Ġmult",
        "iling"
      ],
      [
        "Ġdele",
        "tion"
      ],
      [
        "Ġstyle",
        "s"
      ],
      [
        "Ġun",
        "selected"
      ],
      [
        "aller",
        "y"
      ],
      [
        "ĠW",
        "ord"
      ],
      [
        "Ġpar",
        "agraph"
      ],
      [
        "Ġcustom",
        "ers"
      ],
      [
        "Ġro",
        "cket"
      ],
      [
        "Ġthem",
        "e"
      ],
      [
        "Ġcollaps",
        "ing"
      ],
      [
        "ĠE",
        "dge"
      ],
      [
        "Ġinser",
        "t"
      ],
      [
        "Ġval",
        "ue"
      ],
      [
        "Ġcho",
        "ices"
      ],
      [
        "Ġswit",
        "ching"
      ],
      [
        "Ġheight",
        "s"
      ],
      [
        "Ġcategoriz",
        "ed"
      ],
      [
        "Ġlaun",
        "ch"
      ],
      [
        "Ġpriorit",
        "ization"
      ],
      [
        "Ġgu",
        "id"
      ],
      [
        "ĠBla",
        "ze"
      ],
      [
        "Ġpreferen",
        "ces"
      ],
      [
        "inu",
        "ous"
      ],
      [
        "Ġdist",
        "rib"
      ],
      [
        "Ġspeak",
        "er"
      ],
      [
        "Ġreferen",
        "ce"
      ],
      [
        "Ġwebs",
        "ite"
      ],
      [
        "Ġpropert",
        "ies"
      ],
      [
        "Cont",
        "inuous"
      ],
      [
        "Ġtwel",
        "ve"
      ],
      [
        "Ġcal",
        "cu"
      ],
      [
        "Ġanot",
        "her"
      ],
      [
        "ĠPower",
        "Point"
      ],
      [
        "Ġmultiling",
        "ual"
      ],
      [
        "1",
        "1"
      ],
      [
        "1",
        "3"
      ],
      [
        "C",
        "re"
      ],
      [
        "C",
        "lo"
      ],
      [
        "S",
        "e"
      ],
      [
        "T",
        "ool"
      ],
      [
        "a",
        "ke"
      ],
      [
        "b",
        "ase"
      ],
      [
        "d",
        "imension"
      ],
      [
        "g",
        "r"
      ],
      [
        "g",
        "ing"
      ],
      [
        "k",
        "ing"
      ],
      [
        "l",
        "ic"
      ],
      [
        "m",
        "st"
      ],
      [
        "n",
        "e"
      ],
      [
        "n",
        "i"
      ],
      [
        "p",
        "t"
      ],
      [
        "p",
        "ar"
      ],
      [
        "s",
        "ing"
      ],
      [
        "u",
        "nd"
      ],
      [
        "u",
        "tion"
      ],
      [
        "Ġ",
        "5"
      ],
      [
        "ing",
        "le"
      ],
      [
        "it",
        "ation"
      ],
      [
        "Ġs",
        "he"
      ],
      [
        "Ġs",
        "orting"
      ],
      [
        "Ġs",
        "ingle"
      ],
      [
        "Ġd",
        "if"
      ],
      [
        "Ġl",
        "ar"
      ],
      [
        "Ġf",
        "all"
      ],
      [
        "Ġb",
        "ag"
      ],
      [
        "he",
        "ad"
      ],
      [
        "Ġdata",
        "base"
      ],
      [
        "Ġm",
        "ac"
      ],
      [
        "Ġm",
        "ix"
      ],
      [
        "Ġm",
        "apping"
      ],
      [
        "Ġm",
        "ountain"
      ],
      [
        "Ġp",
        "ub"
      ],
      [
        "Ġg",
        "ener"
      ],
      [
        "Ġg",
        "allery"
      ],
      [
        "en",
        "n"
      ],
      [
        "Ġse",
        "par"
      ],
      [
        "Ġbl",
        "ad"
      ],
      [
        "Ġth",
        "rough"
      ],
      [
        "Ġh",
        "ier"
      ],
      [
        "Ġar",
        "c"
      ],
      [
        "ri",
        "e"
      ],
      [
        "Ġreveal",
        "ing"
      ],
      [
        "Ġminim",
        "ize"
      ],
      [
        "Ġr",
        "ing"
      ],
      [
        "Ġpro",
        "duct"
      ],
      [
        "bo",
        "ok"
      ],
      [
        "ce",
        "nding"
      ],
      [
        "Ġe",
        "qu"
      ],
      [
        "Ġe",
        "ff"
      ],
      [
        "Ġserv",
        "ices"
      ],
      [
        "Ġle",
        "vel"
      ],
      [
        "Ġfil",
        "mst"
      ],
      [
        "Ġsc",
        "ore"
      ],
      [
        "Ġmark",
        "er"
      ],
      [
        "Ġcontain",
        "s"
      ],
      [
        "Ġsign",
        "al"
      ],
      [
        "Ġwhe",
        "el"
      ],
      [
        "Ġshap",
        "ed"
      ],
      [
        "Ġproject",
        "s"
      ],
      [
        "Ġdes",
        "ktop"
      ],
      [
        "Ġim",
        "ages"
      ],
      [
        "Ġupd",
        "ated"
      ],
      [
        "Ġperson",
        "al"
      ],
      [
        "Ġmod",
        "ify"
      ],
      [
        "um",
        "e"
      ],
      [
        "Ġoutward",
        "s"
      ],
      [
        "lock",
        "ing"
      ],
      [
        "fe",
        "rent"
      ],
      [
        "Ġfo",
        "ot"
      ],
      [
        "Ġprog",
        "ram"
      ],
      [
        "Ġunder",
        "line"
      ],
      [
        "Ġfram",
        "es"
      ],
      [
        "Ġsubt",
        "ract"
      ],
      [
        "Ġswit",
        "ch"
      ],
      [
        "Ġact",
        "ivity"
      ],
      [
        "Ġer",
        "ror"
      ],
      [
        "Ġincre",
        "asing"
      ],
      [
        "Ġshad",
        "ow"
      ],
      [
        "Ġschedu",
        "ling"
      ],
      [
        "Ġmer",
        "ge"
      ],
      [
        "Ġinf",
        "rast"
      ],
      [
        "Ġgiv",
        "en"
      ],
      [
        "Ġhum",
        "an"
      ],
      [
        "Ġi",
        "Clo"
      ],
      [
        "Ġpick",
        "er"
      ],
      [
        "ownload",
        "s"
      ],
      [
        "Ġprot",
        "ected"
      ],
      [
        "Ġguid",
        "ance"
      ],
      [
        "Cre",
        "ate"
      ],
      [
        "Tool",
        "s"
      ],
      [
        "dimension",
        "al"
      ],
      [
        "Ġdif",
        "ferent"
      ],
      [
        "Ġlar",
        "ger"
      ],
      [
        "Ġfall",
        "ing"
      ],
      [
        "Ġblad",
        "es"
      ],
      [
        "Ġhier",
        "arch"
      ],
      [
        "Ġfilmst",
        "rip"
      ],
      [
        "Ġinfrast",
        "ructure"
      ],
      [
        "ĠiClo",
        "ud"
      ],
      [
        "L",
        "L"
      ],
      [
        "M",
        "ap"
      ],
      [
        "O",
        "pen"
      ],
      [
        "S",
        "S"
      ],
      [
        "c",
        "ent"
      ],
      [
        "c",
        "ut"
      ],
      [
        "i",
        "e"
      ],
      [
        "l",
        "l"
      ],
      [
        "p",
        "ple"
      ],
      [
        "s",
        "sed"
      ],
      [
        "y",
        "n"
      ],
      [
        "Ġ",
        "ide"
      ],
      [
        "in",
        "ing"
      ],
      [
        "Ġa",
        "c"
      ],
      [
        "Ġa",
        "round"
      ],
      [
        "Ġt",
        "enn"
      ],
      [
        "re",
        "et"
      ],
      [
        "ic",
        "h"
      ],
      [
        "Ġd",
        "rive"
      ],
      [
        "Ġl",
        "ap"
      ],
      [
        "Ġf",
        "am"
      ],
      [
        "Ġb",
        "in"
      ],
      [
        "al",
        "ic"
      ],
      [
        "icat",
        "ing"
      ],
      [
        "Ġm",
        "at"
      ],
      [
        "Ġm",
        "icro"
      ],
      [
        "ac",
        "ing"
      ],
      [
        "an",
        "e"
      ],
      [
        "Ġse",
        "g"
      ],
      [
        "Ġse",
        "nding"
      ],
      [
        "Ġse",
        "ven"
      ],
      [
        "Ġas",
        "set"
      ],
      [
        "Ġcont",
        "act"
      ],
      [
        "tion",
        "ary"
      ],
      [
        "Ġinter",
        "locking"
      ],
      [
        "Ġit",
        "alic"
      ],
      [
        "Ġh",
        "ues"
      ],
      [
        "is",
        "sion"
      ],
      [
        "pp",
        "er"
      ],
      [
        "pp",
        "et"
      ],
      [
        "ad",
        "min"
      ],
      [
        "ist",
        "ory"
      ],
      [
        "Ġdocument",
        "ation"
      ],
      [
        "Ġr",
        "un"
      ],
      [
        "Ġpro",
        "ce"
      ],
      [
        "Ġde",
        "cre"
      ],
      [
        "Ġaccess",
        "ibility"
      ],
      [
        "ud",
        "s"
      ],
      [
        "Ġal",
        "ph"
      ],
      [
        "Ġdis",
        "c"
      ],
      [
        "Ġcor",
        "al"
      ],
      [
        "Ġcloud",
        "s"
      ],
      [
        "Ġleft",
        "ward"
      ],
      [
        "Ġsc",
        "an"
      ],
      [
        "Ġvis",
        "ibility"
      ],
      [
        "ip",
        "itation"
      ],
      [
        "Ġsil",
        "ver"
      ],
      [
        "Ġnot",
        "es"
      ],
      [
        "Ġsour",
        "ces"
      ],
      [
        "Ġcre",
        "ative"
      ],
      [
        "Ġexpl",
        "ore"
      ],
      [
        "ĠA",
        "r"
      ],
      [
        "Th",
        "is"
      ],
      [
        "pl",
        "ane"
      ],
      [
        "Ġbran",
        "ched"
      ],
      [
        "Ġsecu",
        "re"
      ],
      [
        "Ġsyn",
        "cing"
      ],
      [
        "Ġdenot",
        "es"
      ],
      [
        "ract",
        "ing"
      ],
      [
        "Ġsubmit",
        "ting"
      ],
      [
        "Ġaut",
        "om"
      ],
      [
        "Ġprec",
        "ipitation"
      ],
      [
        "Ġext",
        "racting"
      ],
      [
        "ĠO",
        "pen"
      ],
      [
        "Ġaccompan",
        "ies"
      ],
      [
        "Ġaccompan",
        "ied"
      ],
      [
        "Ġab",
        "ility"
      ],
      [
        "Ġconver",
        "s"
      ],
      [
        "Ġtip",
        "s"
      ],
      [
        "sp",
        "e"
      ],
      [
        "Ġsn",
        "ow"
      ],
      [
        "Ġco",
        "vered"
      ],
      [
        "Ġfin",
        "anc"
      ],
      [
        "St",
        "reet"
      ],
      [
        "ĠR",
        "SS"
      ],
      [
        "Ġcle",
        "ar"
      ],
      [
        "Ġvol",
        "ume"
      ],
      [
        "Ġend",
        "s"
      ],
      [
        "ĠSt",
        "ore"
      ],
      [
        "sugges",
        "ts"
      ],
      [
        "Ġair",
        "plane"
      ],
      [
        "ni",
        "ppet"
      ],
      [
        "Ġmix",
        "ed"
      ],
      [
        "Ġpub",
        "lic"
      ],
      [
        "Ġeff",
        "ect"
      ],
      [
        "Ġfoot",
        "ball"
      ],
      [
        "Ġide",
        "a"
      ],
      [
        "Ġtenn",
        "is"
      ],
      [
        "Ġlap",
        "top"
      ],
      [
        "Ġfam",
        "ily"
      ],
      [
        "Ġmicro",
        "phone"
      ],
      [
        "Ġproce",
        "ed"
      ],
      [
        "ĠOpen",
        "Street"
      ],
      [
        "Ġfinanc",
        "ial"
      ],
      [
        "ĠOpenStreet",
        "Map"
      ],
      [
        "A",
        "r"
      ],
      [
        "E",
        "x"
      ],
      [
        "O",
        "S"
      ],
      [
        "S",
        "H"
      ],
      [
        "a",
        "u"
      ],
      [
        "b",
        "ility"
      ],
      [
        "c",
        "ling"
      ],
      [
        "d",
        "o"
      ],
      [
        "f",
        "la"
      ],
      [
        "f",
        "etch"
      ],
      [
        "g",
        "es"
      ],
      [
        "g",
        "ers"
      ],
      [
        "h",
        "oriz"
      ],
      [
        "l",
        "ator"
      ],
      [
        "m",
        "e"
      ],
      [
        "n",
        "ess"
      ],
      [
        "s",
        "he"
      ],
      [
        "v",
        "iew"
      ],
      [
        "å",
        "Ń"
      ],
      [
        "Ġ",
        "H"
      ],
      [
        "Ġ",
        "j"
      ],
      [
        "Ġ",
        "âĢ"
      ],
      [
        "on",
        "d"
      ],
      [
        "at",
        "ure"
      ],
      [
        "Ġc",
        "ard"
      ],
      [
        "Ġc",
        "la"
      ],
      [
        "Ġc",
        "ase"
      ],
      [
        "Ġd",
        "ig"
      ],
      [
        "Ġf",
        "lo"
      ],
      [
        "Ġf",
        "ront"
      ],
      [
        "Ġre",
        "set"
      ],
      [
        "Ġb",
        "ra"
      ],
      [
        "Ġb",
        "ul"
      ],
      [
        "Ġb",
        "atter"
      ],
      [
        "he",
        "nt"
      ],
      [
        "Ġm",
        "ouse"
      ],
      [
        "Ġp",
        "op"
      ],
      [
        "Ġp",
        "ai"
      ],
      [
        "Ġp",
        "ale"
      ],
      [
        "Ġp",
        "ath"
      ],
      [
        "ting",
        "s"
      ],
      [
        "Ġg",
        "o"
      ],
      [
        "Ġbl",
        "ur"
      ],
      [
        "id",
        "er"
      ],
      [
        "Ġwh",
        "ich"
      ],
      [
        "cu",
        "s"
      ],
      [
        "Ġv",
        "ia"
      ],
      [
        "Ġh",
        "our"
      ],
      [
        "Ġad",
        "min"
      ],
      [
        "is",
        "io"
      ],
      [
        "pp",
        "y"
      ],
      [
        "ab",
        "et"
      ],
      [
        "ab",
        "ling"
      ],
      [
        "Ġcon",
        "cent"
      ],
      [
        "Ġpro",
        "ble"
      ],
      [
        "Ġsp",
        "read"
      ],
      [
        "Ġcur",
        "ly"
      ],
      [
        "Ġclo",
        "sed"
      ],
      [
        "ure",
        "d"
      ],
      [
        "Ġred",
        "u"
      ],
      [
        "Ġe",
        "y"
      ],
      [
        "Ġe",
        "vent"
      ],
      [
        "Ġdis",
        "abled"
      ],
      [
        "Ġcolor",
        "s"
      ],
      [
        "Ġsc",
        "rol"
      ],
      [
        "Ġpre",
        "fer"
      ],
      [
        "Ġtogg",
        "ling"
      ],
      [
        "Ġopen",
        "ing"
      ],
      [
        "Ġpur",
        "ch"
      ],
      [
        "Ġcateg",
        "ories"
      ],
      [
        "Ġfilter",
        "s"
      ],
      [
        "Ġbr",
        "ac"
      ],
      [
        "Ġbr",
        "aces"
      ],
      [
        "Ġlocation",
        "s"
      ],
      [
        "âĢ",
        "Ŀ"
      ],
      [
        "Ġlay",
        "ers"
      ],
      [
        "Ġcomment",
        "s"
      ],
      [
        "Ġappear",
        "ance"
      ],
      [
        "Ġrating",
        "s"
      ],
      [
        "Ġte",
        "am"
      ],
      [
        "Ġtrig",
        "gers"
      ],
      [
        "Ġret",
        "rie"
      ],
      [
        "Ġeditor",
        "s"
      ],
      [
        "Ġavaila",
        "bility"
      ],
      [
        "ire",
        "ction"
      ],
      [
        "Ġlo",
        "ad"
      ],
      [
        "Ġlo",
        "ok"
      ],
      [
        "Ġcustom",
        "ization"
      ],
      [
        "Ġcustom",
        "ize"
      ],
      [
        "Ġident",
        "ify"
      ],
      [
        "Ġprocess",
        "ing"
      ],
      [
        "rib",
        "e"
      ],
      [
        "ik",
        "i"
      ],
      [
        "Ġaut",
        "horiz"
      ],
      [
        "Ġaut",
        "hent"
      ],
      [
        "Ġpreview",
        "ed"
      ],
      [
        "Ġread",
        "ing"
      ],
      [
        "Ġext",
        "ension"
      ],
      [
        "ĠO",
        "ne"
      ],
      [
        "Ġcategoriz",
        "e"
      ],
      [
        "Ġimport",
        "ant"
      ],
      [
        "Ġtask",
        "s"
      ],
      [
        "Ġquer",
        "y"
      ],
      [
        "Ġtrans",
        "fer"
      ],
      [
        "Ġhighlight",
        "ed"
      ],
      [
        "Ġshort",
        "cut"
      ],
      [
        "Ġact",
        "iv"
      ],
      [
        "Ġrest",
        "ric"
      ],
      [
        "Ġexec",
        "ute"
      ],
      [
        "Ġiss",
        "ue"
      ],
      [
        "Ġiss",
        "ues"
      ],
      [
        "Ġcop",
        "y"
      ],
      [
        "ĠV",
        "isio"
      ],
      [
        "Ġpack",
        "age"
      ],
      [
        "Ġglow",
        "ing"
      ],
      [
        "kn",
        "own"
      ],
      [
        "Ġpast",
        "e"
      ],
      [
        "Ġchang",
        "es"
      ],
      [
        "Ġdistrib",
        "ution"
      ],
      [
        "Ġcalcu",
        "lator"
      ],
      [
        "Ġshe",
        "ll"
      ],
      [
        "Ġmac",
        "OS"
      ],
      [
        "Ġgener",
        "ating"
      ],
      [
        "Ġprogram",
        "ming"
      ],
      [
        "Ġhierarch",
        "ical"
      ],
      [
        "Ġac",
        "ross"
      ],
      [
        "Ġseg",
        "ments"
      ],
      [
        "Ġdecre",
        "ase"
      ],
      [
        "Ġalph",
        "abet"
      ],
      [
        "Ġconvers",
        "ation"
      ],
      [
        "Ġsnow",
        "fla"
      ],
      [
        "she",
        "et"
      ],
      [
        "åŃ",
        "Ĺ"
      ],
      [
        "ĠâĢ",
        "ľ"
      ],
      [
        "Ġflo",
        "ppy"
      ],
      [
        "Ġbatter",
        "y"
      ],
      [
        "Ġpai",
        "red"
      ],
      [
        "Ġblur",
        "red"
      ],
      [
        "Ġconcent",
        "ric"
      ],
      [
        "Ġproble",
        "m"
      ],
      [
        "Ġspread",
        "sheet"
      ],
      [
        "Ġprefer",
        "red"
      ],
      [
        "Ġsnowfla",
        "ke"
      ],
      [
        "C",
        "ol"
      ],
      [
        "D",
        "F"
      ],
      [
        "D",
        "e"
      ],
      [
        "D",
        "rop"
      ],
      [
        "E",
        "G"
      ],
      [
        "E",
        "d"
      ],
      [
        "E",
        "LL"
      ],
      [
        "G",
        "et"
      ],
      [
        "L",
        "angu"
      ],
      [
        "M",
        "ore"
      ],
      [
        "Q",
        "u"
      ],
      [
        "S",
        "nippet"
      ],
      [
        "a",
        "f"
      ],
      [
        "a",
        "ir"
      ],
      [
        "b",
        "l"
      ],
      [
        "b",
        "u"
      ],
      [
        "b",
        "ur"
      ],
      [
        "c",
        "ir"
      ],
      [
        "c",
        "ateg"
      ],
      [
        "c",
        "ript"
      ],
      [
        "d",
        "own"
      ],
      [
        "d",
        "ot"
      ],
      [
        "f",
        "ront"
      ],
      [
        "g",
        "ap"
      ],
      [
        "h",
        "one"
      ],
      [
        "i",
        "se"
      ],
      [
        "i",
        "ent"
      ],
      [
        "m",
        "p"
      ],
      [
        "m",
        "ission"
      ],
      [
        "o",
        "un"
      ],
      [
        "s",
        "ight"
      ],
      [
        "t",
        "wo"
      ],
      [
        "t",
        "te"
      ],
      [
        "u",
        "mb"
      ],
      [
        "u",
        "pl"
      ],
      [
        "w",
        "ide"
      ],
      [
        "w",
        "ise"
      ],
      [
        "y",
        "le"
      ],
      [
        "Ġ",
        "N"
      ],
      [
        "or",
        "ld"
      ],
      [
        "at",
        "s"
      ],
      [
        "Ġc",
        "ro"
      ],
      [
        "Ġd",
        "ic"
      ],
      [
        "Ġd",
        "ol"
      ],
      [
        "Ġd",
        "upl"
      ],
      [
        "Ġin",
        "te"
      ],
      [
        "Ġin",
        "vent"
      ],
      [
        "Ġin",
        "cl"
      ],
      [
        "Ġin",
        "sight"
      ],
      [
        "Ġw",
        "ave"
      ],
      [
        "Ġw",
        "iki"
      ],
      [
        "Ġw",
        "orld"
      ],
      [
        "Ġf",
        "aint"
      ],
      [
        "Ġf",
        "ollow"
      ],
      [
        "er",
        "n"
      ],
      [
        "Ġre",
        "m"
      ],
      [
        "ar",
        "row"
      ],
      [
        "ar",
        "vel"
      ],
      [
        "Ġb",
        "id"
      ],
      [
        "al",
        "th"
      ],
      [
        "he",
        "m"
      ],
      [
        "ke",
        "ts"
      ],
      [
        "Ġm",
        "ir"
      ],
      [
        "es",
        "ted"
      ],
      [
        "ro",
        "cess"
      ],
      [
        "Ġg",
        "au"
      ],
      [
        "Ġrep",
        "orts"
      ],
      [
        "Ġrep",
        "rocess"
      ],
      [
        "Ġn",
        "ight"
      ],
      [
        "Ġn",
        "ose"
      ],
      [
        "Ġn",
        "arrow"
      ],
      [
        "Ġn",
        "ested"
      ],
      [
        "Ġse",
        "mi"
      ],
      [
        "Ġas",
        "cending"
      ],
      [
        "Ġcont",
        "rib"
      ],
      [
        "id",
        "es"
      ],
      [
        "Ġst",
        "rip"
      ],
      [
        "Ġst",
        "uds"
      ],
      [
        "Ġsu",
        "pp"
      ],
      [
        "Ġinter",
        "act"
      ],
      [
        "Ġh",
        "o"
      ],
      [
        "el",
        "ine"
      ],
      [
        "ri",
        "f"
      ],
      [
        "cc",
        "er"
      ],
      [
        "ist",
        "r"
      ],
      [
        "Ġcontent",
        "s"
      ],
      [
        "Ġhe",
        "alth"
      ],
      [
        "Ġsymbol",
        "s"
      ],
      [
        "ce",
        "ments"
      ],
      [
        "ase",
        "r"
      ],
      [
        "ain",
        "st"
      ],
      [
        "Ġso",
        "ccer"
      ],
      [
        "Ġdi",
        "v"
      ],
      [
        "Ġed",
        "ges"
      ],
      [
        "Ġch",
        "ange"
      ],
      [
        "Ġother",
        "s"
      ],
      [
        "ord",
        "ered"
      ],
      [
        "Ġvis",
        "ible"
      ],
      [
        "Ġmo",
        "tion"
      ],
      [
        "Ġtoggle",
        "d"
      ],
      [
        "Ġsub",
        "f"
      ],
      [
        "Ġsub",
        "categ"
      ],
      [
        "Ġen",
        "able"
      ],
      [
        "Ġconnect",
        "ing"
      ],
      [
        "Ġbr",
        "ick"
      ],
      [
        "Ġtab",
        "s"
      ],
      [
        "Ġplay",
        "er"
      ],
      [
        "Ġdisplay",
        "s"
      ],
      [
        "Ġlow",
        "er"
      ],
      [
        "Ġmod",
        "ular"
      ],
      [
        "Ġcollap",
        "sed"
      ],
      [
        "ĠP",
        "ro"
      ],
      [
        "Ġsw",
        "atch"
      ],
      [
        "ĠA",
        "pp"
      ],
      [
        "Ġsl",
        "ats"
      ],
      [
        "Ġremo",
        "val"
      ],
      [
        "Ġorgan",
        "ized"
      ],
      [
        "Ġconnection",
        "s"
      ],
      [
        "Ġun",
        "it"
      ],
      [
        "Ġun",
        "known"
      ],
      [
        "Ġupp",
        "er"
      ],
      [
        "Ġlat",
        "er"
      ],
      [
        "Ġfavorit",
        "ing"
      ],
      [
        "Ġcommun",
        "icating"
      ],
      [
        "Ġro",
        "t"
      ],
      [
        "Ġnam",
        "e"
      ],
      [
        "Ġprog",
        "ression"
      ],
      [
        "Ġcap",
        "ture"
      ],
      [
        "Ġdeplo",
        "ying"
      ],
      [
        "Ġann",
        "oun"
      ],
      [
        "Ġpe",
        "nding"
      ],
      [
        "Ġme",
        "as"
      ],
      [
        "Ġme",
        "gap"
      ],
      [
        "Ġiniti",
        "ate"
      ],
      [
        "Ġresour",
        "ces"
      ],
      [
        "Ġ13",
        "6"
      ],
      [
        "Ġstore",
        "front"
      ],
      [
        "per",
        "ature"
      ],
      [
        "Ġdiagonal",
        "ly"
      ],
      [
        "Ġer",
        "aser"
      ],
      [
        "Ġsn",
        "ake"
      ],
      [
        "Ġcut",
        "ting"
      ],
      [
        "Ġfin",
        "s"
      ],
      [
        "Ġpreced",
        "ed"
      ],
      [
        "Ġpreced",
        "es"
      ],
      [
        "Ġrecord",
        "s"
      ],
      [
        "Ġgraph",
        "ic"
      ],
      [
        "Ġappro",
        "ved"
      ],
      [
        "Ġappro",
        "val"
      ],
      [
        "Sh",
        "are"
      ],
      [
        "Ġag",
        "ainst"
      ],
      [
        "sen",
        "al"
      ],
      [
        "Ġtem",
        "perature"
      ],
      [
        "Ġrecent",
        "ly"
      ],
      [
        "ĠG",
        "it"
      ],
      [
        "ĠI",
        "nt"
      ],
      [
        "ĠL",
        "EG"
      ],
      [
        "Ġcomb",
        "ine"
      ],
      [
        "Ġaw",
        "ning"
      ],
      [
        "Ġsk",
        "y"
      ],
      [
        "Ġwav",
        "es"
      ],
      [
        "Ġoper",
        "ation"
      ],
      [
        "Ġtrack",
        "er"
      ],
      [
        "head",
        "ed"
      ],
      [
        "Ġwheel",
        "s"
      ],
      [
        "Ġasset",
        "s"
      ],
      [
        "spe",
        "cific"
      ],
      [
        "Ġeffect",
        "s"
[...]
