{
  "version": "1.0",
  "truncation": null,
  "padding": null,
  "added_tokens": [
    {
      "id": 0,
      "content": "<PAD>",
      "single_word": false,
      "lstrip": false,
      "rstrip": false,
      "normalized": false,
      "special": true
    },
    {
      "id": 1,
      "content": "<UNK>",
      "single_word": false,
      "lstrip": false,
      "rstrip": false,
      "normalized": false,
      "special": true
    },
    {
      "id": 2,
      "content": "<BOS>",
      "single_word": false,
      "lstrip": false,
      "rstrip": false,
      "normalized": false,
      "special": true
    },
    {
      "id": 3,
      "content": "<EOS>",
      "single_word": false,
      "lstrip": false,
      "rstrip": false,
      "normalized": false,
      "special": true
    },
    {
      "id": 4,
      "content": "<ACT>",
      "single_word": false,
      "lstrip": false,
      "rstrip": false,
      "normalized": false,
      "special": true
    },
    {
      "id": 5,
      "content": "<FUNC>",
      "single_word": false,
      "lstrip": false,
      "rstrip": false,
      "normalized": false,
      "special": true
    },
    {
      "id": 6,
      "content": "<STAT>",
      "single_word": false,
      "lstrip": false,
      "rstrip": false,
      "normalized": false,
      "special": true
    }
  ],
  "normalizer": null,
  "pre_tokenizer": {
    "type": "ByteLevel",
    "add_prefix_space": false,
    "trim_offsets": true,
    "use_regex": true
  },
  "post_processor": {
    "type": "TemplateProcessing",
    "single": [
      {
        "SpecialToken": {
          "id": "<BOS>",
          "type_id": 0
        }
      },
      {
        "Sequence": {
          "id": "A",
          "type_id": 0
        }
      },
      {
        "SpecialToken": {
          "id": "<EOS>",
          "type_id": 0
        }
      }
    ],
    "pair": [
      {
        "Sequence": {
          "id": "A",
          "type_id": 0
        }
      },
      {
        "Sequence": {
          "id": "B",
          "type_id": 1
        }
      }
    ],
    "special_tokens": {
      "<BOS>": {
        "id": "<BOS>",
        "ids": [
          2
        ],
        "tokens": [
          "<BOS>"
        ]
      },
      "<EOS>": {
        "id": "<EOS>",
        "ids": [
          3
        ],
        "tokens": [
          "<EOS>"
        ]
      }
    }
  },
  "decoder": {
    "type": "ByteLevel",
    "add_prefix_space": true,
    "trim_offsets": true,
    "use_regex": true
  },
  "model": {
    "type": "BPE",
    "dropout": null,
    "unk_token": null,
    "continuing_subword_prefix": null,
    "end_of_word_suffix": null,
    "fuse_unk": false,
    "byte_fallback": false,
    "ignore_merges": false,
    "vocab": {
      "<PAD>": 0,
      "<UNK>": 1,
      "<BOS>": 2,
      "<EOS>": 3,
      "<ACT>": 4,
      "<FUNC>": 5,
      "<STAT>": 6,
      "!": 7,
      "\"": 8,
      "#": 9,
      "$": 10,
      "%": 11,
      "&": 12,
      "'": 13,
      "(": 14,
      ")": 15,
      "*": 16,
      "+": 17,
      ",": 18,
      "-": 19,
      ".": 20,
      "/": 21,
      "0": 22,
      "1": 23,
      "2": 24,
      "3": 25,
      "4": 26,
      "5": 27,
      "6": 28,
      "7": 29,
      "8": 30,
      "9": 31,
      ":": 32,
      ";": 33,
      "<": 34,
      "=": 35,
      ">": 36,
      "?": 37,
      "@": 38,
      "A": 39,
      "B": 40,
      "C": 41,
      "D": 42,
      "E": 43,
      "F": 44,
      "G": 45,
      "H": 46,
      "I": 47,
      "J": 48,
      "K": 49,
      "L": 50,
      "M": 51,
      "N": 52,
      "O": 53,
      "P": 54,
      "Q": 55,
      "R": 56,
      "S": 57,
      "T": 58,
      "U": 59,
      "V": 60,
      "W": 61,
      "X": 62,
      "Y": 63,
      "Z": 64,
      "[": 65,
      "\\": 66,
      "]": 67,
      "^": 68,
      "_": 69,
      "`": 70,
      "a": 71,
      "b": 72,
      "c": 73,
      "d": 74,
      "e": 75,
      "f": 76,
      "g": 77,
      "h": 78,
      "i": 79,
      "j": 80,
      "k": 81,
      "l": 82,
      "m": 83,
      "n": 84,
      "o": 85,
      "p": 86,
      "q": 87,
      "r": 88,
      "s": 89,
      "t": 90,
      "u": 91,
      "v": 92,
      "w": 93,
      "x": 94,
      "y": 95,
      "z": 96,
      "{": 97,
      "|": 98,
      "}": 99,
      "~": 100,
      "¡": 101,
      "¢": 102,
      "£": 103,
      "¤": 104,
      "¥": 105,
      "¦": 106,
      "§": 107,
      "¨": 108,
      "©": 109,
      "ª": 110,
      "«": 111,
      "¬": 112,
      "®": 113,
      "¯": 114,
      "°": 115,
      "±": 116,
      "²": 117,
      "³": 118,
      "´": 119,
      "µ": 120,
      "¶": 121,
      "·": 122,
      "¸": 123,
      "¹": 124,
      "º": 125,
      "»": 126,
      "¼": 127,
      "½": 128,
      "¾": 129,
      "¿": 130,
      "À": 131,
      "Á": 132,
      "Â": 133,
      "Ã": 134,
      "Ä": 135,
      "Å": 136,
      "Æ": 137,
      "Ç": 138,
      "È": 139,
      "É": 140,
      "Ê": 141,
      "Ë": 142,
      "Ì": 143,
      "Í": 144,
      "Î": 145,
      "Ï": 146,
      "Ð": 147,
      "Ñ": 148,
      "Ò": 149,
      "Ó": 150,
      "Ô": 151,
      "Õ": 152,
      "Ö": 153,
      "×": 154,
      "Ø": 155,
      "Ù": 156,
      "Ú": 157,
      "Û": 158,
      "Ü": 159,
      "Ý": 160,
      "Þ": 161,
      "ß": 162,
      "à": 163,
      "á": 164,
      "â": 165,
      "ã": 166,
      "ä": 167,
      "å": 168,
      "æ": 169,
      "ç": 170,
      "è": 171,
      "é": 172,
      "ê": 173,
      "ë": 174,
      "ì": 175,
      "í": 176,
      "î": 177,
      "ï": 178,
      "ð": 179,
      "ñ": 180,
      "ò": 181,
      "ó": 182,
      "ô": 183,
      "õ": 184,
      "ö": 185,
      "÷": 186,
      "ø": 187,
      "ù": 188,
      "ú": 189,
      "û": 190,
      "ü": 191,
      "ý": 192,
      "þ": 193,
      "ÿ": 194,
      "Ā": 195,
      "ā": 196,
      "Ă": 197,
      "ă": 198,
      "Ą": 199,
      "ą": 200,
      "Ć": 201,
      "ć": 202,
      "Ĉ": 203,
      "ĉ": 204,
      "Ċ": 205,
      "ċ": 206,
      "Č": 207,
      "č": 208,
      "Ď": 209,
      "ď": 210,
      "Đ": 211,
      "đ": 212,
      "Ē": 213,
      "ē": 214,
      "Ĕ": 215,
      "ĕ": 216,
      "Ė": 217,
      "ė": 218,
      "Ę": 219,
      "ę": 220,
      "Ě": 221,
      "ě": 222,
      "Ĝ": 223,
      "ĝ": 224,
      "Ğ": 225,
      "ğ": 226,
      "Ġ": 227,
      "ġ": 228,
      "Ģ": 229,
      "ģ": 230,
      "Ĥ": 231,
      "ĥ": 232,
      "Ħ": 233,
      "ħ": 234,
      "Ĩ": 235,
      "ĩ": 236,
      "Ī": 237,
      "ī": 238,
      "Ĭ": 239,
      "ĭ": 240,
      "Į": 241,
      "į": 242,
      "İ": 243,
      "ı": 244,
      "Ĳ": 245,
      "ĳ": 246,
      "Ĵ": 247,
      "ĵ": 248,
      "Ķ": 249,
      "ķ": 250,
      "ĸ": 251,
      "Ĺ": 252,
      "ĺ": 253,
      "Ļ": 254,
      "ļ": 255,
      "Ľ": 256,
      "ľ": 257,
      "Ŀ": 258,
      "ŀ": 259,
      "Ł": 260,
      "ł": 261,
      "Ń": 262,
      "Ġ'": 263,
      "on": 264,
      "':": 265,
      "',": 266,
      "ti": 267,
      "es": 268,
      "tion": 269,
      "en": 270,
      "or": 271,
      "Ġt": 272,
      "Ġa": 273,
      "li": 274,
      "se": 275,
      "Ġor": 276,
      "ption": 277,
      "in": 278,
      "pp": 279,
      "cr": 280,
      "na": 281,
      "ac": 282,
      "me": 283,
      "as": 284,
      "te": 285,
      "des": 286,
      "cri": 287,
      "ali": 288,
      "app": 289,
      "ases": 290,
      "action": 291,
      ".',": 292,
      "name": 293,
      "cription": 294,
      "],": 295,
      "{'": 296,
      "Ġ[": 297,
      "description": 298,
      "aliases": 299,
      "'],": 300,
      "Ġ['": 301,
      "Ġc": 302,
      "one": 303,
      "Ġto": 304,
      "ĠN": 305,
      "ĠNone": 306,
      "he": 307,
      "le": 308,
      "ent": 309,
      "ic": 310,
      "Ġf": 311,
      "Ġo": 312,
      "ow": 313,
      "Ġthe": 314,
      "Ġu": 315,
      "at": 316,
      "ll": 317,
      "Ġse": 318,
      "an": 319,
      "Ġuse": 320,
      "ar": 321,
      "ro": 322,
      "ation": 323,
      "Ġin": 324,
      "ge": 325,
      "st": 326,
      "di": 327,
      "re": 328,
      "vi": 329,
      "Ġm": 330,
      "er": 331,
      "Ġp": 332,
      "Ġcon": 333,
      "ptions": 334,
      "Ġuser": 335,
      "lec": 336,
      "Ġs": 337,
      "ate": 338,
      "ess": 339,
      "tin": 340,
      "ew": 341,
      "Ġof": 342,
      "ting": 343,
      "Ġfor": 344,
      "is": 345,
      "ex": 346,
      "lo": 347,
      "ing": 348,
      "Ġoptions": 349,
      "Ġcont": 350,
      "ur": 351,
      "Ġw": 352,
      "Ġd": 353,
      "nd": 354,
      "pen": 355,
      "Ġi": 356,
      "Ġusers": 357,
      "llow": 358,
      "Ġcontent": 359,
      "Ġli": 360,
      "la": 361,
      "lect": 362,
      "age": 363,
      "tem": 364,
      "cc": 365,
      "ch": 366,
      "ext": 367,
      "tting": 368,
      "enu": 369,
      "lic": 370,
      "ment": 371,
      "ttings": 372,
      "Ġlist": 373,
      "lay": 374,
      "it": 375,
      "al": 376,
      "llows": 377,
      "all": 378,
      "own": 379,
      "Re": 380,
      "yp": 381,
      "Ġitem": 382,
      "Ġapp": 383,
      "ates": 384,
      "Open": 385,
      "ally": 386,
      "ically": 387,
      "ypically": 388,
      "ccess": 389,
      "Ġsettings": 390,
      "Ġn": 391,
      "Allows": 392,
      "ve": 393,
      "res": 394,
      "rop": 395,
      "orm": 396,
      "Ġb": 397,
      "ou": 398,
      "view": 399,
      "Ġre": 400,
      "form": 401,
      "Se": 402,
      "Ġe": 403,
      "ho": 404,
      "ore": 405,
      "Ġused": 406,
      "Ġtypically": 407,
      "ol": 408,
      "and": 409,
      "il": 410,
      "down": 411,
      "ter": 412,
      "play": 413,
      "lication": 414,
      "ile": 415,
      "Ġapplication": 416,
      "Use": 417,
      "cre": 418,
      "Ġma": 419,
      "pand": 420,
      "Ġand": 421,
      "cu": 422,
      "ind": 423,
      "ce": 424,
      "ropdown": 425,
      "Ġan": 426,
      "ction": 427,
      "resent": 428,
      "de": 429,
      "In": 430,
      "Ex": 431,
      "Ġic": 432,
      "Ġad": 433,
      "Ġicon": 434,
      "vig": 435,
      "Dis": 436,
      "icates": 437,
      "formation": 438,
      "om": 439,
      "present": 440,
      "'}": 441,
      "Ad": 442,
      "et": 443,
      "ad": 444,
      "Ġinformation": 445,
      "Select": 446,
      "Ġview": 447,
      "presents": 448,
      "Ġdi": 449,
      "ocu": 450,
      "Dropdown": 451,
      "rom": 452,
      "si": 453,
      "nage": 454,
      "ocument": 455,
      "Ġst": 456,
      "Ġselec": 457,
      "Ġpro": 458,
      "Ġfrom": 459,
      "ard": 460,
      "arch": 461,
      "Display": 462,
      "Ġselect": 463,
      "Access": 464,
      "ed": 465,
      "Represents": 466,
      "his": 467,
      "ec": 468,
      "ig": 469,
      "ts": 470,
      "Ind": 471,
      "dition": 472,
      "us": 473,
      "Ġmenu": 474,
      "iz": 475,
      "iti": 476,
      "This": 477,
      "ted": 478,
      "Used": 479,
      "eat": 480,
      "Displays": 481,
      "ap": 482,
      "Menu": 483,
      "Ġmanage": 484,
      "Expand": 485,
      "Ġaccess": 486,
      "ag": 487,
      "der": 488,
      "Ġitems": 489,
      "Ġtext": 490,
      "Indicates": 491,
      "dit": 492,
      "ang": 493,
      "ri": 494,
      "ut": 495,
      "load": 496,
      "Add": 497,
      "hat": 498,
      "ditional": 499,
      "St": 500,
      "Ġcho": 501,
      "urr": 502,
      "Ġcurr": 503,
      "Ġcurrent": 504,
      "Ġadditional": 505,
      "Ġdocument": 506,
      "ance": 507,
      "Ġwit": 508,
      "Ġwith": 509,
      "Vi": 510,
      "ab": 511,
      "iles": 512,
      "older": 513,
      "op": 514,
      "fic": 515,
      "Ġl": 516,
      "bo": 517,
      "Ġselected": 518,
      "ack": 519,
      "art": 520,
      "qu": 521,
      "her": 522,
      "vigate": 523,
      "Ġnew": 524,
      "More": 525,
      "Na": 526,
      "View": 527,
      "ver": 528,
      "Ġfiles": 529,
      "har": 530,
      "angu": 531,
      "Ġup": 532,
      "anguage": 533,
      "Options": 534,
      "ser": 535,
      "os": 536,
      "Ġde": 537,
      "ok": 538,
      "ize": 539,
      "Con": 540,
      "indow": 541,
      "ange": 542,
      "ort": 543,
      "Ġas": 544,
      "ck": 545,
      "Ġsearch": 546,
      "Ġind": 547,
      "end": 548,
      "Ġclic": 549,
      "Ġclick": 550,
      "Ġmo": 551,
      "ices": 552,
      "Initi": 553,
      "open": 554,
      "Ġthat": 555,
      "our": 556,
      "Ġon": 557,
      "ark": 558,
      "creen": 559,
      "Ġaction": 560,
      "hare": 561,
      "ace": 562,
      "ations": 563,
      "un": 564,
      "av": 565,
      "ir": 566,
      "ten": 567,
      "ice": 568,
      "oti": 569,
      "ĠT": 570,
      "ail": 571,
      "Ġpage": 572,
      "Navigate": 573,
      "late": 574,
      "ĠF": 575,
      "Ġfile": 576,
      "ward": 577,
      "file": 578,
      "ave": 579,
      "of": 580,
      "Ġdis": 581,
      "ht": 582,
      "oll": 583,
      "Ġwindow": 584,
      "Ġmess": 585,
      "lose": 586,
      "vigation": 587,
      "oun": 588,
      "fy": 589,
      "fer": 590,
      "atus": 591,
      "ĠS": 592,
      "ownload": 593,
      "ust": 594,
      "ages": 595,
      "ces": 596,
      "Ġex": 597,
      "hange": 598,
      "ran": 599,
      "Pro": 600,
      "ase": 601,
      "Ġg": 602,
      "Ġfeat": 603,
      "eb": 604,
      "Ġinter": 605,
      "avor": 606,
      "User": 607,
      "Ġwithin": 608,
      "otific": 609,
      "Ġscreen": 610,
      "Initiates": 611,
      "am": 612,
      "Ġchoices": 613,
      "Ġallow": 614,
      "Ġcom": 615,
      "oft": 616,
      "ty": 617,
      "vide": 618,
      "Ġallowing": 619,
      "log": 620,
      "Ġsu": 621,
      "ount": 622,
      "ous": 623,
      "Mi": 624,
      "up": 625,
      "Ġnext": 626,
      "ect": 627,
      "ke": 628,
      "Ġoften": 629,
      "ure": 630,
      "con": 631,
      "to": 632,
      "row": 633,
      "Text": 634,
      "lp": 635,
      "ord": 636,
      "Ġoption": 637,
      "lig": 638,
      "Ġfolder": 639,
      "dio": 640,
      "Micr": 641,
      "ler": 642,
      "ata": 643,
      "Ġpre": 644,
      "board": 645,
      "Edit": 646,
      "ers": 647,
      "how": 648,
      "dify": 649,
      "create": 650,
      "osoft": 651,
      "Microsoft": 652,
      "Next": 653,
      "iss": 654,
      "ĠB": 655,
      "Ġy": 656,
      "ly": 657,
      "ne": 658,
      "sion": 659,
      "lated": 660,
      "udio": 661,
      "eather": 662,
      "ue": 663,
      "tic": 664,
      "Ġform": 665,
      "sert": 666,
      "ĠP": 667,
      "navigation": 668,
      "out": 669,
      "vice": 670,
      "Ġme": 671,
      "rid": 672,
      "just": 673,
      "Ġyour": 674,
      "cess": 675,
      "ite": 676,
      "ome": 677,
      "ain": 678,
      "Ġdes": 679,
      "ĠOptions": 680,
      "Ġindicates": 681,
      "search": 682,
      "Cop": 683,
      "able": 684,
      "ches": 685,
      "La": 686,
      "face": 687,
      "expand": 688,
      "avorite": 689,
      "gg": 690,
      "look": 691,
      "itiate": 692,
      "feren": 693,
      "Share": 694,
      "Ġh": 695,
      "vious": 696,
      "Ġweb": 697,
      "Ġinterface": 698,
      "menu": 699,
      "ĠI": 700,
      "ery": 701,
      "ccount": 702,
      "ures": 703,
      "query": 704,
      "otifications": 705,
      "For": 706,
      "ĠUser": 707,
      "Ġallows": 708,
      "ollap": 709,
      "Ġim": 710,
      "Ġlanguage": 711,
      "ollapse": 712,
      "find": 713,
      "hen": 714,
      "Ġdata": 715,
      "ose": 716,
      "lement": 717,
      "Ġmore": 718,
      "ign": 719,
      "Ġdisplay": 720,
      "Close": 721,
      "ĠC": 722,
      "Ġcreate": 723,
      "Ġnavigation": 724,
      "heck": 725,
      "dia": 726,
      "Ġelement": 727,
      "Ġadd": 728,
      "du": 729,
      "tep": 730,
      "urn": 731,
      "New": 732,
      "Ġwhen": 733,
      "sist": 734,
      "Forward": 735,
      "Ġv": 736,
      "rol": 737,
      "Ġstatus": 738,
      "ther": 739,
      "pport": 740,
      "Ġclicked": 741,
      "Ġfeatures": 742,
      "ĠUsers": 743,
      "Download": 744,
      "Ġen": 745,
      "initiate": 746,
      "Ġeas": 747,
      "Ġsy": 748,
      "essage": 749,
      "gan": 750,
      "mo": 751,
      "Save": 752,
      "Ġsection": 753,
      "Ġselection": 754,
      "turn": 755,
      "Ġrelated": 756,
      "Language": 757,
      "Ġis": 758,
      "mark": 759,
      "tex": 760,
      "Insert": 761,
      "ferences": 762,
      "nk": 763,
      "sistance": 764,
      "miss": 765,
      "Ġtheir": 766,
      "Ġdevice": 767,
      "Up": 768,
      "ĠMenu": 769,
      "alog": 770,
      "Ġlo": 771,
      "crease": 772,
      "Ġdialog": 773,
      "Ġprocess": 774,
      "ory": 775,
      "Ġorgan": 776,
      "ask": 777,
      "Ġedit": 778,
      "Adjust": 779,
      "Pre": 780,
      "mail": 781,
      "oin": 782,
      "ĠM": 783,
      "Ġhe": 784,
      "home": 785,
      "Ġmessages": 786,
      "ĠA": 787,
      "Ġchange": 788,
      "Ġsp": 789,
      "stem": 790,
      "Ġlay": 791,
      "lip": 792,
      "Play": 793,
      "Ġaudio": 794,
      "select": 795,
      "Ġbo": 796,
      "video": 797,
      "ggle": 798,
      "ight": 799,
      "Ġformat": 800,
      "Ġpl": 801,
      "ili": 802,
      "icate": 803,
      "lign": 804,
      "Home": 805,
      "Pin": 806,
      "Send": 807,
      "ator": 808,
      "Ġweather": 809,
      "Settings": 810,
      "olor": 811,
      "Copy": 812,
      "Document": 813,
      "gr": 814,
      "Ġmodify": 815,
      "th": 816,
      "ast": 817,
      "put": 818,
      "ton": 819,
      "Ġnotifications": 820,
      "Ġapplications": 821,
      "ct": 822,
      "Ġit": 823,
      "mb": 824,
      "Ġcontex": 825,
      "Git": 826,
      "lipboard": 827,
      "fig": 828,
      "mer": 829,
      "site": 830,
      "Su": 831,
      "ject": 832,
      "ick": 833,
      "Start": 834,
      "Ġsystem": 835,
      "Ġloc": 836,
      "ode": 837,
      "ud": 838,
      "Ġvideo": 839,
      "tics": 840,
      "Change": 841,
      "ai": 842,
      "Ġver": 843,
      "Ġbe": 844,
      "Ġbran": 845,
      "utton": 846,
      "cord": 847,
      "Ġvi": 848,
      "Ġorganiz": 849,
      "He": 850,
      "Lab": 851,
      "Ġstep": 852,
      "lab": 853,
      "veal": 854,
      "Ġeasy": 855,
      "Ġhelp": 856,
      "grid": 857,
      "net": 858,
      "Ġclipboard": 859,
      "ger": 860,
      "Ġdesign": 861,
      "figur": 862,
      "ul": 863,
      "ork": 864,
      "ility": 865,
      "Cre": 866,
      "Wi": 867,
      "wit": 868,
      "Ġcan": 869,
      "Ġshow": 870,
      "Ġchoose": 871,
      "Ġbox": 872,
      "De": 873,
      "Ġres": 874,
      "Ġother": 875,
      "loud": 876,
      "ote": 877,
      "pe": 878,
      "Ġreveal": 879,
      "ĠTypically": 880,
      "GitLab": 881,
      "Drop": 882,
      "tr": 883,
      "ĠO": 884,
      "ater": 885,
      "tinue": 886,
      "Ġdownload": 887,
      "ound": 888,
      "Ġdocuments": 889,
      "Ġprevious": 890,
      "Ġwebsite": 891,
      "App": 892,
      "Com": 893,
      "im": 894,
      "icator": 895,
      "Opens": 896,
      "Continue": 897,
      "ailab": 898,
      "Ġbrow": 899,
      "Ġprofile": 900,
      "ancel": 901,
      "cti": 902,
      "date": 903,
      "vailab": 904,
      "Ġle": 905,
      "Ġversion": 906,
      "ak": 907,
      "nect": 908,
      "Ġke": 909,
      "Ġaccount": 910,
      "Pl": 911,
      "ati": 912,
      "hap": 913,
      "ide": 914,
      "Ġcontrol": 915,
      "Ġselectable": 916,
      "Ġhome": 917,
      "rect": 918,
      "okmark": 919,
      "Create": 920,
      "anage": 921,
      "orage": 922,
      "Ġmap": 923,
      "Ġlater": 924,
      "Ġfeature": 925,
      "dates": 926,
      "Ġtask": 927,
      "Ġavailab": 928,
      "Ġsuch": 929,
      "su": 930,
      "Ġedi": 931,
      "Ġimage": 932,
      "Ġbranches": 933,
      "Back": 934,
      "Ġare": 935,
      "ink": 936,
      "Ġfavorite": 937,
      "Cont": 938,
      "Laun": 939,
      "rectory": 940,
      "Go": 941,
      "ating": 942,
      "bur": 943,
      "fres": 944,
      "ki": 945,
      "umb": 946,
      "Ġlink": 947,
      "Ġprogr": 948,
      "ambur": 949,
      "lert": 950,
      "ĠIcon": 951,
      "Ġcontext": 952,
      "fresh": 953,
      "amburger": 954,
      "Typically": 955,
      "ot": 956,
      "ments": 957,
      "ails": 958,
      "fo": 959,
      "atform": 960,
      "ity": 961,
      "eci": 962,
      "box": 963,
      "Plus": 964,
      "Ġediting": 965,
      "Ar": 966,
      "ill": 967,
      "ash": 968,
      "here": 969,
      "Ġplay": 970,
      "Ġplatform": 971,
      "Help": 972,
      "Cancel": 973,
      "line": 974,
      "Ġsave": 975,
      "etw": 976,
      "Ġlayout": 977,
      "AQ": 978,
      "File": 979,
      "ont": 980,
      "ower": 981,
      "Ġpas": 982,
      "Ġemail": 983,
      "move": 984,
      "Mo": 985,
      "eed": 986,
      "fir": 987,
      "Ġcomm": 988,
      "Lay": 989,
      "Ġspeci": 990,
      "bin": 991,
      "ion": 992,
      "Ġr": 993,
      "naly": 994,
      "Ġclose": 995,
      "Ġforward": 996,
      "Ġdet": 997,
      "ĠSize": 998,
      "Ġmedia": 999,
      "ci": 1000,
      "ence": 1001,
      "ormat": 1002,
      "rans": 1003,
      "Ġlocation": 1004,
      "imize": 1005,
      "Collapse": 1006,
      "port": 1007,
      "Ġshare": 1008,
      "licate": 1009,
      "Exit": 1010,
      "ning": 1011,
      "options": 1012,
      "pl": 1013,
      "yle": 1014,
      "navigate": 1015,
      "Ġopen": 1016,
      "Dismiss": 1017,
      "Ġactions": 1018,
      "unction": 1019,
      "Ġorganizing": 1020,
      "figuration": 1021,
      "Ġresour": 1022,
      "Di": 1023,
      "el": 1024,
      "pro": 1025,
      "ĠL": 1026,
      "ĠSt": 1027,
      "Ġfind": 1028,
      "usic": 1029,
      "vert": 1030,
      "Ġupdates": 1031,
      "Ġcomp": 1032,
      "Ġsupport": 1033,
      "toggle": 1034,
      "light": 1035,
      "Ġdetails": 1036,
      "back": 1037,
      "com": 1038,
      "ra": 1039,
      "Ġent": 1040,
      "erform": 1041,
      "witch": 1042,
      "Align": 1043,
      "Get": 1044,
      "cur": 1045,
      "lse": 1046,
      "oom": 1047,
      "where": 1048,
      "Ġacti": 1049,
      "Ġchat": 1050,
      "velo": 1051,
      "Ġelse": 1052,
      "erson": 1053,
      "Ġpasting": 1054,
      "Ġelsewhere": 1055,
      "collapse": 1056,
      "jec": 1057,
      "ry": 1058,
      "sing": 1059,
      "Ġproject": 1060,
      "aging": 1061,
      "Ġassistance": 1062,
      "otification": 1063,
      "uplicate": 1064,
      "umber": 1065,
      "curity": 1066,
      "Manage": 1067,
      "rin": 1068,
      "ĠDocument": 1069,
      "info": 1070,
      "Ġcart": 1071,
      "Ġinto": 1072,
      "Ġdown": 1073,
      "Return": 1074,
      "Ġmain": 1075,
      "Ġexpand": 1076,
      "Wiki": 1077,
      "Mark": 1078,
      "Ġch": 1079,
      "Ġfunction": 1080,
      "igh": 1081,
      "anges": 1082,
      "lerts": 1083,
      "Ġothers": 1084,
      "Ġspecific": 1085,
      "Ġresources": 1086,
      "jects": 1087,
      "Message": 1088,
      "ies": 1089,
      "ume": 1090,
      "Ġone": 1091,
      "inimize": 1092,
      "Ġcontents": 1093,
      "vel": 1094,
      "Ġreturn": 1095,
      "Ġstorage": 1096,
      "Ġlast": 1097,
      "Navigation": 1098,
      "Ġmessage": 1099,
      "Ġexit": 1100,
      "Profile": 1101,
      "Ġelements": 1102,
      "Ġentry": 1103,
      "Bo": 1104,
      "Crop": 1105,
      "ffer": 1106,
      "Ġpur": 1107,
      "Ġpresent": 1108,
      "ditions": 1109,
      "ĠFile": 1110,
      "Ġenter": 1111,
      "Ġlevel": 1112,
      "As": 1113,
      "Lo": 1114,
      "Weather": 1115,
      "croll": 1116,
      "Ġsequ": 1117,
      "Ġdiffer": 1118,
      "tric": 1119,
      "Ġsequence": 1120,
      "Ġdifferent": 1121,
      "Sc": 1122,
      "be": 1123,
      "ving": 1124,
      "Ġsize": 1125,
      "Previous": 1126,
      "ulti": 1127,
      "Ġkey": 1128,
      "Ġavailable": 1129,
      "Me": 1130,
      "dropdown": 1131,
      "ses": 1132,
      "ĠR": 1133,
      "Ġconditions": 1134,
      "ites": 1135,
      "avorites": 1136,
      "oint": 1137,
      "firm": 1138,
      "Account": 1139,
      "folder": 1140,
      "ĠSettings": 1141,
      "Ġob": 1142,
      "ession": 1143,
      "Ġbrowser": 1144,
      "atis": 1145,
      "eve": 1146,
      "Ġab": 1147,
      "roup": 1148,
      "Ġclicking": 1149,
      "Ġpreferences": 1150,
      "ĠBack": 1151,
      "ĠPage": 1152,
      "erformance": 1153,
      "Ġqu": 1154,
      "vity": 1155,
      "Ġsend": 1156,
      "loses": 1157,
      "Refresh": 1158,
      "Ġnumber": 1159,
      "Ġstore": 1160,
      "Launches": 1161,
      "Assistance": 1162,
      "Ġabout": 1163,
      "Check": 1164,
      "lone": 1165,
      "ari": 1166,
      "olume": 1167,
      "Ġgrid": 1168,
      "ĠButton": 1169,
      "Support": 1170,
      "edit": 1171,
      "pos": 1172,
      "ug": 1173,
      "Ġser": 1174,
      "Ġmulti": 1175,
      "Ġdropdown": 1176,
      "Ġby": 1177,
      "Ġrepresents": 1178,
      "nection": 1179,
      "cording": 1180,
      "ighlight": 1181,
      "Hamburger": 1182,
      "ep": 1183,
      "ture": 1184,
      "Ġti": 1185,
      "Ġcolor": 1186,
      "arning": 1187,
      "aph": 1188,
      "Ġmoving": 1189,
      "Provide": 1190,
      "connect": 1191,
      "ranslate": 1192,
      "Ġchanges": 1193,
      "Show": 1194,
      "mp": 1195,
      "vices": 1196,
      "ĠW": 1197,
      "status": 1198,
      "Ġapps": 1199,
      "ols": 1200,
      "Ġmanagement": 1201,
      "ĠFolder": 1202,
      "Ġmessaging": 1203,
      "Ġinternet": 1204,
      "merge": 1205,
      "hapes": 1206,
      "atistics": 1207,
      "Audio": 1208,
      "Sort": 1209,
      "ght": 1210,
      "id": 1211,
      "tri": 1212,
      "uter": 1213,
      "ants": 1214,
      "dis": 1215,
      "Ġperformance": 1216,
      "ĠText": 1217,
      "Ġdismiss": 1218,
      "nalytics": 1219,
      "FAQ": 1220,
      "Map": 1221,
      "To": 1222,
      "bility": 1223,
      "cent": 1224,
      "dge": 1225,
      "plo": 1226,
      "enter": 1227,
      "pping": 1228,
      "Ġcust": 1229,
      "lock": 1230,
      "ndo": 1231,
      "Revert": 1232,
      "Ġbutton": 1233,
      "ranch": 1234,
      "Ġval": 1235,
      "Control": 1236,
      "Modify": 1237,
      "Bookmark": 1238,
      "ploy": 1239,
      "Li": 1240,
      "top": 1241,
      "vent": 1242,
      "crip": 1243,
      "Ġcode": 1244,
      "Ġinput": 1245,
      "related": 1246,
      "Redu": 1247,
      "indicate": 1248,
      "Ġstart": 1249,
      "Star": 1250,
      "Initiate": 1251,
      "Copies": 1252,
      "Ġprogression": 1253,
      "ball": 1254,
      "ging": 1255,
      "Remove": 1256,
      "hoto": 1257,
      "opy": 1258,
      "Ġimages": 1259,
      "ashboard": 1260,
      "bine": 1261,
      "Duplicate": 1262,
      "Favorite": 1263,
      "Mer": 1264,
      "Point": 1265,
      "check": 1266,
      "message": 1267,
      "Ġat": 1268,
      "lide": 1269,
      "link": 1270,
      "lete": 1271,
      "lection": 1272,
      "Ġwants": 1273,
      "Ġlight": 1274,
      "Ġchoice": 1275,
      "Ġindicate": 1276,
      "Ġplayback": 1277,
      "owerPoint": 1278,
      "trieve": 1279,
      "mage": 1280,
      "raph": 1281,
      "Ġsecurity": 1282,
      "Ġpo": 1283,
      "Ġconnection": 1284,
      "Ġsc": 1285,
      "Ġwill": 1286,
      "aller": 1287,
      "Ġnote": 1288,
      "hopping": 1289,
      "etwork": 1290,
      "Zoom": 1291,
      "cing": 1292,
      "low": 1293,
      "ple": 1294,
      "tick": 1295,
      "Ġmusic": 1296,
      "Ġsound": 1297,
      "Ġbase": 1298,
      "Ġviewing": 1299,
      "Indicator": 1300,
      "rive": 1301,
      "vers": 1302,
      "indows": 1303,
      "Ġonline": 1304,
      "Sub": 1305,
      "Arrow": 1306,
      "Toggle": 1307,
      "Merge": 1308,
      "Folder": 1309,
      "Font": 1310,
      "Scroll": 1311,
      "ffic": 1312,
      "ness": 1313,
      "por": 1314,
      "Ġcre": 1315,
      "Ġlog": 1316,
      "Ġtr": 1317,
      "directory": 1318,
      "Ġmark": 1319,
      "Ġwork": 1320,
      "Retrieve": 1321,
      "ternet": 1322,
      "Ġhide": 1323,
      "Preferences": 1324,
      "Clone": 1325,
      "Email": 1326,
      "Edge": 1327,
      "Mail": 1328,
      "Prin": 1329,
      "Windows": 1330,
      "Ġalerts": 1331,
      "Ġcheck": 1332,
      "Ġfavorites": 1333,
      "Ġun": 1334,
      "rection": 1335,
      "isting": 1336,
      "chat": 1337,
      "ype": 1338,
      "Ġrecording": 1339,
      "Ġexisting": 1340,
      "Ġhighlight": 1341,
      "Ġvari": 1342,
      "Ġtime": 1343,
      "Ġcustom": 1344,
      "Ġvarious": 1345,
      "Sound": 1346,
      "Tak": 1347,
      "Translate": 1348,
      "ĠView": 1349,
      "ento": 1350,
      "Ġout": 1351,
      "Ġperson": 1352,
      "Input": 1353,
      "agento": 1354,
      "Ġgu": 1355,
      "Ġlayers": 1356,
      "velop": 1357,
      "Ġpurpos": 1358,
      "allery": 1359,
      "Takes": 1360,
      "Ġpurposes": 1361,
      "Cho": 1362,
      "Format": 1363,
      "mit": 1364,
      "word": 1365,
      "Ġ3": 1366,
      "Ġiss": 1367,
      "Ġcloud": 1368,
      "Ġforec": 1369,
      "Configuration": 1370,
      "ĠTo": 1371,
      "ĠItem": 1372,
      "Upload": 1373,
      "Ġplatforms": 1374,
      "Ġcommun": 1375,
      "Ġpresentation": 1376,
      "Ġmultiple": 1377,
      "ied": 1378,
      "ĠMicrosoft": 1379,
      "estion": 1380,
      "Ġtools": 1381,
      "icating": 1382,
      "cure": 1383,
      "Ġadjust": 1384,
      "Status": 1385,
      "Ġindicating": 1386,
      "ĠCom": 1387,
      "hape": 1388,
      "versation": 1389,
      "Ġpersonal": 1390,
      "Des": 1391,
      "Link": 1392,
      "Minimize": 1393,
      "emp": 1394,
      "oo": 1395,
      "hedu": 1396,
      "are": 1397,
      "Ġinsert": 1398,
      "Ġrecent": 1399,
      "Ġviewed": 1400,
      "Ġstate": 1401,
      "Vide": 1402,
      "Ġmetric": 1403,
      "Ġformatting": 1404,
      "Ġvisu": 1405,
      "Ġobjects": 1406,
      "Ġvalue": 1407,
      "cript": 1408,
      "ports": 1409,
      "Ġmetrics": 1410,
      "au": 1411,
      "cast": 1412,
      "ktop": 1413,
      "ĠIndicator": 1414,
      "onit": 1415,
      "access": 1416,
      "ary": 1417,
      "Ġback": 1418,
      "ilter": 1419,
      "riv": 1420,
      "Ġdecrease": 1421,
      "Ġdevelop": 1422,
      "Ġforms": 1423,
      "ĠRight": 1424,
      "ĠWord": 1425,
      "Ġlogo": 1426,
      "Choose": 1427,
      "Ġforecas": 1428,
      "Alert": 1429,
      "Notifications": 1430,
      "Spe": 1431,
      "Tick": 1432,
      "Web": 1433,
      "act": 1434,
      "acy": 1435,
      "ality": 1436,
      "Ġsee": 1437,
      "vides": 1438,
      "Reload": 1439,
      "Ġbet": 1440,
      "hot": 1441,
      "orecast": 1442,
      "terna": 1443,
      "ceed": 1444,
      "Ġmode": 1445,
      "ĠFormat": 1446,
      "Ġrain": 1447,
      "Ġbased": 1448,
      "words": 1449,
      "onitor": 1450,
      "rivacy": 1451,
      "Ġbetter": 1452,
      "Chat": 1453,
      "Color": 1454,
      "En": 1455,
      "Forecast": 1456,
      "Magento": 1457,
      "Over": 1458,
      "een": 1459,
      "flow": 1460,
      "ive": 1461,
      "les": 1462,
      "more": 1463,
      "scri": 1464,
      "yth": 1465,
      "lit": 1466,
      "ication": 1467,
      "Ġincrease": 1468,
      "Ġbetw": 1469,
      "Ġstyle": 1470,
      "Ġgroup": 1471,
      "Ġdese": 1472,
      "Update": 1473,
      "Ġvisi": 1474,
      "ĠStyle": 1475,
      "Ġstored": 1476,
      "idance": 1477,
      "ffice": 1478,
      "Ġdevelopment": 1479,
      "scribe": 1480,
      "Ġbetween": 1481,
      "Res": 1482,
      "brow": 1483,
      "cloud": 1484,
      "ip": 1485,
      "ror": 1486,
      "range": 1487,
      "Ġusing": 1488,
      "itation": 1489,
      "Provides": 1490,
      "Ġcomments": 1491,
      "sions": 1492,
      "Ġsystems": 1493,
      "Ġarea": 1494,
      "Ġlinks": 1495,
      "raw": 1496,
      "Like": 1497,
      "Ġguidance": 1498,
      "ĠTool": 1499,
      "Ġcommunication": 1500,
      "eting": 1501,
      "ier": 1502,
      "nec": 1503,
      "page": 1504,
      "ute": 1505,
      "ware": 1506,
      "ĠSelect": 1507,
      "ĠEdge": 1508,
      "ties": 1509,
      "Ġcal": 1510,
      "atter": 1511,
      "Record": 1512,
      "Ġdeploy": 1513,
      "ĠStep": 1514,
      "Ġeasier": 1515,
      "ĠLink": 1516,
      "Ġkeywords": 1517,
      "Print": 1518,
      "ython": 1519,
      "\",": 1520,
      "Be": 1521,
      "Closes": 1522,
      "Hide": 1523,
      "Ke": 1524,
      "Sp": 1525,
      "hamburger": 1526,
      "kype": 1527,
      "lu": 1528,
      "oice": 1529,
      "Ġ\"": 1530,
      "information": 1531,
      "Ġfeed": 1532,
      "ant": 1533,
      "ancing": 1534,
      "references": 1535,
      "Ġconnec": 1536,
      "change": 1537,
      "Ġrequ": 1538,
      "Ġmana": 1539,
      "haring": 1540,
      "Ġdevices": 1541,
      "Ġindicator": 1542,
      "endar": 1543,
      "tical": 1544,
      "Ġselections": 1545,
      "ĠMode": 1546,
      "hedule": 1547,
      "hotos": 1548,
      "Ġdeployment": 1549,
      "Drive": 1550,
      "Rain": 1551,
      "Tr": 1552,
      "bscribe": 1553,
      "favorite": 1554,
      "join": 1555,
      "show": 1556,
      "ze": 1557,
      "ĠEx": 1558,
      "Ġalign": 1559,
      "tection": 1560,
      "ath": 1561,
      "Ġconfigur": 1562,
      "Ġconfirm": 1563,
      "Ġnetwork": 1564,
      "Ġcomment": 1565,
      "asket": 1566,
      "Ġorganization": 1567,
      "Decrease": 1568,
      "ĠOffice": 1569,
      "Ġkeep": 1570,
      "ĠStore": 1571,
      "Ġservice": 1572,
      "Controls": 1573,
      "Reduces": 1574,
      "Overflow": 1575,
      "Ġvisibility": 1576,
      "ĠSelector": 1577,
      "Ġconfigurations": 1578,
      ".\",": 1579,
      "Data": 1580,
      "Qu": 1581,
      "cart": 1582,
      "ire": 1583,
      "mate": 1584,
      "ĠUp": 1585,
      "limate": 1586,
      "Ġsetting": 1587,
      "Ġshapes": 1588,
      "essages": 1589,
      "old": 1590,
      "Ġprof": 1591,
      "book": 1592,
      "otify": 1593,
      "ĠFAQ": 1594,
      "Proceed": 1595,
      "oftware": 1596,
      "Ġvia": 1597,
      "Ġbrowsing": 1598,
      "Content": 1599,
      "Launch": 1600,
      "cip": 1601,
      "Directory": 1602,
      "velope": 1603,
      "Ġfunctionality": 1604,
      "Submit": 1605,
      "Ġissue": 1606,
      "Video": 1607,
      "Ġforecasts": 1608,
      "Envelope": 1609,
      "Ġmanaging": 1610,
      "ĠFAQs": 1611,
      "'s": 1612,
      "Cut": 1613,
      "Gallery": 1614,
      "Note": 1615,
      "Switch": 1616,
      "Undo": 1617,
      "Volume": 1618,
      "ble": 1619,
      "ecu": 1620,
      "minimize": 1621,
      "web": 1622,
      "Ġacc": 1623,
      "icture": 1624,
      "Ġswitch": 1625,
      "Ġread": 1626,
      "etoo": 1627,
      "update": 1628,
      "Ġdisplayed": 1629,
      "Ġenh": 1630,
      "modify": 1631,
      "Ġcontexts": 1632,
      "Ġcommand": 1633,
      "Layers": 1634,
      "Ġquick": 1635,
      "display": 1636,
      "luetoo": 1637,
      "cipitation": 1638,
      "luetooth": 1639,
      "Analytics": 1640,
      "Climate": 1641,
      "Face": 1642,
      "PowerPoint": 1643,
      "Screen": 1644,
      "ame": 1645,
      "br": 1646,
      "count": 1647,
      "right": 1648,
      "ues": 1649,
      "Ġth": 1650,
      "sed": 1651,
      "star": 1652,
      "read": 1653,
      "Ġrece": 1654,
      "Ġremove": 1655,
      "ily": 1656,
      "Internet": 1657,
      "Ġstatistics": 1658,
      "Statistics": 1659,
      "abor": 1660,
      "Ġmove": 1661,
      "ollabor": 1662,
      "ference": 1663,
      "duc": 1664,
      "ĠMessage": 1665,
      "Ġtasks": 1666,
      "Ġavailability": 1667,
      "Arrange": 1668,
      "Loc": 1669,
      "vents": 1670,
      "rightness": 1671,
      "Ġreceive": 1672,
      "Branch": 1673,
      "Or": 1674,
      "copy": 1675,
      "notification": 1676,
      "olog": 1677,
      "share": 1678,
      "zoom": 1679,
      "Ġcri": 1680,
      "Ġzoom": 1681,
      "ensions": 1682,
      "Ġalert": 1683,
      "settings": 1684,
      "acts": 1685,
      "alic": 1686,
      "Ġcall": 1687,
      "Ġcloses": 1688,
      "red": 1689,
      "Ġslide": 1690,
      "Ġsharing": 1691,
      "alth": 1692,
      "hod": 1693,
      "cus": 1694,
      "add": 1695,
      "adge": 1696,
      "apture": 1697,
      "bookmark": 1698,
      "Ġgam": 1699,
      "ams": 1700,
      "Ġvolume": 1701,
      "Ġlocations": 1702,
      "aker": 1703,
      "cial": 1704,
      "Ġactivity": 1705,
      "raphic": 1706,
      "ternal": 1707,
      "rawing": 1708,
      "Split": 1709,
      "ology": 1710,
      "Image": 1711,
      "ale": 1712,
      "ake": 1713,
      "iel": 1714,
      "ng": 1715,
      "per": 1716,
      "puter": 1717,
      "sp": 1718,
      "ĠInput": 1719,
      "Ġthis": 1720,
      "Ġtab": 1721,
      "like": 1722,
      "Ġcollabor": 1723,
      "atar": 1724,
      "ature": 1725,
      "ree": 1726,
      "erature": 1727,
      "Ġnotification": 1728,
      "Search": 1729,
      "Export": 1730,
      "Store": 1731,
      "tention": 1732,
      "Ġbeen": 1733,
      "Apple": 1734,
      "combine": 1735,
      "Ġactive": 1736,
      "Ġkeyboard": 1737,
      "Ġattention": 1738,
      "Ġtrack": 1739,
      "Ġcustomize": 1740,
      "Ġoutput": 1741,
      "emperature": 1742,
      "Ġvisual": 1743,
      "aution": 1744,
      "Speaker": 1745,
      "Ġprofiles": 1746,
      "ield": 1747,
      "Cloud": 1748,
      "Messages": 1749,
      "Notify": 1750,
      "One": 1751,
      "bar": 1752,
      "hone": 1753,
      "ia": 1754,
      "ime": 1755,
      "ist": 1756,
      "king": 1757,
      "nc": 1758,
      "ni": 1759,
      "shopping": 1760,
      "ves": 1761,
      "Ġnavigate": 1762,
      "tive": 1763,
      "orology": 1764,
      "teorology": 1765,
      "Ġcopy": 1766,
      "Ġundo": 1767,
      "Ġinitiate": 1768,
      "Ġshopping": 1769,
      "Ġshape": 1770,
      "Ġcontacts": 1771,
      "Ġlike": 1772,
      "chase": 1773,
      "Ġreload": 1774,
      "Security": 1775,
      "Ġevents": 1776,
      "teria": 1777,
      "Ġadv": 1778,
      "sition": 1779,
      "ending": 1780,
      "Ġmost": 1781,
      "aint": 1782,
      "ggestion": 1783,
      "Delete": 1784,
      "Combin": 1785,
      "Ġprogram": 1786,
      "Layer": 1787,
      "provide": 1788,
      "ĠLight": 1789,
      "Ġpresentations": 1790,
      "Ġcreating": 1791,
      "Ġdeselect": 1792,
      "Ġcriteria": 1793,
      "Combines": 1794,
      "Group": 1795,
      "Music": 1796,
      "af": 1797,
      "cending": 1798,
      "language": 1799,
      "nis": 1800,
      "other": 1801,
      "preferences": 1802,
      "val": 1803,
      "wo": 1804,
      "Ġquery": 1805,
      "ennis": 1806,
      "ores": 1807,
      "Ġtwo": 1808,
      "Ġanalytics": 1809,
      "Ġcop": 1810,
      "start": 1811,
      "Ġcontain": 1812,
      "Ġwarning": 1813,
      "Ġits": 1814,
      "Ġanother": 1815,
      "Ġdirection": 1816,
      "ization": 1817,
      "Ġupdate": 1818,
      "off": 1819,
      "Ġorganize": 1820,
      "Ġeditor": 1821,
      "plor": 1822,
      "Ġcomputer": 1823,
      "Ġpurchase": 1824,
      "Scan": 1825,
      "Meteorology": 1826,
      "Ġobject": 1827,
      "Checkbox": 1828,
      "browser": 1829,
      "ecute": 1830,
      "Facebook": 1831,
      "Ġadvancing": 1832,
      "Dashboard": 1833,
      "Python": 1834,
      "Photos": 1835,
      "Sy": 1836,
      "Swit": 1837,
      "Vis": 1838,
      "branch": 1839,
      "ff": 1840,
      "ibility": 1841,
      "ma": 1842,
      "ming": 1843,
      "sis": 1844,
      "xed": 1845,
      "ĠU": 1846,
      "ĠPro": 1847,
      "ling": 1848,
      "ach": 1849,
      "med": 1850,
      "Ġfont": 1851,
      "Ġset": 1852,
      "anti": 1853,
      "anel": 1854,
      "vities": 1855,
      "Ġphoto": 1856,
      "Ġdrawing": 1857,
      "indicator": 1858,
      "Increase": 1859,
      "Connect": 1860,
      "amily": 1861,
      "ĠPowerPoint": 1862,
      "text": 1863,
      "pedia": 1864,
      "ĠOut": 1865,
      "Combine": 1866,
      "Layout": 1867,
      "plore": 1868,
      "place": 1869,
      "Direction": 1870,
      "Ġactivities": 1871,
      "Wikipedia": 1872,
      "Media": 1873,
      "Ġpost": 1874,
      "brary": 1875,
      "cussion": 1876,
      "Ġcopied": 1877,
      "plorer": 1878,
      "Switches": 1879,
      "Alerts": 1880,
      "Bluetooth": 1881,
      "Po": 1882,
      "SS": 1883,
      "user": 1884,
      "aces": 1885,
      "account": 1886,
      "Ġcenter": 1887,
      "leted": 1888,
      "Ġpar": 1889,
      "Ġpath": 1890,
      "Ġpanel": 1891,
      "Ġsoftware": 1892,
      "lobe": 1893,
      "ales": 1894,
      "Ġrefresh": 1895,
      "Ġmade": 1896,
      "cul": 1897,
      "Ġsty": 1898,
      "rim": 1899,
      "Ġupward": 1900,
      "ource": 1901,
      "Ġgraphic": 1902,
      "confirm": 1903,
      "ometric": 1904,
      "ĠImage": 1905,
      "Ġenable": 1906,
      "Adjusts": 1907,
      "ĠAlign": 1908,
      "Ġbranch": 1909,
      "profile": 1910,
      "Reduce": 1911,
      "ĠFormatting": 1912,
      "attery": 1913,
      "ducts": 1914,
      "antity": 1915,
      "65": 1916,
      "Fi": 1917,
      "Monitor": 1918,
      "Notification": 1919,
      "Sh": 1920,
      "We": 1921,
      "ay": 1922,
      "alert": 1923,
      "close": 1924,
      "document": 1925,
      "fied": 1926,
      "ires": 1927,
      "iCloud": 1928,
      "less": 1929,
      "ĠZoom": 1930,
      "Ġaut": 1931,
      "lides": 1932,
      "list": 1933,
      "selection": 1934,
      "Ġorder": 1935,
      "media": 1936,
      "Ġtop": 1937,
      "Ġfilter": 1938,
      "vision": 1939,
      "Ġprin": 1940,
      "Ġconnect": 1941,
      "Ġconfiguration": 1942,
      "Ġdashboard": 1943,
      "nder": 1944,
      "Selection": 1945,
      "ability": 1946,
      "Ġsub": 1947,
      "Ġdesktop": 1948,
      "ĠCenter": 1949,
      "ĠApp": 1950,
      "Ġplaces": 1951,
      "Deploy": 1952,
      "Ġtaskbar": 1953,
      "subscribe": 1954,
      "comments": 1955,
      "Wikimedia": 1956,
      "Ġ365": 1957,
      "Desktop": 1958,
      "Ġrequires": 1959,
      "Ġenhance": 1960,
      "Av": 1961,
      "Acti": 1962,
      "Cal": 1963,
      "Caution": 1964,
      "Find": 1965,
      "OS": 1966,
      "Pas": 1967,
      "Photo": 1968,
      "Paint": 1969,
      "Warning": 1970,
      "basket": 1971,
      "do": 1972,
      "fin": 1973,
      "gin": 1974,
      "gion": 1975,
      "mensions": 1976,
      "new": 1977,
      "option": 1978,
      "ock": 1979,
      "oot": 1980,
      "thod": 1981,
      "ull": 1982,
      "Ġro": 1983,
      "ĠControl": 1984,
      "tial": 1985,
      "tivity": 1986,
      "ors": 1987,
      "Ġtemperature": 1988,
      "Ġanaly": 1989,
      "internet": 1990,
      "rove": 1991,
      "Ġpack": 1992,
      "Ġprivacy": 1993,
      "Ġconfir": 1994,
      "Ġslides": 1995,
      "Secure": 1996,
      "Ġdimensions": 1997,
      "Ġprojects": 1998,
      "edIn": 1999,
      "Ġupload": 2000,
      "Ġmethod": 2001,
      "Ġvoice": 2002,
      "ĠAr": 2003,
      "Ġspace": 2004,
      "thing": 2005,
      "meric": 2006,
      "icker": 2007,
      "tract": 2008,
      "ĠOne": 2009,
      "Comment": 2010,
      "aking": 2011,
      "Ġquantity": 2012,
      "Ġcustomization": 2013,
      "ĠComment": 2014,
      "Design": 2015,
      "Bell": 2016,
      "Key": 2017,
      "ĠExplorer": 2018,
      "Ġalignment": 2019,
      "ireless": 2020,
      "Location": 2021,
      "OneDrive": 2022,
      "Avatar": 2023,
      "Ġconfirmed": 2024,
      "Join": 2025,
      "Network": 2026,
      "Skype": 2027,
      "amer": 2028,
      "cle": 2029,
      "cal": 2030,
      "eams": 2031,
      "ld": 2032,
      "ron": 2033,
      "rink": 2034,
      "tach": 2035,
      "taking": 2036,
      "vance": 2037,
      "yte": 2038,
      "ĠD": 2039,
      "ĠMore": 2040,
      "ĠWi": 2041,
      "ĠVis": 2042,
      "est": 2043,
      "essed": 2044,
      "orld": 2045,
      "lies": 2046,
      "inus": 2047,
      "aliz": 2048,
      "Ġcount": 2049,
      "Ġthem": 2050,
      "store": 2051,
      "storage": 2052,
      "reet": 2053,
      "error": 2054,
      "Ġpart": 2055,
      "ateg": 2056,
      "Ġdate": 2057,
      "Ġlists": 2058,
      "atest": 2059,
      "ouse": 2060,
      "Advance": 2061,
      "Ġstar": 2062,
      "Ġproducts": 2063,
      "Ġaccessing": 2064,
      "Ġlatest": 2065,
      "Ġass": 2066,
      "ĠTop": 2067,
      "Ġdisable": 2068,
      "Ġmer": 2069,
      "Ġhas": 2070,
      "Ġimport": 2071,
      "ĠColor": 2072,
      "Precipitation": 2073,
      "mbol": 2074,
      "ative": 2075,
      "Ġservices": 2076,
      "Ġscan": 2077,
      "blem": 2078,
      "Ġaccessed": 2079,
      "Order": 2080,
      "ggestions": 2081,
      "culator": 2082,
      "Keyboard": 2083,
      "amera": 2084,
      "Code": 2085,
      "Grid": 2086,
      "On": 2087,
      "Pe": 2088,
      "Person": 2089,
      "Picture": 2090,
      "Time": 2091,
      "duplicate": 2092,
      "ear": 2093,
      "ech": 2094,
      "ft": 2095,
      "globe": 2096,
      "ides": 2097,
      "ĠRe": 2098,
      "only": 2099,
      "Ġtap": 2100,
      "Ġar": 2101,
      "inan": 2102,
      "Ġcle": 2103,
      "ĠNote": 2104,
      "help": 2105,
      "Ġfinan": 2106,
      "Ġover": 2107,
      "Ġthey": 2108,
      "Ġus": 2109,
      "roug": 2110,
      "Ġinform": 2111,
      "Ġmat": 2112,
      "erm": 2113,
      "Ġprom": 2114,
      "Ġpower": 2115,
      "Ġsign": 2116,
      "essaging": 2117,
      "Ġoff": 2118,
      "Ġdates": 2119,
      "alk": 2120,
      "Rep": 2121,
      "OpenSt": 2122,
      "cel": 2123,
      "Inser": 2124,
      "aper": 2125,
      "ople": 2126,
      "ends": 2127,
      "ĠFeed": 2128,
      "ĠShapes": 2129,
      "ĠSkype": 2130,
      "configuration": 2131,
      "conversation": 2132,
      "Ġfolders": 2133,
      "Ġhealth": 2134,
      "Ġbookmark": 2135,
      "Ġshowing": 2136,
      "Apply": 2137,
      "Applies": 2138,
      "Computer": 2139,
      "Ġversions": 2140,
      "Ġcompleted": 2141,
      "checkbox": 2142,
      "Ġunread": 2143,
      "Ġconnectivity": 2144,
      "Trash": 2145,
      "Ġcommands": 2146,
      "Ġthroug": 2147,
      "Ġprogramming": 2148,
      "System": 2149,
      "nderline": 2150,
      "Paste": 2151,
      "reetMap": 2152,
      "Ġimportant": 2153,
      "People": 2154,
      "OpenStreetMap": 2155,
      "Inserts": 2156,
      "Ġthrough": 2157,
      "Aut": 2158,
      "Air": 2159,
      "Bin": 2160,
      "Byte": 2161,
      "DF": 2162,
      "Filter": 2163,
      "Option": 2164,
      "Par": 2165,
      "Pick": 2166,
      "Saf": 2167,
      "Word": 2168,
      "cy": 2169,
      "color": 2170,
      "clone": 2171,
      "io": 2172,
      "lash": 2173,
      "pr": 2174,
      "sc": 2175,
      "tures": 2176,
      "vate": 2177,
      "venu": 2178,
      "ĠGitLab": 2179,
      "tionary": 2180,
      "Ġtag": 2181,
      "Ġcateg": 2182,
      "hema": 2183,
      "Ġfi": 2184,
      "Ġinbox": 2185,
      "Ġconversation": 2186,
      "Ġsh": 2187,
      "Ġsome": 2188,
      "Ġscroll": 2189,
      "Remo": 2190,
      "Ġnot": 2191,
      "Ġbold": 2192,
      "Ġreports": 2193,
      "creases": 2194,
      "Ġmaking": 2195,
      "presentation": 2196,
      "Ġdirectory": 2197,
      "Ġprotection": 2198,
      "Ġdelete": 2199,
      "irror": 2200,
      "ounts": 2201,
      "ĠSlide": 2202,
      "Ġgame": 2203,
      "issors": 2204,
      "ĠBla": 2205,
      "Fork": 2206,
      "duce": 2207,
      "Updates": 2208,
      "Ġitalic": 2209,
      "Ġlead": 2210,
      "radio": 2211,
      "Ġlevels": 2212,
      "Schedule": 2213,
      "Scissors": 2214,
      "List": 2215,
      "Ġcreation": 2216,
      "Ġmarketing": 2217,
      "LinkedIn": 2218,
      "Ġcalendar": 2219,
      "istory": 2220,
      "Ġpaths": 2221,
      "WeChat": 2222,
      "ootball": 2223,
      "Ġmathema": 2224,
      "venue": 2225,
      "Center": 2226,
      "Highlight": 2227,
      "Im": 2228,
      "Main": 2229,
      "RSS": 2230,
      "badge": 2231,
      "drop": 2232,
      "has": 2233,
      "mac": 2234,
      "otion": 2235,
      "ocial": 2236,
      "person": 2237,
      "sy": 2238,
      "translate": 2239,
      "umeric": 2240,
      "Ġge": 2241,
      "ĠIn": 2242,
      "ĠEdit": 2243,
      "onent": 2244,
      "Ġtake": 2245,
      "Ġtrim": 2246,
      "secure": 2247,
      "ppet": 2248,
      "asure": 2249,
      "tegr": 2250,
      "Ġtoge": 2251,
      "heme": 2252,
      "ictures": 2253,
      "Ġoper": 2254,
      "arger": 2255,
      "Ġmonitor": 2256,
      "Ġsales": 2257,
      "Ġdark": 2258,
      "alle": 2259,
      "download": 2260,
      "Execute": 2261,
      "ocus": 2262,
      "Indicate": 2263,
      "fication": 2264,
      "Convert": 2265,
      "aving": 2266,
      "Ġgallery": 2267,
      "aming": 2268,
      "atalog": 2269,
      "Ġdisplaying": 2270,
      "Ġsections": 2271,
      "Ġplace": 2272,
      "Heart": 2273,
      "support": 2274,
      "otate": 2275,
      "Ġright": 2276,
      "Marks": 2277,
      "Lock": 2278,
      "Ġvalues": 2279,
      "attern": 2280,
      "Keep": 2281,
      "Ġconnected": 2282,
      "asketball": 2283,
      "Ġgames": 2284,
      "Ġgaming": 2285,
      "Ġcollaboration": 2286,
      "nippet": 2287,
      "Ġupwards": 2288,
      "ayment": 2289,
      "fine": 2290,
      "Ġuploading": 2291,
      "ĠArrow": 2292,
      "ĠOneNote": 2293,
      "alization": 2294,
      "Ġclean": 2295,
      "Ġfinancial": 2296,
      "Ġfixed": 2297,
      "Ġsomething": 2298,
      "Ġmathematical": 2299,
      "Images": 2300,
      "macOS": 2301,
      "sync": 2302,
      "Ġtogether": 2303,
      "Fill": 2304,
      "Favorites": 2305,
      "It": 2306,
      "Minus": 2307,
      "Power": 2308,
      "Privacy": 2309,
      "Voice": 2310,
      "Xbox": 2311,
      "den": 2312,
      "feed": 2313,
      "iki": 2314,
      "ieve": 2315,
      "mind": 2316,
      "mart": 2317,
      "now": 2318,
      "ner": 2319,
      "og": 2320,
      "over": 2321,
      "oci": 2322,
      "rus": 2323,
      "ss": 2324,
      "send": 2325,
      "tend": 2326,
      "active": 2327,
      "Ġchar": 2328,
      "Ġcancel": 2329,
      "ley": 2330,
      "ics": 2331,
      "Ġfill": 2332,
      "Ġfamily": 2333,
      "ats": 2334,
      "arge": 2335,
      "Ġintend": 2336,
      "report": 2337,
      "viron": 2338,
      "lected": 2339,
      "ated": 2340,
      "uring": 2341,
      "Ġwhere": 2342,
      "Ġdock": 2343,
      "Ġlibrary": 2344,
      "laun": 2345,
      "Rear": 2346,
      "Ġnumeric": 2347,
      "Ġbug": 2348,
      "Ġbrightness": 2349,
      "Ġregion": 2350,
      "Ġemp": 2351,
      "olley": 2352,
      "External": 2353,
      "Ġstates": 2354,
      "Stop": 2355,
      "Stack": 2356,
      "Confirm": 2357,
      "tential": 2358,
      "ĠTeams": 2359,
      "avel": 2360,
      "Ġdiscussion": 2361,
      "Ġexternal": 2362,
      "Protection": 2363,
      "Ġsubscribe": 2364,
      "Ġsuggestions": 2365,
      "ligh": 2366,
      "Ġprecipitation": 2367,
      "Ġpreference": 2368,
      "ĠPython": 2369,
      "ĠPicker": 2370,
      "Ġhave": 2371,
      "Ġenviron": 2372,
      "Ġsymbol": 2373,
      "Ġlock": 2374,
      "ĠManage": 2375,
      "Homepage": 2376,
      "ult": 2377,
      "Ġopened": 2378,
      "Alignment": 2379,
      "posit": 2380,
      "ventory": 2381,
      "Ġpotential": 2382,
      "Ġworksp": 2383,
      "Ġissues": 2384,
      "Website": 2385,
      "browse": 2386,
      "Ġcalculator": 2387,
      "Ġcontaining": 2388,
      "Ġassoci": 2389,
      "Safari": 2390,
      "Removes": 2391,
      "irroring": 2392,
      "ĠBlaze": 2393,
      "Ġcleaner": 2394,
      "Italic": 2395,
      "launch": 2396,
      "Ġemphas": 2397,
      "Ġworkspace": 2398,
      "An": 2399,
      "Brightness": 2400,
      "Ch": 2401,
      "Capture": 2402,
      "Fil": 2403,
      "Jav": 2404,
      "Met": 2405,
      "Present": 2406,
      "Sn": 2407,
      "Trans": 2408,
      "Talk": 2409,
      "bili": 2410,
      "bjects": 2411,
      "ee": 2412,
      "manage": 2413,
      "messaging": 2414,
      "noun": 2415,
      "ps": 2416,
      "paper": 2417,
      "save": 2418,
      "tails": 2419,
      "um": 2420,
      "work": 2421,
      "world": 2422,
      "ximize": 2423,
      "ĠVideo": 2424,
      "ong": 2425,
      "ener": 2426,
      "orting": 2427,
      "iness": 2428,
      "apping": 2429,
      "Ġcol": 2430,
      "Ġcollapse": 2431,
      "Ġcapture": 2432,
      "ĠNew": 2433,
      "hell": 2434,
      "Ġfield": 2435,
      "Ġtheme": 2436,
      "ane": 2437,
      "Ġmute": 2438,
      "Ġphotos": 2439,
      "Ġsing": 2440,
      "Ġsaving": 2441,
      "explore": 2442,
      "Ġwind": 2443,
      "Ġwireless": 2444,
      "Ġdec": 2445,
      "itness": 2446,
      "details": 2447,
      "Inbox": 2448,
      "Explore": 2449,
      "etplace": 2450,
      "Ġdivision": 2451,
      "Ġselecting": 2452,
      "usti": 2453,
      "Ġaccessibility": 2454,
      "agraph": 2455,
      "Ġwithout": 2456,
      "Conversation": 2457,
      "ĠFont": 2458,
      "erscript": 2459,
      "Ġyou": 2460,
      "Ġsyn": 2461,
      "ĠMe": 2462,
      "Ġhelping": 2463,
      "Wik": 2464,
      "Device": 2465,
      "track": 2466,
      "ĠObjects": 2467,
      "Backtrack": 2468,
      "Ġprogress": 2469,
      "Ġcommonly": 2470,
      "Ġrating": 2471,
      "Divide": 2472,
      "comm": 2473,
      "ighligh": 2474,
      "Ġentering": 2475,
      "Subtract": 2476,
      "Ġtrends": 2477,
      "Printer": 2478,
      "ĠComm": 2479,
      "Ġrainy": 2480,
      "Ġdeselected": 2481,
      "Ġfeedback": 2482,
      "Ġreadability": 2483,
      "Ġcollaborative": 2484,
      "offee": 2485,
      "Ġautom": 2486,
      "Activate": 2487,
      "Calendar": 2488,
      "Ġstarting": 2489,
      "Repeat": 2490,
      "press": 2491,
      "schedule": 2492,
      "Ġcategor": 2493,
      "tegrate": 2494,
      "Ġnumerical": 2495,
      "ĠManagement": 2496,
      "pository": 2497,
      "Java": 2498,
      "Snip": 2499,
      "nounce": 2500,
      "Ġcollection": 2501,
      "Ġsingle": 2502,
      "Bold": 2503,
      "Char": 2504,
      "Date": 2505,
      "Dark": 2506,
      "Family": 2507,
      "Ge": 2508,
      "Game": 2509,
      "My": 2510,
      "PP": 2511,
      "PDF": 2512,
      "Shapes": 2513,
      "Stick": 2514,
      "Shape": 2515,
      "Type": 2516,
      "Temp": 2517,
      "Tennis": 2518,
      "bile": 2519,
      "dashboard": 2520,
      "ered": 2521,
      "ls": 2522,
      "ram": 2523,
      "ranges": 2524,
      "sh": 2525,
      "screen": 2526,
      "tte": 2527,
      "tore": 2528,
      "Ġj": 2529,
      "ĠSelection": 2530,
      "Ġerror": 2531,
      "Ġtyp": 2532,
      "Ġcamera": 2533,
      "Ġflow": 2534,
      "Ġfocus": 2535,
      "attach": 2536,
      "Ġsecure": 2537,
      "arrow": 2538,
      "rome": 2539,
      "roval": 2540,
      "record": 2541,
      "Ġman": 2542,
      "Ġpop": 2543,
      "Ġpoin": 2544,
      "Ġpayment": 2545,
      "Ġsim": 2546,
      "Ġscrip": 2547,
      "Ġscript": 2548,
      "Ġsource": 2549,
      "Ġsocial": 2550,
      "Ġdrive": 2551,
      "chieve": 2552,
      "Recent": 2553,
      "Ġapply": 2554,
      "Ġneed": 2555,
      "Ġbattery": 2556,
      "Ġrecord": 2557,
      "Ġreport": 2558,
      "Section": 2559,
      "hop": 2560,
      "lications": 2561,
      "Info": 2562,
      "Increases": 2563,
      "Ġstre": 2564,
      "Ġstores": 2565,
      "Ġproblem": 2566,
      "Accessibility": 2567,
      "ries": 2568,
      "utes": 2569,
      "Ġcurrently": 2570,
      "Ġlarger": 2571,
      "ackage": 2572,
      "Ġassist": 2573,
      "ĠScreen": 2574,
      "Ġexper": 2575,
      "Users": 2576,
      "ĠPreferences": 2577,
      "omer": 2578,
      "ggest": 2579,
      "ĠCode": 2580,
      "ganize": 2581,
      "ĠMet": 2582,
      "gram": 2583,
      "witter": 2584,
      "Ġleft": 2585,
      "Art": 2586,
      "Moves": 2587,
      "comment": 2588,
      "Ġexpanding": 2589,
      "Ġfunctions": 2590,
      "Ġserver": 2591,
      "discussion": 2592,
      "Ġposition": 2593,
      "Ġconnections": 2594,
      "Videos": 2595,
      "Resize": 2596,
      "Track": 2597,
      "Quick": 2598,
      "Ġenhancing": 2599,
      "alette": 2600,
      "Ġtracking": 2601,
      "Ġcontained": 2602,
      "ĠUI": 2603,
      "Ġdrawings": 2604,
      "Position": 2605,
      "Shield": 2606,
      "Ġfilters": 2607,
      "Ġroute": 2608,
      "ĠVisio": 2609,
      "Ġpromp": 2610,
      "Ġbookmarked": 2611,
      "Auto": 2612,
      "Ġleads": 2613,
      "Ġgeometric": 2614,
      "ĠEditor": 2615,
      "Rearranges": 2616,
      "olleyball": 2617,
      "Ġlocked": 2618,
      "Ġassociated": 2619,
      "Ġemphasis": 2620,
      "ĠMedia": 2621,
      "PPT": 2622,
      "Ġscripts": 2623,
      "chievements": 2624,
      "Battery": 2625,
      "Do": 2626,
      "Ena": 2627,
      "Graph": 2628,
      "History": 2629,
      "Light": 2630,
      "Night": 2631,
      "Out": 2632,
      "Prom": 2633,
      "Rotate": 2634,
      "Script": 2635,
      "Tag": 2636,
      "Table": 2637,
      "Take": 2638,
      "bu": 2639,
      "bug": 2640,
      "ds": 2641,
      "done": 2642,
      "data": 2643,
      "fter": 2644,
      "gn": 2645,
      "ient": 2646,
      "ify": 2647,
      "lation": 2648,
      "large": 2649,
      "main": 2650,
      "notifications": 2651,
      "od": 2652,
      "pad": 2653,
      "pect": 2654,
      "ru": 2655,
      "switch": 2656,
      "tain": 2657,
      "Ġ(": 2658,
      "ĠContent": 2659,
      "ĠLayers": 2660,
      "ĠDirection": 2661,
      "time": 2662,
      "tional": 2663,
      "Ġag": 2664,
      "Ġafter": 2665,
      "ination": 2666,
      "inal": 2667,
      "insert": 2668,
      "nake": 2669,
      "tect": 2670,
      "Ġcap": 2671,
      "Ġcut": 2672,
      "Ġcoffee": 2673,
      "Ġtool": 2674,
      "leep": 2675,
      "ledge": 2676,
      "Ġfull": 2677,
      "ational": 2678,
      "reen": 2679,
      "refresh": 2680,
      "Ġpin": 2681,
      "Ġpoint": 2682,
      "Ġperm": 2683,
      "Ġpattern": 2684,
      "Ġsort": 2685,
      "Ġsnippet": 2686,
      "Ġcontact": 2687,
      "Ġide": 2688,
      "lap": 2689,
      "chain": 2690,
      "Ġappear": 2691,
      "Ġnumb": 2692,
      "Ġblog": 2693,
      "Ġbul": 2694,
      "Ġreference": 2695,
      "Ġreduce": 2696,
      "Ġremind": 2697,
      "Integrate": 2698,
      "Disk": 2699,
      "Additional": 2700,
      "etch": 2701,
      "ophone": 2702,
      "Connection": 2703,
      "ortcu": 2704,
      "Ġascending": 2705,
      "Ġmodes": 2706,
      "ircle": 2707,
      "ferred": 2708,
      "ĠSwitch": 2709,
      "Ġexecute": 2710,
      "Project": 2711,
      "ously": 2712,
      "Mixed": 2713,
      "upload": 2714,
      "Microphone": 2715,
      "Ġpreferred": 2716,
      "issue": 2717,
      "ĠBo": 2718,
      "ĠBlock": 2719,
      "ĠBluetooth": 2720,
      "ĠPin": 2721,
      "Ġmeeting": 2722,
      "Ġdescending": 2723,
      "Ġhides": 2724,
      "ĠIt": 2725,
      "hentic": 2726,
      "ĠCh": 2727,
      "ĠCard": 2728,
      "ĠCount": 2729,
      "Ġadding": 2730,
      "ĠAccount": 2731,
      "ĠAnaly": 2732,
      "cture": 2733,
      "merce": 2734,
      "label": 2735,
      "ults": 2736,
      "Creates": 2737,
      "atio": 2738,
      "Ġareas": 2739,
      "Ġplayers": 2740,
      "Ġemails": 2741,
      "Ġspecified": 2742,
      "program": 2743,
      "Ġcompose": 2744,
      "Returns": 2745,
      "Box": 2746,
      "Look": 2747,
      "Scale": 2748,
      "Measure": 2749,
      "ugin": 2750,
      "Ġcustomer": 2751,
      "ĠComputer": 2752,
      "Ġforecasted": 2753,
      "Speech": 2754,
      "Reloads": 2755,
      "ternational": 2756,
      "Ġconfirmation": 2757,
      "Question": 2758,
      "Ġaccounts": 2759,
      "Organize": 2760,
      "ĠProject": 2761,
      "Ġstyles": 2762,
      "ĠAlignment": 2763,
      "Ġbranching": 2764,
      "closed": 2765,
      "Ġprinting": 2766,
      "Ġprinter": 2767,
      "news": 2768,
      "Ġanalyze": 2769,
      "Ġpackage": 2770,
      "Ġpackages": 2771,
      "Ġmerge": 2772,
      "Ġmerging": 2773,
      "Online": 2774,
      "Ġusage": 2775,
      "cycle": 2776,
      "Ġtags": 2777,
      "Ġnotes": 2778,
      "nowledge": 2779,
      "ultane": 2780,
      "Film": 2781,
      "Ġsyncing": 2782,
      "Geometric": 2783,
      "Ġsimultane": 2784,
      "Ġstreaming": 2785,
      "Ġproblems": 2786,
      "Ġexperi": 2787,
      "ĠMethod": 2788,
      "ructure": 2789,
      "ĠAnalysis": 2790,
      "Ġsimultaneously": 2791,
      "Basketball": 2792,
      "Clipboard": 2793,
      "Camera": 2794,
      "Feed": 2795,
      "GP": 2796,
      "Performance": 2797,
      "Pictures": 2798,
      "Package": 2799,
      "Run": 2800,
      "Sports": 2801,
      "Source": 2802,
      "Th": 2803,
      "Trim": 2804,
      "Theme": 2805,
      "Underline": 2806,
      "Ver": 2807,
      "Wind": 2808,
      "You": 2809,
      "atic": 2810,
      "by": 2811,
      "come": 2812,
      "catalog": 2813,
      "ful": 2814,
      "go": 2815,
      "pti": 2816,
      "privacy": 2817,
      "phone": 2818,
      "rain": 2819,
      "rics": 2820,
      "she": 2821,
      "task": 2822,
      "ub": 2823,
      "ual": 2824,
      "ualization": 2825,
      "wireless": 2826,
      "ĠG": 2827,
      "ĠAccess": 2828,
      "ĠProfile": 2829,
      "ĠRecord": 2830,
      "ĠGallery": 2831,
      "ons": 2832,
      "oring": 2833,
      "Ġtable": 2834,
      "Ġtrans": 2835,
      "Ġtennis": 2836,
      "Ġachievements": 2837,
      "Ġorient": 2838,
      "inventory": 2839,
      "international": 2840,
      "align": 2841,
      "ently": 2842,
      "Ġfri": 2843,
      "Ġunderline": 2844,
      "anner": 2845,
      "gear": 2846,
      "Ġmapping": 2847,
      "Ġpag": 2848,
      "Ġpicture": 2849,
      "Ġpalette": 2850,
      "Ġsun": 2851,
      "urs": 2852,
      "Ġword": 2853,
      "Ġduplicate": 2854,
      "tems": 2855,
      "extensions": 2856,
      "als": 2857,
      "Report": 2858,
      "Reports": 2859,
      "Redo": 2860,
      "Ġapprove": 2861,
      "ressed": 2862,
      "Ġblock": 2863,
      "Ġbadge": 2864,
      "oute": 2865,
      "Ġrec": 2866,
      "Ġremo": 2867,
      "Ġrevenue": 2868,
      "Ġrefine": 2869,
      "Ġrepository": 2870,
      "Ġear": 2871,
      "decrease": 2872,
      "Ġaddition": 2873,
      "ety": 2874,
      "adjust": 2875,
      "Ġstatis": 2876,
      "Ġprodu": 2877,
      "Ġproceed": 2878,
      "Storage": 2879,
      "Ġlow": 2880,
      "verage": 2881,
      "unning": 2882,
      "avatar": 2883,
      "iration": 2884,
      "ĠFiles": 2885,
      "ĠFill": 2886,
      "Ġdisk": 2887,
      "ĠSign": 2888,
      "ĠShape": 2889,
      "ĠScript": 2890,
      "ustr": 2891,
      "Ġgreen": 2892,
      "Ġinteraction": 2893,
      "ups": 2894,
      "rowser": 2895,
      "ticip": 2896,
      "ĠPC": 2897,
      "Ġhighligh": 2898,
      "ointer": 2899,
      "ĠMagento": 2900,
      "ĠMirroring": 2901,
      "ĠAll": 2902,
      "graph": 2903,
      "mbers": 2904,
      "figure": 2905,
      "Ġbegin": 2906,
      "Health": 2907,
      "Ġresults": 2908,
      "Approve": 2909,
      "Applications": 2910,
      "Comm": 2911,
      "Ġbrowse": 2912,
      "ctivity": 2913,
      "idea": 2914,
      "Move": 2915,
      "Layered": 2916,
      "Ġresource": 2917,
      "Division": 2918,
      "problem": 2919,
      "ĠList": 2920,
      "Ġcomplete": 2921,
      "Ġcomponent": 2922,
      "raf": 2923,
      "Marker": 2924,
      "Marketing": 2925,
      "Log": 2926,
      "ĠRSS": 2927,
      "Ġtips": 2928,
      "arnings": 2929,
      "Ġschedu": 2930,
      "Ġschedule": 2931,
      "Ġtravel": 2932,
      "ooter": 2933,
      "ause": 2934,
      "Ġseeking": 2935,
      "Reset": 2936,
      "Restore": 2937,
      "Begin": 2938,
      "Ġrequest": 2939,
      "Quit": 2940,
      "Ġquickly": 2941,
      "Locate": 2942,
      "Ġcalls": 2943,
      "spiration": 2944,
      "ĠProcess": 2945,
      "Ġstyli": 2946,
      "Ġgraphical": 2947,
      "Ġsubmit": 2948,
      "ĠApple": 2949,
      "calendar": 2950,
      "ĠDot": 2951,
      "ĠVisualization": 2952,
      "ĠRecording": 2953,
      "Ġartic": 2954,
      "Parcel": 2955,
      "Ġshortcu": 2956,
      "Ġoperation": 2957,
      "martArt": 2958,
      "Ġenvironment": 2959,
      "Announce": 2960,
      "Metrics": 2961,
      "Presentation": 2962,
      "Wiktionary": 2963,
      "shrink": 2964,
      "Ġtyping": 2965,
      "Ġmanip": 2966,
      "Ġpoints": 2967,
      "Ġneeds": 2968,
      "Ġassistant": 2969,
      "Ġprompting": 2970,
      "Promotion": 2971,
      "tainment": 2972,
      "laptop": 2973,
      "Ġnumbers": 2974,
      "Ġbulb": 2975,
      "Ġreminders": 2976,
      "ĠBox": 2977,
      "Ġpagination": 2978,
      "Ġstatistical": 2979,
      "Ġproceeding": 2980,
      "Ġshortcuts": 2981,
      "Announcement": 2982,
      "Availab": 2983,
      "Block": 2984,
      "CD": 2985,
      "Clock": 2986,
      "Earnings": 2987,
      "Football": 2988,
      "Gra": 2989,
      "Gau": 2990,
      "ID": 2991,
      "Justi": 2992,
      "Lap": 2993,
      "Off": 2994,
      "Pi": 2995,
      "Perform": 2996,
      "QR": 2997,
      "Ra": 2998,
      "Route": 2999,
      "Sup": 3000,
      "Ski": 3001,
      "Sales": 3002,
      "Song": 3003,
      "Shell": 3004,
      "Sleep": 3005,
      "Temperature": 3006,
      "Un": 3007,
      "Yand": 3008,
      "ade": 3009,
      "air": 3010,
      "audio": 3011,
      "da": 3012,
      "dle": 3013,
      "dic": 3014,
      "drive": 3015,
      "ell": 3016,
      "eval": 3017,
      "fes": 3018,
      "for": 3019,
      "ften": 3020,
      "full": 3021,
      "ibrary": 3022,
      "ified": 3023,
      "ium": 3024,
      "items": 3025,
      "messages": 3026,
      "note": 3027,
      "not": 3028,
      "photo": 3029,
      "picture": 3030,
      "ponent": 3031,
      "sen": 3032,
      "stic": 3033,
      "step": 3034,
      "sound": 3035,
      "scroll": 3036,
      "sports": 3037,
      "shop": 3038,
      "vas": 3039,
      "wan": 3040,
      "wiki": 3041,
      "Ġ&": 3042,
      "ĠE": 3043,
      "Ġk": 3044,
      "ĠDrive": 3045,
      "ĠSecurity": 3046,
      "ĠWikipedia": 3047,
      "Ġlabel": 3048,
      "Ġextensions": 3049,
      "Ġlaptop": 3050,
      "onse": 3051,
      "ency": 3052,
      "Ġall": 3053,
      "Ġabo": 3054,
      "inactive": 3055,
      "crop": 3056,
      "assistance": 3057,
      "Ġ[],": 3058,
      "Ġcaution": 3059,
      "Ġcatalog": 3060,
      "Ġtoggle": 3061,
      "heart": 3062,
      "Ġfree": 3063,
      "Ġfootball": 3064,
      "Ġfitness": 3065,
      "Ġouter": 3066,
      "atab": 3067,
      "llustr": 3068,
      "anently": 3069,
      "Ġinc": 3070,
      "Ġinspiration": 3071,
      "stri": 3072,
      "dient": 3073,
      "reduce": 3074,
      "erci": 3075,
      "Ġprop": 3076,
      "Ġpages": 3077,
      "Ġperform": 3078,
      "Ġpicker": 3079,
      "Ġsm": 3080,
      "Ġsaf": 3081,
      "Ġsorting": 3082,
      "exit": 3083,
      "Ġwri": 3084,
      "Ġwater": 3085,
      "Ġwiki": 3086,
      "Ġdot": 3087,
      "Ġif": 3088,
      "Ġlik": 3089,
      "ccounts": 3090,
      "ital": 3091,
      "Red": 3092,
      "Reveal": 3093,
      "Recording": 3094,
      "Revenue": 3095,
      "Ġapproval": 3096,
      "rest": 3097,
      "Ġreview": 3098,
      "Ġrepresent": 3099,
      "Ġrepor": 3100,
      "ĠeCom": 3101,
      "Ġeduc": 3102,
      "Ġeff": 3103,
      "andball": 3104,
      "Income": 3105,
      "Disable": 3106,
      "ader": 3107,
      "Ġviews": 3108,
      "Ġdivide": 3109,
      "sig": 3110,
      "side": 3111,
      "ards": 3112,
      "Ġdocumentation": 3113,
      "quid": 3114,
      "question": 3115,
      "Ġnews": 3116,
      "verti": 3117,
      "anguages": 3118,
      "unicate": 3119,
      "ĠTime": 3120,
      "ĠTennis": 3121,
      "wards": 3122,
      "Ġdisab": 3123,
      "ĠSpe": 3124,
      "Ġexecu": 3125,
      "tyle": 3126,
      "tool": 3127,
      "Ġprevent": 3128,
      "ĠBin": 3129,
      "ĠPlay": 3130,
      "gging": 3131,
      "Ġhid": 3132,
      "Ġwebpage": 3133,
      "menus": 3134,
      "ĠCircle": 3135,
      "Ġaddressed": 3136,
      "Ġsync": 3137,
      "Ġloss": 3138,
      "Ġprocessing": 3139,
      "ĠAction": 3140,
      "ĠAlert": 3141,
      "lipsis": 3142,
      "Ġformats": 3143,
      "Ġlocal": 3144,
      "Ġbeing": 3145,
      "network": 3146,
      "Ġcanvas": 3147,
      "Devices": 3148,
      "Ġrest": 3149,
      "ĠOften": 3150,
      "image": 3151,
      "ativity": 3152,
      "Ġhomepage": 3153,
      "Ġmaps": 3154,
      "suggest": 3155,
      "Goog": 3156,
      "Ġplaying": 3157,
      "Movi": 3158,
      "Ġrunning": 3159,
      "plus": 3160,
      "unctions": 3161,
      "ĠLibrary": 3162,
      "raffic": 3163,
      "Ġentries": 3164,
      "Marketplace": 3165,
      "Ġchess": 3166,
      "Ġentertainment": 3167,
      "Love": 3168,
      "essional": 3169,
      "Ġquality": 3170,
      "disk": 3171,
      "dismiss": 3172,
      "Ġscore": 3173,
      "Ġcreativity": 3174,
      "Ġunwan": 3175,
      "ĠViewer": 3176,
      "Ġguides": 3177,
      "Ġadjustments": 3178,
      "Ġmodeling": 3179,
      "Ġmodels": 3180,
      "Rainy": 3181,
      "ĠExcel": 3182,
      "readshe": 3183,
      "OneNote": 3184,
      "Ġdirections": 3185,
      "maximize": 3186,
      "ĠOutlook": 3187,
      "Post": 3188,
      "Ġparagraph": 3189,
      "Ġgraphics": 3190,
      "Ġauthentic": 3191,
      "Ġsubmenus": 3192,
      "Ġmethods": 3193,
      "Ġthemes": 3194,
      "Ġscanning": 3195,
      "Ġpromotion": 3196,
      "Ġsignify": 3197,
      "lashX": 3198,
      "Ġmonitoring": 3199,
      "Ġdarker": 3200,
      "rush": 3201,
      "enerate": 3202,
      "Outlook": 3203,
      "Ġagree": 3204,
      "Ġpermanently": 3205,
      "ugins": 3206,
      "GPS": 3207,
      "Ġorientation": 3208,
      "Ġapproved": 3209,
      "Ġstylistic": 3210,
      "Gauge": 3211,
      "Laptop": 3212,
      "Radio": 3213,
      "Superscript": 3214,
      "Skip": 3215,
      "Yandex": 3216,
      "festyle": 3217,
      "Ġabove": 3218,
      "atabase": 3219,
      "ercise": 3220,
      "Ġperforming": 3221,
      "Ġreported": 3222,
      "ĠeCommerce": 3223,
      "Ġeducational": 3224,
      "Ġhidden": 3225,
      "Google": 3226,
      "Ġunwanted": 3227,
      "readsheet": 3228,
      ").',": 3229,
      "At": 3230,
      "Bree": 3231,
      "Browser": 3232,
      "Brush": 3233,
      "Cr": 3234,
      "Cast": 3235,
      "ClashX": 3236,
      "Draw": 3237,
      "Er": 3238,
      "FB": 3239,
      "Fold": 3240,
      "Graphic": 3241,
      "Globe": 3242,
      "Hub": 3243,
      "IA": 3244,
      "Messaging": 3245,
      "Number": 3246,
      "Office": 3247,
      "Page": 3248,
      "Phone": 3249,
      "Paper": 3250,
      "Pattern": 3251,
      "Pause": 3252,
      "RL": 3253,
      "Ru": 3254,
      "So": 3255,
      "Sw": 3256,
      "Sams": 3257,
      "Sorting": 3258,
      "Ti": 3259,
      "Tun": 3260,
      "Turn": 3261,
      "Twitter": 3262,
      "Traffic": 3263,
      "VID": 3264,
      "World": 3265,
      "alerts": 3266,
      "base": 3267,
      "bles": 3268,
      "bute": 3269,
      "cat": 3270,
      "call": 3271,
      "clock": 3272,
      "dal": 3273,
      "dds": 3274,
      "ellow": 3275,
      "ges": 3276,
      "gage": 3277,
      "gital": 3278,
      "hy": 3279,
      "hard": 3280,
      "house": 3281,
      "iOS": 3282,
      "ku": 3283,
      "lud": 3284,
      "men": 3285,
      "mile": 3286,
      "mute": 3287,
      "math": 3288,
      "notate": 3289,
      "oy": 3290,
      "osition": 3291,
      "perscript": 3292,
      "slide": 3293,
      "software": 3294,
      "snake": 3295,
      "smile": 3296,
      "tal": 3297,
      "talk": 3298,
      "turing": 3299,
      "und": 3300,
      "we": 3301,
      "ymbol": 3302,
      "Ġvide": 3303,
      "ĠWiki": 3304,
      "ĠLayout": 3305,
      "Ġlaunch": 3306,
      "ĠSection": 3307,
      "ĠDisk": 3308,
      "tification": 3309,
      "tions": 3310,
      "oriz": 3311,
      "ories": 3312,
      "orative": 3313,
      "Ġturn": 3314,
      "Ġorig": 3315,
      "nar": 3316,
      "nacon": 3317,
      "acti": 3318,
      "terest": 3319,
      "application": 3320,
      "Ġcar": 3321,
      "Ġcard": 3322,
      "Ġcitation": 3323,
      "Ġcover": 3324,
      "Ġcod": 3325,
      "oney": 3326,
      "leting": 3327,
      "lease": 3328,
      "Ġface": 3329,
      "Ġthere": 3330,
      "atch": 3331,
      "artial": 3332,
      "round": 3333,
      "Ġinst": 3334,
      "Ġinactive": 3335,
      "Ġinventory": 3336,
      "Ġinterest": 3337,
      "get": 3338,
      "stores": 3339,
      "dimen": 3340,
      "rea": 3341,
      "reat": 3342,
      "reload": 3343,
      "Ġmirroring": 3344,
      "Ġmutes": 3345,
      "Ġpi": 3346,
      "Ġpictures": 3347,
      "Ġside": 3348,
      "lothing": 3349,
      "Ġwhe": 3350,
      "Ġwiz": 3351,
      "Ġdraf": 3352,
      "Ġdatabase": 3353,
      "Ġiden": 3354,
      "Ġidle": 3355,
      "chart": 3356,
      "chive": 3357,
      "Replace": 3358,
      "Region": 3359,
      "Release": 3360,
      "Ġnight": 3361,
      "Ġnotify": 3362,
      "Ġbin": 3363,
      "Ġbar": 3364,
      "Ġbasketball": 3365,
      "ought": 3366,
      "Ġrep": 3367,
      "Ġretri": 3368,
      "Ġrepresentation": 3369,
      "Ġmake": 3370,
      "culate": 3371,
      "Inst": 3372,
      "Adverti": 3373,
      "Ġstructure": 3374,
      "Ġstoring": 3375,
      "ective": 3376,
      "Ġmenus": 3377,
      "agram": 3378,
      "dity": 3379,
      "utor": 3380,
      "Style": 3381,
      "Ġchosen": 3382,
      "Ġlower": 3383,
      "Ġlanguages": 3384,
      "version": 3385,
      "Ġdeleting": 3386,
      "Ġmobile": 3387,
      "Ġmodal": 3388,
      "Ġonly": 3389,
      "acebook": 3390,
      "ung": 3391,
      "ĠTag": 3392,
      "ĠTab": 3393,
      "ĠTwitter": 3394,
      "ĠFavorites": 3395,
      "ĠField": 3396,
      "ĠFacebook": 3397,
      "Ġdiscus": 3398,
      "ĠSc": 3399,
      "ĠSharing": 3400,
      "ĠSoftware": 3401,
      "ĠSmartArt": 3402,
      "ĠSymbol": 3403,
      "Protect": 3404,
      "Ġgenerate": 3405,
      "Ġcombin": 3406,
      "Ġsuccess": 3407,
      "Ġsuperscript": 3408,
      "convert": 3409,
      "tools": 3410,
      "ĠBall": 3411,
      "ĠBranch": 3412,
      "ĠBrightness": 3413,
      "sional": 3414,
      "tically": 3415,
      "ĠPain": 3416,
      "ĠPrin": 3417,
      "ĠPhoto": 3418,
      "ĠPDF": 3419,
      "Ġmeasure": 3420,
      "Ġmembers": 3421,
      "Ġhal": 3422,
      "Ġhistory": 3423,
      "Ġhoriz": 3424,
      "ĠID": 3425,
      "Ġdisplays": 3426,
      "ĠCI": 3427,
      "ĠCrop": 3428,
      "Ġvolleyball": 3429,
      "Ġenlarge": 3430,
      "Ġengage": 3431,
      "market": 3432,
      "ĠMark": 3433,
      "ĠMusic": 3434,
      "ĠMartial": 3435,
      "homepage": 3436,
      "ĠAs": 3437,
      "ĠArea": 3438,
      "Ġspeed": 3439,
      "Ġsplit": 3440,
      "Ġplan": 3441,
      "ilities": 3442,
      "Documents": 3443,
      "Documentation": 3444,
      "thought": 3445,
      "GitHub": 3446,
      "icket": 3447,
      "Label": 3448,
      "Develop": 3449,
      "Decreases": 3450,
      "Ġresize": 3451,
      "peti": 3452,
      "Ġreveals": 3453,
      "ĠOff": 3454,
      "Apps": 3455,
      "sub": 3456,
      "Ġedited": 3457,
      "otton": 3458,
      "Ġpass": 3459,
      "Ġpaste": 3460,
      "Ġopens": 3461,
      "ellipsis": 3462,
      "ĠStatus": 3463,
      "Ġfinding": 3464,
      "Ġprojector": 3465,
      "trict": 3466,
      "Score": 3467,
      "Meter": 3468,
      "ĠRatio": 3469,
      "ugby": 3470,
      "Ġcolors": 3471,
      "ĠWarning": 3472,
      "Tools": 3473,
      "Subscribe": 3474,
      "Ġworkflow": 3475,
      "Ġcheckbox": 3476,
      "Ġunit": 3477,
      "Ġunlock": 3478,
      "ĠTools": 3479,
      "Ġcommunicate": 3480,
      "Ġvisualization": 3481,
      "Ġgroups": 3482,
      "Ġvisible": 3483,
      "Resume": 3484,
      "Ġnetworks": 3485,
      "Ġprofessional": 3486,
      "Ġreading": 3487,
      "FaceTime": 3488,
      "valu": 3489,
      "Sync": 3490,
      "ĠURL": 3491,
      "Directions": 3492,
      "Ġparalle": 3493,
      "Ġparticip": 3494,
      "Ġstyling": 3495,
      "door": 3496,
      "Ġanalytical": 3497,
      "Ġanalysis": 3498,
      "Ġslideshow": 3499,
      "ĠArts": 3500,
      "merican": 3501,
      "ĠOneDrive": 3502,
      "ĠDown": 3503,
      "Timeline": 3504,
      "Ġoverlay": 3505,
      "Ġusability": 3506,
      "Filters": 3507,
      "Paragraph": 3508,
      "Ġitalics": 3509,
      "Ġleading": 3510,
      "martphone": 3511,
      "ssue": 3512,
      "Ġcharging": 3513,
      "Ġenvironments": 3514,
      "Italicize": 3515,
      "Chrome": 3516,
      "Transform": 3517,
      "bilibili": 3518,
      "Ġprogressing": 3519,
      "commend": 3520,
      "communicate": 3521,
      "ĠCommonly": 3522,
      "Ġautomation": 3523,
      "Ġautomatic": 3524,
      "Ġcategorize": 3525,
      "Charge": 3526,
      "Template": 3527,
      "Ġjo": 3528,
      "Ġjusti": 3529,
      "Doc": 3530,
      "Enables": 3531,
      "Ġcapturing": 3532,
      "Ġidea": 3533,
      "ĠChrome": 3534,
      "Ġexperience": 3535,
      "Youku": 3536,
      "tasking": 3537,
      "Ġfriend": 3538,
      "ursor": 3539,
      "Ġremoving": 3540,
      "graphic": 3541,
      "Ġarticles": 3542,
      "onset": 3543,
      "Ġinclud": 3544,
      "stribute": 3545,
      "Ġproper": 3546,
      "Ġsmaller": 3547,
      "Ġsafety": 3548,
      "sidebar": 3549,
      "Movie": 3550,
      "Ġauthenticity": 3551,
      "Ġpromotional": 3552,
      "Attach": 3553,
      "Breeze": 3554,
      "Ruler": 3555,
      "Samsung": 3556,
      "Timer": 3557,
      "VIDIA": 3558,
      "based": 3559,
      "Ġvideos": 3560,
      "Ġoriginal": 3561,
      "naconda": 3562,
      "Ġcoverage": 3563,
      "Ġcoding": 3564,
      "dimensional": 3565,
      "Ġwizards": 3566,
      "Ġdrafting": 3567,
      "Ġretrieval": 3568,
      "Advertise": 3569,
      "Ġdiscussions": 3570,
      "ĠPainter": 3571,
      "ĠPrinter": 3572,
      "Ġhorizont": 3573,
      "Ġparallel": 3574,
      "Ġincluding": 3575,
      ".,": 3576,
      "Accounts": 3577,
      "Anaconda": 3578,
      "Base": 3579,
      "Call": 3580,
      "Card": 3581,
      "Cup": 3582,
      "Cite": 3583,
      "Deb": 3584,
      "Drink": 3585,
      "Equ": 3586,
      "Emp": 3587,
      "Files": 3588,
      "Fire": 3589,
      "Full": 3590,
      "Fitness": 3591,
      "Gener": 3592,
      "Highligh": 3593,
      "Handball": 3594,
      "IE": 3595,
      "Illustr": 3596,
      "Knowledge": 3597,
      "Larger": 3598,
      "Ma": 3599,
      "Man": 3600,
      "Mag": 3601,
      "Multi": 3602,
      "Mouse": 3603,
      "Narrow": 3604,
      "NVIDIA": 3605,
      "Payment": 3606,
      "Pointer": 3607,
      "Rating": 3608,
      "Sk": 3609,
      "Sun": 3610,
      "Sof": 3611,
      "Sign": 3612,
      "Slide": 3613,
      "Slash": 3614,
      "Snippet": 3615,
      "Smartphone": 3616,
      "Tip": 3617,
      "Teams": 3618,
      "Term": 3619,
      "Twe": 3620,
      "Vali": 3621,
      "Wri": 3622,
      "analytics": 3623,
      "affic": 3624,
      "bud": 3625,
      "cted": 3626,
      "case": 3627,
      "cancel": 3628,
      "capture": 3629,
      "eis": 3630,
      "elect": 3631,
      "eam": 3632,
      "eChat": 3633,
      "fa": 3634,
      "filter": 3635,
      "ga": 3636,
      "gard": 3637,
      "gth": 3638,
      "gles": 3639,
      "ground": 3640,
      "hr": 3641,
      "hu": 3642,
      "hic": 3643,
      "hts": 3644,
      "hab": 3645,
      "if": 3646,
      "ider": 3647,
      "ipping": 3648,
      "ials": 3649,
      "idity": 3650,
      "minus": 3651,
      "mium": 3652,
      "ned": 3653,
      "number": 3654,
      "pa": 3655,
      "pt": 3656,
      "pent": 3657,
      "pre": 3658,
      "ply": 3659,
      "peci": 3660,
      "rt": 3661,
      "sw": 3662,
      "script": 3663,
      "tter": 3664,
      "ulate": 3665,
      "volume": 3666,
      "volleyball": 3667,
      "voy": 3668,
      "ye": 3669,
      "yram": 3670,
      "zed": 3671,
      "Ġes": 3672,
      "Ġload": 3673,
      "Ġend": 3674,
      "Ġhow": 3675,
      "ĠLanguage": 3676,
      "ĠDirectory": 3677,
      "ĠInternet": 3678,
      "ĠGroup": 3679,
      "ĠWikimedia": 3680,
      "ĠDevice": 3681,
      "ĠJava": 3682,
      "ĠJusti": 3683,
      "tina": 3684,
      "timer": 3685,
      "tiles": 3686,
      "enti": 3687,
      "ensing": 3688,
      "ength": 3689,
      "orts": 3690,
      "Ġtemp": 3691,
      "Ġterm": 3692,
      "Ġtutor": 3693,
      "Ġawards": 3694,
      "lifestyle": 3695,
      "ine": 3696,
      "acing": 3697,
      "acter": 3698,
      "mega": 3699,
      "asuring": 3700,
      "tected": 3701,
      "deselect": 3702,
      "alize": 3703,
      "apply": 3704,
      "approve": 3705,
      "Ġcour": 3706,
      "Ġclothing": 3707,
      "Ġcotton": 3708,
      "ĠNa": 3709,
      "ĠNumber": 3710,
      "letion": 3711,
      "Ġfur": 3712,
      "Ġfut": 3713,
      "Ġfavor": 3714,
      "Ġfoot": 3715,
      "Ġfooter": 3716,
      "Ġodds": 3717,
      "Ġunder": 3718,
      "lla": 3719,
      "llness": 3720,
      "aris": 3721,
      "arts": 3722,
      "Ġinsig": 3723,
      "stand": 3724,
      "represent": 3725,
      "reference": 3726,
      "repti": 3727,
      "rella": 3728,
      "vite": 3729,
      "Ġmal": 3730,
      "erlink": 3731,
      "Ġpain": 3732,
      "Ġphone": 3733,
      "Ġcontin": 3734,
      "Ġconve": 3735,
      "Ġconferen": 3736,
      "Ġconfigure": 3737,
      "Ġsil": 3738,
      "Ġsnake": 3739,
      "Ġdrink": 3740,
      "Ġduring": 3741,
      "ĠiCloud": 3742,
      "ccer": 3743,
      "chron": 3744,
      "Rec": 3745,
      "Read": 3746,
      "Refine": 3747,
      "Remind": 3748,
      "Recycle": 3749,
      "yperlink": 3750,
      "rophy": 3751,
      "Ġbus": 3752,
      "outs": 3753,
      "Ġreve": 3754,
      "Ġredu": 3755,
      "Ġregard": 3756,
      "Set": 3757,
      "Ġequ": 3758,
      "hoo": 3759,
      "ild": 3760,
      "Ġmay": 3761,
      "cept": 3762,
      "Ġannounce": 3763,
      "Ġangles": 3764,
      "Ġansw": 3765,
      "delete": 3766,
      "Invite": 3767,
      "Express": 3768,
      "Exercise": 3769,
      "vigator": 3770,
      "Disconnect": 3771,
      "Ġdirect": 3772,
      "Ġstop": 3773,
      "archive": 3774,
      "igher": 3775,
      "ush": 3776,
      "rise": 3777,
      "riving": 3778,
      "utdown": 3779,
      "Stats": 3780,
      "ileston": 3781,
      "bot": 3782,
      "serpent": 3783,
      "Ġdeleted": 3784,
      "Ġdefa": 3785,
      "oks": 3786,
      "Conditions": 3787,
      "Ġaspect": 3788,
      "cket": 3789,
      "Ġsearchability": 3790,
      "Ġongo": 3791,
      "tension": 3792,
      "ĠThe": 3793,
      "Ġwindows": 3794,
      "ĠShare": 3795,
      "Ġexp": 3796,
      "Ġexport": 3797,
      "Ġexplorer": 3798,
      "Ġgo": 3799,
      "Ġgalle": 3800,
      "Ġinteract": 3801,
      "ames": 3802,
      "Ġcombine": 3803,
      "Ġsuggestion": 3804,
      "concept": 3805,
      "lphab": 3806,
      "ĠBase": 3807,
      "ĠBadge": 3808,
      "Ġyellow": 3809,
      "ĠPl": 3810,
      "Ġmeasuring": 3811,
      "ometer": 3812,
      "Ġdestina": 3813,
      "Ġhyperlink": 3814,
      "Ġhigher": 3815,
      "ĠIssue": 3816,
      "News": 3817,
      "Downloads": 3818,
      "Ġeasily": 3819,
      "Ġprocesses": 3820,
      "ĠMonitor": 3821,
      "ĠAudio": 3822,
      "ĠActivity": 3823,
      "Ġspe": 3824,
      "Ġsport": 3825,
      "Ġspreadsheet": 3826,
      "Ġsports": 3827,
      "Ġplugins": 3828,
      "Suggestions": 3829,
      "Suggest": 3830,
      "Ġvertical": 3831,
      "Ġverified": 3832,
      "Ġvertically": 3833,
      "Ġbell": 3834,
      "Ġbetting": 3835,
      "Header": 3836,
      "ulation": 3837,
      "traffic": 3838,
      "ĠOption": 3839,
      "Appear": 3840,
      "Comp": 3841,
      "Ġletter": 3842,
      "akers": 3843,
      "Planner": 3844,
      "umbs": 3845,
      "Ġlinked": 3846,
      "otation": 3847,
      "fox": 3848,
      "Mobile": 3849,
      "Ġratio": 3850,
      "Ġclosed": 3851,
      "Ġdetail": 3852,
      "Ġopening": 3853,
      "Distribute": 3854,
      "products": 3855,
      "ĠLe": 3856,
      "Ġcompletion": 3857,
      "Ġcomparis": 3858,
      "Aligns": 3859,
      "Wikivoy": 3860,
      "Ġchart": 3861,
      "Aspect": 3862,
      "ĠRain": 3863,
      "essions": 3864,
      "Ġsending": 3865,
      "Checkmark": 3866,
      "editor": 3867,
      "Ġmultitasking": 3868,
      "Ġtimer": 3869,
      "ĠWindow": 3870,
      "ĠWeChat": 3871,
      "disable": 3872,
      "Ġscores": 3873,
      "Ġscheme": 3874,
      "tickers": 3875,
      "Ġmarketplace": 3876,
      "Ġuncheck": 3877,
      "Ġunmute": 3878,
      "Ġoutdoor": 3879,
      "Choice": 3880,
      "Ġforecast": 3881,
      "ĠComponent": 3882,
      "Links": 3883,
      "Ġvisually": 3884,
      "Ġvisualiz": 3885,
      "Ġbackup": 3886,
      "Ġbackups": 3887,
      "Webpage": 3888,
      "Overlay": 3889,
      "Ġcalling": 3890,
      "Ġcalcul": 3891,
      "ĠLinkedIn": 3892,
      "Bear": 3893,
      "Beverage": 3894,
      "lude": 3895,
      "Ġfeeds": 3896,
      "Ġconnecting": 3897,
      "Ġrequire": 3898,
      "Ġindicators": 3899,
      "Travel": 3900,
      "ĠExtension": 3901,
      "Ġaligning": 3902,
      "Ġnetworking": 3903,
      "brand": 3904,
      "Ġthree": 3905,
      "Branching": 3906,
      "Ġkeyboards": 3907,
      "nition": 3908,
      "Ġcopying": 3909,
      "offline": 3910,
      "Visio": 3911,
      "ĠProtection": 3912,
      "Pods": 3913,
      "Ġparts": 3914,
      "Shutdown": 3915,
      "Wellness": 3916,
      "Ġsubtract": 3917,
      "Active": 3918,
      "ĠWik": 3919,
      "Ġstarred": 3920,
      "Ġassess": 3921,
      "Ġscanner": 3922,
      "ĠReplace": 3923,
      "Ġarrange": 3924,
      "Ġoverview": 3925,
      "Replicate": 3926,
      "AirDrop": 3927,
      "Ġcategory": 3928,
      "Ġshipping": 3929,
      "Ġoperations": 3930,
      "alled": 3931,
      "feedback": 3932,
      "ognition": 3933,
      "Ġcharts": 3934,
      "Ġcharacter": 3935,
      "arget": 3936,
      "Ġcalculators": 3937,
      "Meta": 3938,
      "Translation": 3939,
      "umidity": 3940,
      "ĠNews": 3941,
      "Ġfields": 3942,
      "Ġwirelessly": 3943,
      "Ġdeck": 3944,
      "Ġdecorative": 3945,
      "ĠCommand": 3946,
      "Ġcategories": 3947,
      "Enable": 3948,
      "Ġsnippets": 3949,
      "Ġideas": 3950,
      "Ġappearance": 3951,
      "Projector": 3952,
      "Ġprinters": 3953,
      "Feedback": 3954,
      "Version": 3955,
      "ptim": 3956,
      "Ġtranslation": 3957,
      "Ġrecognition": 3958,
      "Ġearbud": 3959,
      "Ġearned": 3960,
      "Ġproduct": 3961,
      "Ġproductivity": 3962,
      "Ġhighlighted": 3963,
      "Ġschedules": 3964,
      "Ġscheduling": 3965,
      "ĠProcessor": 3966,
      "ĠProcessing": 3967,
      "Ġmanipulate": 3968,
      "Ġmanipulation": 3969,
      "Availability": 3970,
      "Gradient": 3971,
      "dictionary": 3972,
      "forward": 3973,
      "notes": 3974,
      "Ġknowledge": 3975,
      "Ġwriting": 3976,
      "Ġliked": 3977,
      "Ġrepresentations": 3978,
      "Ġeffective": 3979,
      "quidMan": 3980,
      "Ġdisabilities": 3981,
      "Ġagreement": 3982,
      "Cricket": 3983,
      "Error": 3984,
      "Swap": 3985,
      "activate": 3986,
      "Ġcarouse": 3987,
      "Ġinstalled": 3988,
      "Ġwhether": 3989,
      "Ġcombining": 3990,
      "ĠAscending": 3991,
      "Ġplanning": 3992,
      "Developer": 3993,
      "petitive": 3994,
      "subtract": 3995,
      "Ġparticipants": 3996,
      "commendations": 3997,
      "Ġjustified": 3998,
      "Ġhorizontally": 3999,
      "Baseball": 4000,
      "General": 4001,
      "Highlighter": 4002,
      "Illustrate": 4003,
      "Maximize": 4004,
      "Sketch": 4005,
      "Tips": 4006,
      "Tweet": 4007,
      "eishu": 4008,
      "yramid": 4009,
      "Ġloading": 4010,
      "ĠJustification": 4011,
      "Ġtutorials": 4012,
      "Ġcourses": 4013,
      "Ġfurther": 4014,
      "Ġfuture": 4015,
      "Ġunderstand": 4016,
      "Ġinsights": 4017,
      "reptile": 4018,
      "Ġmalware": 4019,
      "Ġpainting": 4020,
      "Ġconvey": 4021,
      "Ġconferencing": 4022,
      "Reminder": 4023,
      "Ġregarding": 4024,
      "Ġdirectories": 4025,
      "ilestones": 4026,
      "Ġongoing": 4027,
      "Ġgalleries": 4028,
      "lphabe": 4029,
      "Ġdestination": 4030,
      "Ġspreadsheets": 4031,
      "Appearance": 4032,
      "Ġcomparison": 4033,
      "Wikivoyage": 4034,
      "Ġvisualizations": 4035,
      "Ġcalculations": 4036,
      "Ġearbuds": 4037,
      "Ġeffectively": 4038,
      "Ag": 4039,
      "Achievements": 4040,
      "American": 4041,
      "Bai": 4042,
      "Bug": 4043,
      "Badge": 4044,
      "Brain": 4045,
      "Cer": 4046,
      "Cust": 4047,
      "Count": 4048,
      "Coffee": 4049,
      "Cell": 4050,
      "Cursor": 4051,
      "Down": 4052,
      "Dot": 4053,
      "Drawing": 4054,
      "Dock": 4055,
      "Draf": 4056,
      "Eas": 4057,
      "Event": 4058,
      "Esports": 4059,
      "Evalu": 4060,
      "Fin": 4061,
      "Fri": 4062,
      "Focus": 4063,
      "Functions": 4064,
      "Feishu": 4065,
      "Gar": 4066,
      "Gaming": 4067,
      "Heat": 4068,
      "Jet": 4069,
      "Jog": 4070,
      "Kind": 4071,
      "Le": 4072,
      "Lic": 4073,
      "MA": 4074,
      "MS": 4075,
      "Mot": 4076,
      "Math": 4077,
      "Mirror": 4078,
      "MMA": 4079,
      "No": 4080,
      "Net": 4081,
      "Numb": 4082,
      "Omega": 4083,
      "Pen": 4084,
      "Ping": 4085,
      "QQ": 4086,
      "Rand": 4087,
      "Rock": 4088,
      "Rugby": 4089,
      "Si": 4090,
      "Shar": 4091,
      "Scrip": 4092,
      "Social": 4093,
      "Shop": 4094,
      "SmartArt": 4095,
      "SquidMan": 4096,
      "SMS": 4097,
      "TP": 4098,
      "The": 4099,
      "Tou": 4100,
      "Tile": 4101,
      "Tri": 4102,
      "Ther": 4103,
      "Task": 4104,
      "Water": 4105,
      "XY": 4106,
      "Zill": 4107,
      "aur": 4108,
      "ait": 4109,
      "award": 4110,
      "bs": 4111,
      "bat": 4112,
      "bal": 4113,
      "byte": 4114,
      "core": 4115,
      "cil": 4116,
      "curr": 4117,
      "clip": 4118,
      "cash": 4119,
      "care": 4120,
      "collabor": 4121,
      "categ": 4122,
      "cade": 4123,
      "censing": 4124,
      "clude": 4125,
      "dation": 4126,
      "doll": 4127,
      "dot": 4128,
      "drawing": 4129,
      "ele": 4130,
      "eal": 4131,
      "ection": 4132,
      "emo": 4133,
      "email": 4134,
      "event": 4135,
      "eye": 4136,
      "fe": 4137,
      "fr": 4138,
      "fen": 4139,
      "fun": 4140,
      "fork": 4141,
      "favorites": 4142,
      "fetch": 4143,
      "functions": 4144,
      "hor": 4145,
      "happ": 4146,
      "hile": 4147,
      "hide": 4148,
      "hip": 4149,
      "ible": 4150,
      "iometric": 4151,
      "ification": 4152,
      "itions": 4153,
      "ji": 4154,
      "jus": 4155,
      "lli": 4156,
      "lut": 4157,
      "lations": 4158,
      "mes": 4159,
      "mbo": 4160,
      "mator": 4161,
      "mill": 4162,
      "multi": 4163,
      "mouse": 4164,
      "money": 4165,
      "mometer": 4166,
      "nes": 4167,
      "next": 4168,
      "nology": 4169,
      "ost": 4170,
      "ool": 4171,
      "pli": 4172,
      "par": 4173,
      "plication": 4174,
      "poin": 4175,
      "paint": 4176,
      "package": 4177,
      "patch": 4178,
      "ring": 4179,
      "rand": 4180,
      "rag": 4181,
      "run": 4182,
      "rating": 4183,
      "ract": 4184,
      "rams": 4185,
      "so": 4186,
      "ste": 4187,
      "sage": 4188,
      "sort": 4189,
      "sun": 4190,
      "spe": 4191,
      "shot": 4192,
      "source": 4193,
      "snow": 4194,
      "shell": 4195,
      "tate": 4196,
      "trans": 4197,
      "trophy": 4198,
      "ution": 4199,
      "udi": 4200,
      "uting": 4201,
      "uous": 4202,
      "uff": 4203,
      "uild": 4204,
      "vates": 4205,
      "voice": 4206,
      "volley": 4207,
      "wn": 4208,
      "wall": 4209,
      "window": 4210,
      "weather": 4211,
      "watch": 4212,
      "xel": 4213,
      "yChar": 4214,
      "zer": 4215,
      "ĠZ": 4216,
      "Ġna": 4217,
      "Ġho": 4218,
      "ĠGit": 4219,
      "ĠStart": 4220,
      "ĠDe": 4221,
      "ĠDi": 4222,
      "ĠWeather": 4223,
      "ĠDesign": 4224,
      "ĠKeyboard": 4225,
      "ĠHighlight": 4226,
      "ĠXbox": 4227,
      "ĠGame": 4228,
      "ĠQuick": 4229,
      "ĠMixed": 4230,
      "ĠQR": 4231,
      "ĠDevices": 4232,
      "ĠHighlighter": 4233,
      "tire": 4234,
      "tivi": 4235,
      "tify": 4236,
      "ests": 4237,
      "enable": 4238,
      "enlarge": 4239,
      "orar": 4240,
      "orward": 4241,
      "Ġter": 4242,
      "Ġtak": 4243,
      "Ġtype": 4244,
      "Ġtech": 4245,
      "Ġtapping": 4246,
      "Ġteam": 4247,
      "Ġtarget": 4248,
      "Ġalphabe": 4249,
      "Ġaudi": 4250,
      "lize": 4251,
      "library": 4252,
      "see": 4253,
      "sets": 4254,
      "inter": 4255,
      "pper": 4256,
      "cryp": 4257,
      "meeting": 4258,
      "ass": 4259,
      "asual": 4260,
      "ascore": 4261,
      "design": 4262,
      "alities": 4263,
      "appiness": 4264,
      "actions": 4265,
      "Ġcer": 4266,
      "Ġcursor": 4267,
      "ĠNot": 4268,
      "heel": 4269,
      "health": 4270,
      "entation": 4271,
      "Ġfound": 4272,
      "Ġoptim": 4273,
      "Ġund": 4274,
      "Ġusu": 4275,
      "lly": 4276,
      "ans": 4277,
      "anne": 4278,
      "arel": 4279,
      "rook": 4280,
      "roid": 4281,
      "Ġindi": 4282,
      "Ġiniti": 4283,
      "Ġintegr": 4284,
      "Ġinfr": 4285,
      "Ġinste": 4286,
      "stur": 4287,
      "stats": 4288,
      "digital": 4289,
      "rep": 4290,
      "review": 4291,
      "ream": 4292,
      "return": 4293,
      "remove": 4294,
      "recent": 4295,
      "retrieve": 4296,
      "refine": 4297,
      "reats": 4298,
      "repository": 4299,
      "vise": 4300,
      "vidu": 4301,
      "Ġmate": 4302,
      "Ġmouse": 4303,
      "Ġmoney": 4304,
      "Ġmilestones": 4305,
      "Ġper": 4306,
      "Ġpla": 4307,
      "Ġpast": 4308,
      "Ġpair": 4309,
      "Ġphr": 4310,
      "Ġconsist": 4311,
      "Ġconvert": 4312,
      "Ġconvers": 4313,
      "Ġconversion": 4314,
      "Ġsate": 4315,
      "Ġsci": 4316,
      "Ġsale": 4317,
      "Ġslash": 4318,
      "Ġsong": 4319,
      "Ġshell": 4320,
      "Ġsleep": 4321,
      "Ġstickers": 4322,
      "ission": 4323,
      "issions": 4324,
      "ispeci": 4325,
      "express": 4326,
      "love": 4327,
      "local": 4328,
      "loade": 4329,
      "lobal": 4330,
      "ings": 4331,
      "Ġwas": 4332,
      "Ġwai": 4333,
      "Ġway": 4334,
      "Ġwell": 4335,
      "Ġwhile": 4336,
      "Ġden": 4337,
      "Ġdup": 4338,
      "Ġdraw": 4339,
      "Ġdriving": 4340,
      "Ġillustr": 4341,
      "Ġline": 4342,
      "Ġliking": 4343,
      "Ġlifestyle": 4344,
      "Ġlicensing": 4345,
      "chess": 4346,
      "chair": 4347,
      "extract": 4348,
      "mentation": 4349,
      "Ġlisten": 4350,
      "Revise": 4351,
      "ypad": 4352,
      "Ġappoint": 4353,
      "Ġappeal": 4354,
      "Ġnear": 4355,
      "ved": 4356,
      "resume": 4357,
      "Ġbal": 4358,
      "Ġball": 4359,
      "Ġbrand": 4360,
      "Ġbuild": 4361,
      "Ġrevert": 4362,
      "Ġreplace": 4363,
      "Ġrecycle": 4364,
      "Ġrelations": 4365,
      "Ġevalu": 4366,
      "olution": 4367,
      "Ġannotate": 4368,
      "defin": 4369,
      "Information": 4370,
      "Excel": 4371,
      "Ġadjus": 4372,
      "vigates": 4373,
      "Dispatch": 4374,
      "omize": 4375,
      "omatic": 4376,
      "ompli": 4377,
      "Selects": 4378,
      "Ġviewer": 4379,
      "Ġdiag": 4380,
      "Ġdigital": 4381,
      "romium": 4382,
      "sius": 4383,
      "Ġstand": 4384,
      "Ġprovide": 4385,
      "Ġprojec": 4386,
      "Ġprovides": 4387,
      "Ġprotect": 4388,
      "Ġprotected": 4389,
      "ects": 4390,
      "igger": 4391,
      "izes": 4392,
      "eatures": 4393,
      "Ġmanageable": 4394,
      "Ġaccessible": 4395,
      "Ġtexture": 4396,
      "riend": 4397,
      "rientation": 4398,
      "Sty": 4399,
      "Stores": 4400,
      "Ġcurrency": 4401,
      "about": 4402,
      "Ġlength": 4403,
      "acket": 4404,
      "quit": 4405,
      "quantity": 4406,
      "Navigates": 4407,
      "verts": 4408,
      "veryth": 4409,
      "harging": 4410,
      "oss": 4411,
      "osing": 4412,
      "Ġdelay": 4413,
      "Ġdefin": 4414,
      "Ġdebu": 4415,
      "oken": 4416,
      "Configure": 4417,
      "Converts": 4418,
      "Ġassets": 4419,
      "cks": 4420,
      "Ġmodi": 4421,
      "Ġmoonset": 4422,
      "Initial": 4423,
      "availab": 4424,
      "otice": 4425,
      "ĠTr": 4426,
      "ĠTrans": 4427,
      "ĠFound": 4428,
      "ĠFootball": 4429,
      "ĠFooter": 4430,
      "ĠForward": 4431,
      "ĠFeatures": 4432,
      "ĠFriend": 4433,
      "htag": 4434,
      "ĠShow": 4435,
      "ĠSaf": 4436,
      "ĠSlash": 4437,
      "Ġexpos": 4438,
      "Ġexterna": 4439,
      "Ġexpr": 4440,
      "Ġexpress": 4441,
      "Ġexercise": 4442,
      "Ġgra": 4443,
      "Ġgraph": 4444,
      "ammer": 4445,
      "logue": 4446,
      "Ġsuite": 4447,
      "ountain": 4448,
      "updates": 4449,
      "total": 4450,
      "Texture": 4451,
      "Ġpreview": 4452,
      "Ġpremium": 4453,
      "Ġpredefin": 4454,
      "ĠBattery": 4455,
      "ĠBrowser": 4456,
      "nel": 4457,
      "ĠPoint": 4458,
      "ĠPaint": 4459,
      "ĠPong": 4460,
      "ĠPointer": 4461,
      "ĠPosition": 4462,
      "ĠParts": 4463,
      "Ġmedic": 4464,
      "Ġmeans": 4465,
      "Ġdesire": 4466,
      "lookup": 4467,
      "Ġhandball": 4468,
      "Ġhumidity": 4469,
      "Ġhappiness": 4470,
      "Ġimpro": 4471,
      "ĠCall": 4472,
      "ĠCap": 4473,
      "ĠCase": 4474,
      "ĠCheck": 4475,
      "ĠChoo": 4476,
      "ĠCasual": 4477,
      "ĠCharging": 4478,
      "dialogue": 4479,
      "tepad": 4480,
      "Ġvali": 4481,
      "Ġenc": 4482,
      "Ġentire": 4483,
      "Ġsymbo": 4484,
      "moon": 4485,
      "Ġlost": 4486,
      "Adjustments": 4487,
      "Prevents": 4488,
      "Ġheader": 4489,
      "ĠAloud": 4490,
      "ĠAccounts": 4491,
      "ĠAmerican": 4492,
      "Ġspoken": 4493,
      "Ġlayouts": 4494,
      "lips": 4495,
      "Ġbooks": 4496,
      "astructure": 4497,
      "mber": 4498,
      "mbrella": 4499,
      "aire": 4500,
      "Ġverification": 4501,
      "Ġbear": 4502,
      "Ġbeverage": 4503,
      "Ġvirus": 4504,
      "Ġvirt": 4505,
      "Ġorganized": 4506,
      "Ġhelpful": 4507,
      "Credit": 4508,
      "Ġshows": 4509,
      "Ġresume": 4510,
      "Ġrestrict": 4511,
      "Ġresolution": 4512,
      "try": 4513,
      "ĠOrientation": 4514,
      "Ġdownloads": 4515,
      "Ġpreviously": 4516,
      "Approval": 4517,
      "Combo": 4518,
      "imal": 4519,
      "imming": 4520,
      "Ġleaving": 4521,
      "Place": 4522,
      "Ġcontrols": 4523,
      "sum": 4524,
      "suggestion": 4525,
      "Contact": 4526,
      "Contacts": 4527,
      "Ġlinking": 4528,
      "Ġprograms": 4529,
      "Ġplaylist": 4530,
      "Ġplayful": 4531,
      "Ġsaved": 4532,
      "FileZill": 4533,
      "Ġspecies": 4534,
      "Ġrugby": 4535,
      "planner": 4536,
      "elsius": 4537,
      "project": 4538,
      "ĠStats": 4539,
      "backup": 4540,
      "commerce": 4541,
      "rint": 4542,
      "ĠDocuments": 4543,
      "Ġdownloade": 4544,
      "Wikifunctions": 4545,
      "Markdown": 4546,
      "Ġchanne": 4547,
      "Ġfunctioning": 4548,
      "Ġfunctionalities": 4549,
      "Book": 4550,
      "Assis": 4551,
      "bell": 4552,
      "begin": 4553,
      "Members": 4554,
      "ĠRate": 4555,
      "ĠRacket": 4556,
      "Ġquestion": 4557,
      "Ġmultiplication": 4558,
      "ept": 4559,
      "ĠWindows": 4560,
      "merged": 4561,
      "Maps": 4562,
      "Starbu": 4563,
      "Merges": 4564,
      "checkout": 4565,
      "checkmark": 4566,
      "checklist": 4567,
      "Ġattach": 4568,
      "Ġindicated": 4569,
      "Ġpool": 4570,
      "Ġposi": 4571,
      "Ġscale": 4572,
      "Ġbaseline": 4573,
      "Ġbaseball": 4574,
      "versity": 4575,
      "Ġtrust": 4576,
      "Ġguide": 4577,
      "Ġcloudy": 4578,
      "Ġcloudiness": 4579,
      "ĠItems": 4580,
      "Ġcommunity": 4581,
      "Descending": 4582,
      "ood": 4583,
      "Ġrecently": 4584,
      "Ġstatement": 4585,
      "Ġvisualize": 4586,
      "Ġbackground": 4587,
      "Speed": 4588,
      "Ġmodel": 4589,
      "litaire": 4590,
      "Rest": 4591,
      "Restrict": 4592,
      "ipment": 4593,
      "Spider": 4594,
      "Ġrequests": 4595,
      "Ġmanages": 4596,
      "Trigger": 4597,
      "ĠExternal": 4598,
      "athy": 4599,
      "Ġkeeping": 4600,
      "Query": 4601,
      "Ġaccompli": 4602,
      "Ġreader": 4603,
      "brush": 4604,
      "Ġthan": 4605,
      "Ġthreat": 4606,
      "Ġthreats": 4607,
      "Ġmovement": 4608,
      "Ġcricket": 4609,
      "Ġzooming": 4610,
      "aled": 4611,
      "split": 4612,
      "Ġtracks": 4613,
      "Ġtrackpad": 4614,
      "nify": 4615,
      "Ġlikely": 4616,
      "achieve": 4617,
      "medal": 4618,
      "Ġposts": 4619,
      "Shuff": 4620,
      "Ġauthor": 4621,
      "Ġprint": 4622,
      "Ġdesktops": 4623,
      "Ġenhanced": 4624,
      "Activity": 4625,
      "Calc": 4626,
      "Calculator": 4627,
      "Calculate": 4628,
      "Pass": 4629,
      "Ġroutes": 4630,
      "Ġrotate": 4631,
      "orsport": 4632,
      "calc": 4633,
      "calculator": 4634,
      "calculate": 4635,
      "Ġstarts": 4636,
      "ĠRecycle": 4637,
      "Ġarchive": 4638,
      "Ġclear": 4639,
      "Ġfinances": 4640,
      "Ġusable": 4641,
      "Ġsignif": 4642,
      "Ġbookmarks": 4643,
      "Authentic": 4644,
      "Automatic": 4645,
      "AirPods": 4646,
      "Particip": 4647,
      "Safety": 4648,
      "score": 4649,
      "Ġshipment": 4650,
      "Ġscrollable": 4651,
      "Remote": 4652,
      "ĠBlazer": 4653,
      "Ġget": 4654,
      "Rearrange": 4655,
      "Ġbugs": 4656,
      "Ġemphasize": 4657,
      "Annotate": 4658,
      "Chart": 4659,
      "Chromium": 4660,
      "Filmage": 4661,
      "paperclip": 4662,
      "Ġdeclut": 4663,
      "Ġsynchron": 4664,
      "ĠCommons": 4665,
      "Charging": 4666,
      "Stickers": 4667,
      "shments": 4668,
      "Ġerrors": 4669,
      "Ġtypes": 4670,
      "attachment": 4671,
      "Ġmany": 4672,
      "Ġpointer": 4673,
      "Trackpad": 4674,
      "Ġprompts": 4675,
      "padlock": 4676,
      "Ġagain": 4677,
      "Ġpermissions": 4678,
      "Ġappearing": 4679,
      "Ġmeetings": 4680,
      "ĠChanges": 4681,
      "programming": 4682,
      "Ġexperimentation": 4683,
      "Threat": 4684,
      "Thumbs": 4685,
      "Verified": 4686,
      "ĠGames": 4687,
      "Ġtransactions": 4688,
      "Ġfriends": 4689,
      "Ġsunrise": 4690,
      "Ġrecover": 4691,
      "Ġremote": 4692,
      "Ġinteractions": 4693,
      "Ġhighlighting": 4694,
      "Command": 4695,
      "Commons": 4696,
      "Ġarticle": 4697,
      "Available": 4698,
      "Grade": 4699,
      "Justify": 4700,
      "Pixel": 4701,
      "Unlock": 4702,
      "fully": 4703,
      "Ġkit": 4704,
      "Ġtoggled": 4705,
      "Ġfreely": 4706,
      "Ġwrite": 4707,
      "Ġlikes": 4708,
      "Ġdisables": 4709,
      "ĠSpeed": 4710,
      "ĠSpeech": 4711,
      "Ġexecution": 4712,
      "Ġexecuting": 4713,
      "toolbox": 4714,
      "ĠPlayer": 4715,
      "Ġrestart": 4716,
      "Ġrestoring": 4717,
      "Postmill": 4718,
      "Soccer": 4719,
      "Solitaire": 4720,
      "Tune": 4721,
      "Tunes": 4722,
      "smiley": 4723,
      "Ġlaunching": 4724,
      "narchive": 4725,
      "Ġpie": 4726,
      "Ġidentification": 4727,
      "Ġidentify": 4728,
      "Ġbinary": 4729,
      "Instagram": 4730,
      "Ġstructured": 4731,
      "Ġsuccessfully": 4732,
      "Ġhalt": 4733,
      "Ġhalts": 4734,
      "Ġpassword": 4735,
      "Ġpasswords": 4736,
      "Ġworkflows": 4737,
      "Transforms": 4738,
      "Ġjogging": 4739,
      "Ġjobs": 4740,
      "Ġproperly": 4741,
      "Ġproperties": 4742,
      "Debug": 4743,
      "Equal": 4744,
      "Empathy": 4745,
      "Firefox": 4746,
      "Magnify": 4747,
      "Sofascore": 4748,
      "Terminal": 4749,
      "Validate": 4750,
      "Write": 4751,
      "hicle": 4752,
      "pawn": 4753,
      "previous": 4754,
      "Ġesports": 4755,
      "Ġendpoin": 4756,
      "Ġtemplate": 4757,
      "Ġterms": 4758,
      "ĠNavigator": 4759,
      "Ġfootnotes": 4760,
      "Ġsilence": 4761,
      "Recover": 4762,
      "Ġbusiness": 4763,
      "Ġrevealed": 4764,
      "Ġreducing": 4765,
      "Ġannouncements": 4766,
      "Ġanswers": 4767,
      "Ġdefault": 4768,
      "ĠPlugin": 4769,
      "Ġspeakers": 4770,
      "ĠLeft": 4771,
      "ĠWiktionary": 4772,
      "Ġcarousel": 4773,
      "Baidu": 4774,
      "Brains": 4775,
      "Certification": 4776,
      "Drafts": 4777,
      "Easy": 4778,
      "Evaluation": 4779,
      "Friends": 4780,
      "JetBrains": 4781,
      "Kindle": 4782,
      "Pencil": 4783,
      "Rocket": 4784,
      "Siri": 4785,
      "Scripting": 4786,
      "Touch": 4787,
      "Thermometer": 4788,
      "XYLink": 4789,
      "aurant": 4790,
      "currency": 4791,
      "category": 4792,
      "cadem": 4793,
      "dollar": 4794,
      "emoji": 4795,
      "fender": 4796,
      "funnel": 4797,
      "happy": 4798,
      "llite": 4799,
      "multiply": 4800,
      "parate": 4801,
      "yCharm": 4802,
      "ĠDefender": 4803,
      "ĠDistur": 4804,
      "tivirus": 4805,
      "orarily": 4806,
      "Ġterrain": 4807,
      "Ġtaken": 4808,
      "Ġtechnology": 4809,
      "Ġalphabetical": 4810,
      "Ġaudience": 4811,
      "crypted": 4812,
      "Ġundone": 4813,
      "Ġusually": 4814,
      "Ġindividu": 4815,
      "Ġintegration": 4816,
      "Ġinfrastructure": 4817,
      "Ġinstead": 4818,
      "Ġmateri": 4819,
      "Ġplain": 4820,
      "Ġphrases": 4821,
      "Ġconversations": 4822,
      "Ġsatellite": 4823,
      "Ġsongs": 4824,
      "ispecies": 4825,
      "Ġwaiting": 4826,
      "Ġwellness": 4827,
      "Ġduplic": 4828,
      "Ġappointments": 4829,
      "Ġnearby": 4830,
      "Ġrelationship": 4831,
      "Ġevaluate": 4832,
      "Ġdiagrams": 4833,
      "Ġprojecting": 4834,
      "verything": 4835,
      "Ġdefinitions": 4836,
      "Ġdebugging": 4837,
      "availability": 4838,
      "ĠFoundation": 4839,
      "ĠSafari": 4840,
      "Ġexposure": 4841,
      "Ġexternally": 4842,
      "Ġexpressions": 4843,
      "Ġgradient": 4844,
      "Ġpredefined": 4845,
      "Ġmedical": 4846,
      "Ġdesired": 4847,
      "ĠChooser": 4848,
      "Ġsymbolize": 4849,
      "FileZilla": 4850,
      "Ġdownloaded": 4851,
      "Ġchannels": 4852,
      "Assistive": 4853,
      "Ġquestions": 4854,
      "Starbucks": 4855,
      "Triggers": 4856,
      "Ġaccomplishments": 4857,
      "achievement": 4858,
      "Shuffle": 4859,
      "Ġsignifies": 4860,
      "Authenticate": 4861,
      "Ġdeclutter": 4862,
      "Ġsynchronization": 4863,
      "Pixelmator": 4864,
      "Ġendpoints": 4865,
      "ĠDisturb": 4866
    },
    "merges": [
      [
        "Ġ",
        "'"
      ],
      [
        "o",
        "n"
      ],
      [
        "'",
        ":"
      ],
      [
        "'",
        ","
      ],
      [
        "t",
        "i"
      ],
      [
        "e",
        "s"
      ],
      [
        "ti",
        "on"
      ],
      [
        "e",
        "n"
      ],
      [
        "o",
        "r"
      ],
      [
        "Ġ",
        "t"
      ],
      [
        "Ġ",
        "a"
      ],
      [
        "l",
        "i"
      ],
      [
        "s",
        "e"
      ],
      [
        "Ġ",
        "or"
      ],
      [
        "p",
        "tion"
      ],
      [
        "i",
        "n"
      ],
      [
        "p",
        "p"
      ],
      [
        "c",
        "r"
      ],
      [
        "n",
        "a"
      ],
      [
        "a",
        "c"
      ],
      [
        "m",
        "e"
      ],
      [
        "a",
        "s"
      ],
      [
        "t",
        "e"
      ],
      [
        "d",
        "es"
      ],
      [
        "cr",
        "i"
      ],
      [
        "a",
        "li"
      ],
      [
        "a",
        "pp"
      ],
      [
        "as",
        "es"
      ],
      [
        "ac",
        "tion"
      ],
      [
        ".",
        "',"
      ],
      [
        "na",
        "me"
      ],
      [
        "cri",
        "ption"
      ],
      [
        "]",
        ","
      ],
      [
        "{",
        "'"
      ],
      [
        "Ġ",
        "["
      ],
      [
        "des",
        "cription"
      ],
      [
        "ali",
        "ases"
      ],
      [
        "'",
        "],"
      ],
      [
        "Ġ[",
        "'"
      ],
      [
        "Ġ",
        "c"
      ],
      [
        "on",
        "e"
      ],
      [
        "Ġt",
        "o"
      ],
      [
        "Ġ",
        "N"
      ],
      [
        "ĠN",
        "one"
      ],
      [
        "h",
        "e"
      ],
      [
        "l",
        "e"
      ],
      [
        "en",
        "t"
      ],
      [
        "i",
        "c"
      ],
      [
        "Ġ",
        "f"
      ],
      [
        "Ġ",
        "o"
      ],
      [
        "o",
        "w"
      ],
      [
        "Ġt",
        "he"
      ],
      [
        "Ġ",
        "u"
      ],
      [
        "a",
        "t"
      ],
      [
        "l",
        "l"
      ],
      [
        "Ġ",
        "se"
      ],
      [
        "a",
        "n"
      ],
      [
        "Ġu",
        "se"
      ],
      [
        "a",
        "r"
      ],
      [
        "r",
        "o"
      ],
      [
        "a",
        "tion"
      ],
      [
        "Ġ",
        "in"
      ],
      [
        "g",
        "e"
      ],
      [
        "s",
        "t"
      ],
      [
        "d",
        "i"
      ],
      [
        "r",
        "e"
      ],
      [
        "v",
        "i"
      ],
      [
        "Ġ",
        "m"
      ],
      [
        "e",
        "r"
      ],
      [
        "Ġ",
        "p"
      ],
      [
        "Ġc",
        "on"
      ],
      [
        "ption",
        "s"
      ],
      [
        "Ġuse",
        "r"
      ],
      [
        "le",
        "c"
      ],
      [
        "Ġ",
        "s"
      ],
      [
        "a",
        "te"
      ],
      [
        "es",
        "s"
      ],
      [
        "ti",
        "n"
      ],
      [
        "e",
        "w"
      ],
      [
        "Ġo",
        "f"
      ],
      [
        "tin",
        "g"
      ],
      [
        "Ġf",
        "or"
      ],
      [
        "i",
        "s"
      ],
      [
        "e",
        "x"
      ],
      [
        "l",
        "o"
      ],
      [
        "in",
        "g"
      ],
      [
        "Ġo",
        "ptions"
      ],
      [
        "Ġcon",
        "t"
      ],
      [
        "u",
        "r"
      ],
      [
        "Ġ",
        "w"
      ],
      [
        "Ġ",
        "d"
      ],
      [
        "n",
        "d"
      ],
      [
        "p",
        "en"
      ],
      [
        "Ġ",
        "i"
      ],
      [
        "Ġuser",
        "s"
      ],
      [
        "ll",
        "ow"
      ],
      [
        "Ġcont",
        "ent"
      ],
      [
        "Ġ",
        "li"
      ],
      [
        "l",
        "a"
      ],
      [
        "lec",
        "t"
      ],
      [
        "a",
        "ge"
      ],
      [
        "te",
        "m"
      ],
      [
        "c",
        "c"
      ],
      [
        "c",
        "h"
      ],
      [
        "ex",
        "t"
      ],
      [
        "t",
        "ting"
      ],
      [
        "en",
        "u"
      ],
      [
        "li",
        "c"
      ],
      [
        "m",
        "ent"
      ],
      [
        "tting",
        "s"
      ],
      [
        "Ġli",
        "st"
      ],
      [
        "la",
        "y"
      ],
      [
        "i",
        "t"
      ],
      [
        "a",
        "l"
      ],
      [
        "llow",
        "s"
      ],
      [
        "a",
        "ll"
      ],
      [
        "ow",
        "n"
      ],
      [
        "R",
        "e"
      ],
      [
        "y",
        "p"
      ],
      [
        "Ġi",
        "tem"
      ],
      [
        "Ġa",
        "pp"
      ],
      [
        "at",
        "es"
      ],
      [
        "O",
        "pen"
      ],
      [
        "all",
        "y"
      ],
      [
        "ic",
        "ally"
      ],
      [
        "yp",
        "ically"
      ],
      [
        "cc",
        "ess"
      ],
      [
        "Ġse",
        "ttings"
      ],
      [
        "Ġ",
        "n"
      ],
      [
        "A",
        "llows"
      ],
      [
        "v",
        "e"
      ],
      [
        "r",
        "es"
      ],
      [
        "ro",
        "p"
      ],
      [
        "or",
        "m"
      ],
      [
        "Ġ",
        "b"
      ],
      [
        "o",
        "u"
      ],
      [
        "vi",
        "ew"
      ],
      [
        "Ġ",
        "re"
      ],
      [
        "f",
        "orm"
      ],
      [
        "S",
        "e"
      ],
      [
        "Ġ",
        "e"
      ],
      [
        "h",
        "o"
      ],
      [
        "or",
        "e"
      ],
      [
        "Ġuse",
        "d"
      ],
      [
        "Ġt",
        "ypically"
      ],
      [
        "o",
        "l"
      ],
      [
        "an",
        "d"
      ],
      [
        "i",
        "l"
      ],
      [
        "d",
        "own"
      ],
      [
        "te",
        "r"
      ],
      [
        "p",
        "lay"
      ],
      [
        "lic",
        "ation"
      ],
      [
        "i",
        "le"
      ],
      [
        "Ġapp",
        "lication"
      ],
      [
        "U",
        "se"
      ],
      [
        "cr",
        "e"
      ],
      [
        "Ġm",
        "a"
      ],
      [
        "p",
        "and"
      ],
      [
        "Ġa",
        "nd"
      ],
      [
        "c",
        "u"
      ],
      [
        "in",
        "d"
      ],
      [
        "c",
        "e"
      ],
      [
        "rop",
        "down"
      ],
      [
        "Ġa",
        "n"
      ],
      [
        "c",
        "tion"
      ],
      [
        "res",
        "ent"
      ],
      [
        "d",
        "e"
      ],
      [
        "I",
        "n"
      ],
      [
        "E",
        "x"
      ],
      [
        "Ġ",
        "ic"
      ],
      [
        "Ġa",
        "d"
      ],
      [
        "Ġic",
        "on"
      ],
      [
        "vi",
        "g"
      ],
      [
        "D",
        "is"
      ],
      [
        "ic",
        "ates"
      ],
      [
        "form",
        "ation"
      ],
      [
        "o",
        "m"
      ],
      [
        "p",
        "resent"
      ],
      [
        "'",
        "}"
      ],
      [
        "A",
        "d"
      ],
      [
        "e",
        "t"
      ],
      [
        "a",
        "d"
      ],
      [
        "Ġin",
        "formation"
      ],
      [
        "Se",
        "lect"
      ],
      [
        "Ġ",
        "view"
      ],
      [
        "present",
        "s"
      ],
      [
        "Ġ",
        "di"
      ],
      [
        "o",
        "cu"
      ],
      [
        "D",
        "ropdown"
      ],
      [
        "ro",
        "m"
      ],
      [
        "s",
        "i"
      ],
      [
        "na",
        "ge"
      ],
      [
        "ocu",
        "ment"
      ],
      [
        "Ġ",
        "st"
      ],
      [
        "Ġse",
        "lec"
      ],
      [
        "Ġp",
        "ro"
      ],
      [
        "Ġf",
        "rom"
      ],
      [
        "ar",
        "d"
      ],
      [
        "ar",
        "ch"
      ],
      [
        "Dis",
        "play"
      ],
      [
        "Ġse",
        "lect"
      ],
      [
        "A",
        "ccess"
      ],
      [
        "e",
        "d"
      ],
      [
        "Re",
        "presents"
      ],
      [
        "h",
        "is"
      ],
      [
        "e",
        "c"
      ],
      [
        "i",
        "g"
      ],
      [
        "t",
        "s"
      ],
      [
        "I",
        "nd"
      ],
      [
        "di",
        "tion"
      ],
      [
        "u",
        "s"
      ],
      [
        "Ġm",
        "enu"
      ],
      [
        "i",
        "z"
      ],
      [
        "i",
        "ti"
      ],
      [
        "T",
        "his"
      ],
      [
        "te",
        "d"
      ],
      [
        "Use",
        "d"
      ],
      [
        "e",
        "at"
      ],
      [
        "Display",
        "s"
      ],
      [
        "a",
        "p"
      ],
      [
        "M",
        "enu"
      ],
      [
        "Ġma",
        "nage"
      ],
      [
        "Ex",
        "pand"
      ],
      [
        "Ġa",
        "ccess"
      ],
      [
        "a",
        "g"
      ],
      [
        "d",
        "er"
      ],
      [
        "Ġitem",
        "s"
      ],
      [
        "Ġt",
        "ext"
      ],
      [
        "Ind",
        "icates"
      ],
      [
        "di",
        "t"
      ],
      [
        "an",
        "g"
      ],
      [
        "r",
        "i"
      ],
      [
        "u",
        "t"
      ],
      [
        "lo",
        "ad"
      ],
      [
        "Ad",
        "d"
      ],
      [
        "h",
        "at"
      ],
      [
        "dition",
        "al"
      ],
      [
        "S",
        "t"
      ],
      [
        "Ġc",
        "ho"
      ],
      [
        "ur",
        "r"
      ],
      [
        "Ġc",
        "urr"
      ],
      [
        "Ġcurr",
        "ent"
      ],
      [
        "Ġad",
        "ditional"
      ],
      [
        "Ġd",
        "ocument"
      ],
      [
        "an",
        "ce"
      ],
      [
        "Ġw",
        "it"
      ],
      [
        "Ġwit",
        "h"
      ],
      [
        "V",
        "i"
      ],
      [
        "a",
        "b"
      ],
      [
        "il",
        "es"
      ],
      [
        "ol",
        "der"
      ],
      [
        "o",
        "p"
      ],
      [
        "f",
        "ic"
      ],
      [
        "Ġ",
        "l"
      ],
      [
        "b",
        "o"
      ],
      [
        "Ġselec",
        "ted"
      ],
      [
        "ac",
        "k"
      ],
      [
        "ar",
        "t"
      ],
      [
        "q",
        "u"
      ],
      [
        "he",
        "r"
      ],
      [
        "vig",
        "ate"
      ],
      [
        "Ġn",
        "ew"
      ],
      [
        "M",
        "ore"
      ],
      [
        "N",
        "a"
      ],
      [
        "Vi",
        "ew"
      ],
      [
        "v",
        "er"
      ],
      [
        "Ġf",
        "iles"
      ],
      [
        "h",
        "ar"
      ],
      [
        "ang",
        "u"
      ],
      [
        "Ġu",
        "p"
      ],
      [
        "angu",
        "age"
      ],
      [
        "O",
        "ptions"
      ],
      [
        "se",
        "r"
      ],
      [
        "o",
        "s"
      ],
      [
        "Ġd",
        "e"
      ],
      [
        "o",
        "k"
      ],
      [
        "iz",
        "e"
      ],
      [
        "C",
        "on"
      ],
      [
        "ind",
        "ow"
      ],
      [
        "an",
        "ge"
      ],
      [
        "or",
        "t"
      ],
      [
        "Ġa",
        "s"
      ],
      [
        "c",
        "k"
      ],
      [
        "Ġse",
        "arch"
      ],
      [
        "Ġin",
        "d"
      ],
      [
        "en",
        "d"
      ],
      [
        "Ġc",
        "lic"
      ],
      [
        "Ġclic",
        "k"
      ],
      [
        "Ġm",
        "o"
      ],
      [
        "ic",
        "es"
      ],
      [
        "In",
        "iti"
      ],
      [
        "o",
        "pen"
      ],
      [
        "Ġt",
        "hat"
      ],
      [
        "o",
        "ur"
      ],
      [
        "Ġ",
        "on"
      ],
      [
        "ar",
        "k"
      ],
      [
        "cre",
        "en"
      ],
      [
        "Ġa",
        "ction"
      ],
      [
        "har",
        "e"
      ],
      [
        "ac",
        "e"
      ],
      [
        "ation",
        "s"
      ],
      [
        "u",
        "n"
      ],
      [
        "a",
        "v"
      ],
      [
        "i",
        "r"
      ],
      [
        "t",
        "en"
      ],
      [
        "ic",
        "e"
      ],
      [
        "o",
        "ti"
      ],
      [
        "Ġ",
        "T"
      ],
      [
        "a",
        "il"
      ],
      [
        "Ġp",
        "age"
      ],
      [
        "Na",
        "vigate"
      ],
      [
        "l",
        "ate"
      ],
      [
        "Ġ",
        "F"
      ],
      [
        "Ġf",
        "ile"
      ],
      [
        "w",
        "ard"
      ],
      [
        "f",
        "ile"
      ],
      [
        "a",
        "ve"
      ],
      [
        "o",
        "f"
      ],
      [
        "Ġdi",
        "s"
      ],
      [
        "h",
        "t"
      ],
      [
        "o",
        "ll"
      ],
      [
        "Ġw",
        "indow"
      ],
      [
        "Ġm",
        "ess"
      ],
      [
        "lo",
        "se"
      ],
      [
        "vig",
        "ation"
      ],
      [
        "ou",
        "n"
      ],
      [
        "f",
        "y"
      ],
      [
        "f",
        "er"
      ],
      [
        "at",
        "us"
      ],
      [
        "Ġ",
        "S"
      ],
      [
        "own",
        "load"
      ],
      [
        "u",
        "st"
      ],
      [
        "ag",
        "es"
      ],
      [
        "c",
        "es"
      ],
      [
        "Ġ",
        "ex"
      ],
      [
        "h",
        "ange"
      ],
      [
        "r",
        "an"
      ],
      [
        "P",
        "ro"
      ],
      [
        "a",
        "se"
      ],
      [
        "Ġ",
        "g"
      ],
      [
        "Ġf",
        "eat"
      ],
      [
        "e",
        "b"
      ],
      [
        "Ġin",
        "ter"
      ],
      [
        "av",
        "or"
      ],
      [
        "Use",
        "r"
      ],
      [
        "Ġwith",
        "in"
      ],
      [
        "oti",
        "fic"
      ],
      [
        "Ġs",
        "creen"
      ],
      [
        "Initi",
        "ates"
      ],
      [
        "a",
        "m"
      ],
      [
        "Ġcho",
        "ices"
      ],
      [
        "Ġa",
        "llow"
      ],
      [
        "Ġc",
        "om"
      ],
      [
        "of",
        "t"
      ],
      [
        "t",
        "y"
      ],
      [
        "vi",
        "de"
      ],
      [
        "Ġallow",
        "ing"
      ],
      [
        "lo",
        "g"
      ],
      [
        "Ġs",
        "u"
      ],
      [
        "oun",
        "t"
      ],
      [
        "ou",
        "s"
      ],
      [
        "M",
        "i"
      ],
      [
        "u",
        "p"
      ],
      [
        "Ġn",
        "ext"
      ],
      [
        "ec",
        "t"
      ],
      [
        "k",
        "e"
      ],
      [
        "Ġof",
        "ten"
      ],
      [
        "u",
        "re"
      ],
      [
        "c",
        "on"
      ],
      [
        "t",
        "o"
      ],
      [
        "r",
        "ow"
      ],
      [
        "T",
        "ext"
      ],
      [
        "l",
        "p"
      ],
      [
        "or",
        "d"
      ],
      [
        "Ġo",
        "ption"
      ],
      [
        "li",
        "g"
      ],
      [
        "Ġf",
        "older"
      ],
      [
        "di",
        "o"
      ],
      [
        "Mi",
        "cr"
      ],
      [
        "le",
        "r"
      ],
      [
        "at",
        "a"
      ],
      [
        "Ġp",
        "re"
      ],
      [
        "bo",
        "ard"
      ],
      [
        "E",
        "dit"
      ],
      [
        "er",
        "s"
      ],
      [
        "h",
        "ow"
      ],
      [
        "di",
        "fy"
      ],
      [
        "cre",
        "ate"
      ],
      [
        "os",
        "oft"
      ],
      [
        "Micr",
        "osoft"
      ],
      [
        "N",
        "ext"
      ],
      [
        "is",
        "s"
      ],
      [
        "Ġ",
        "B"
      ],
      [
        "Ġ",
        "y"
      ],
      [
        "l",
        "y"
      ],
      [
        "n",
        "e"
      ],
      [
        "si",
        "on"
      ],
      [
        "late",
        "d"
      ],
      [
        "u",
        "dio"
      ],
      [
        "eat",
        "her"
      ],
      [
        "u",
        "e"
      ],
      [
        "ti",
        "c"
      ],
      [
        "Ġfor",
        "m"
      ],
      [
        "ser",
        "t"
      ],
      [
        "Ġ",
        "P"
      ],
      [
        "na",
        "vigation"
      ],
      [
        "ou",
        "t"
      ],
      [
        "v",
        "ice"
      ],
      [
        "Ġ",
        "me"
      ],
      [
        "ri",
        "d"
      ],
      [
        "j",
        "ust"
      ],
      [
        "Ġy",
        "our"
      ],
      [
        "c",
        "ess"
      ],
      [
        "i",
        "te"
      ],
      [
        "o",
        "me"
      ],
      [
        "a",
        "in"
      ],
      [
        "Ġ",
        "des"
      ],
      [
        "Ġ",
        "Options"
      ],
      [
        "Ġind",
        "icates"
      ],
      [
        "se",
        "arch"
      ],
      [
        "C",
        "op"
      ],
      [
        "ab",
        "le"
      ],
      [
        "ch",
        "es"
      ],
      [
        "L",
        "a"
      ],
      [
        "f",
        "ace"
      ],
      [
        "ex",
        "pand"
      ],
      [
        "avor",
        "ite"
      ],
      [
        "g",
        "g"
      ],
      [
        "lo",
        "ok"
      ],
      [
        "iti",
        "ate"
      ],
      [
        "fer",
        "en"
      ],
      [
        "S",
        "hare"
      ],
      [
        "Ġ",
        "h"
      ],
      [
        "vi",
        "ous"
      ],
      [
        "Ġw",
        "eb"
      ],
      [
        "Ġinter",
        "face"
      ],
      [
        "m",
        "enu"
      ],
      [
        "Ġ",
        "I"
      ],
      [
        "er",
        "y"
      ],
      [
        "cc",
        "ount"
      ],
      [
        "ur",
        "es"
      ],
      [
        "qu",
        "ery"
      ],
      [
        "otific",
        "ations"
      ],
      [
        "F",
        "or"
      ],
      [
        "Ġ",
        "User"
      ],
      [
        "Ġa",
        "llows"
      ],
      [
        "oll",
        "ap"
      ],
      [
        "Ġi",
        "m"
      ],
      [
        "Ġl",
        "anguage"
      ],
      [
        "ollap",
        "se"
      ],
      [
        "f",
        "ind"
      ],
      [
        "h",
        "en"
      ],
      [
        "Ġd",
        "ata"
      ],
      [
        "o",
        "se"
      ],
      [
        "le",
        "ment"
      ],
      [
        "Ġm",
        "ore"
      ],
      [
        "ig",
        "n"
      ],
      [
        "Ġdis",
        "play"
      ],
      [
        "C",
        "lose"
      ],
      [
        "Ġ",
        "C"
      ],
      [
        "Ġ",
        "create"
      ],
      [
        "Ġ",
        "navigation"
      ],
      [
        "he",
        "ck"
      ],
      [
        "di",
        "a"
      ],
      [
        "Ġe",
        "lement"
      ],
      [
        "Ġad",
        "d"
      ],
      [
        "d",
        "u"
      ],
      [
        "te",
        "p"
      ],
      [
        "ur",
        "n"
      ],
      [
        "N",
        "ew"
      ],
      [
        "Ġw",
        "hen"
      ],
      [
        "si",
        "st"
      ],
      [
        "For",
        "ward"
      ],
      [
        "Ġ",
        "v"
      ],
      [
        "ro",
        "l"
      ],
      [
        "Ġst",
        "atus"
      ],
      [
        "t",
        "her"
      ],
      [
        "pp",
        "ort"
      ],
      [
        "Ġclick",
        "ed"
      ],
      [
        "Ġfeat",
        "ures"
      ],
      [
        "ĠUser",
        "s"
      ],
      [
        "D",
        "ownload"
      ],
      [
        "Ġ",
        "en"
      ],
      [
        "in",
        "itiate"
      ],
      [
        "Ġe",
        "as"
      ],
      [
        "Ġs",
        "y"
      ],
      [
        "ess",
        "age"
      ],
      [
        "g",
        "an"
      ],
      [
        "m",
        "o"
      ],
      [
        "S",
        "ave"
      ],
      [
        "Ġse",
        "ction"
      ],
      [
        "Ġselec",
        "tion"
      ],
      [
        "t",
        "urn"
      ],
      [
        "Ġre",
        "lated"
      ],
      [
        "L",
        "anguage"
      ],
      [
        "Ġ",
        "is"
      ],
      [
        "m",
        "ark"
      ],
      [
        "te",
        "x"
      ],
      [
        "In",
        "sert"
      ],
      [
        "feren",
        "ces"
      ],
      [
        "n",
        "k"
      ],
      [
        "sist",
        "ance"
      ],
      [
        "m",
        "iss"
      ],
      [
        "Ġthe",
        "ir"
      ],
      [
        "Ġde",
        "vice"
      ],
      [
        "U",
        "p"
      ],
      [
        "Ġ",
        "Menu"
      ],
      [
        "a",
        "log"
      ],
      [
        "Ġ",
        "lo"
      ],
      [
        "cre",
        "ase"
      ],
      [
        "Ġdi",
        "alog"
      ],
      [
        "Ġpro",
        "cess"
      ],
      [
        "or",
        "y"
      ],
      [
        "Ġor",
        "gan"
      ],
      [
        "as",
        "k"
      ],
      [
        "Ġe",
        "dit"
      ],
      [
        "Ad",
        "just"
      ],
      [
        "P",
        "re"
      ],
      [
        "m",
        "ail"
      ],
      [
        "o",
        "in"
      ],
      [
        "Ġ",
        "M"
      ],
      [
        "Ġ",
        "he"
      ],
      [
        "ho",
        "me"
      ],
      [
        "Ġmess",
        "ages"
      ],
      [
        "Ġ",
        "A"
      ],
      [
        "Ġc",
        "hange"
      ],
      [
        "Ġs",
        "p"
      ],
      [
        "s",
        "tem"
      ],
      [
        "Ġ",
        "lay"
      ],
      [
        "li",
        "p"
      ],
      [
        "P",
        "lay"
      ],
      [
        "Ġa",
        "udio"
      ],
      [
        "se",
        "lect"
      ],
      [
        "Ġb",
        "o"
      ],
      [
        "vide",
        "o"
      ],
      [
        "gg",
        "le"
      ],
      [
        "ig",
        "ht"
      ],
      [
        "Ġform",
        "at"
      ],
      [
        "Ġp",
        "l"
      ],
      [
        "i",
        "li"
      ],
      [
        "ic",
        "ate"
      ],
      [
        "lig",
        "n"
      ],
      [
        "H",
        "ome"
      ],
      [
        "P",
        "in"
      ],
      [
        "S",
        "end"
      ],
      [
        "at",
        "or"
      ],
      [
        "Ġw",
        "eather"
      ],
      [
        "Se",
        "ttings"
      ],
      [
        "ol",
        "or"
      ],
      [
        "Cop",
        "y"
      ],
      [
        "D",
        "ocument"
      ],
      [
        "g",
        "r"
      ],
      [
        "Ġmo",
        "dify"
      ],
      [
        "t",
        "h"
      ],
      [
        "as",
        "t"
      ],
      [
        "p",
        "ut"
      ],
      [
        "t",
        "on"
      ],
      [
        "Ġn",
        "otifications"
      ],
      [
        "Ġapplication",
        "s"
      ],
      [
        "c",
        "t"
      ],
      [
        "Ġi",
        "t"
      ],
      [
        "m",
        "b"
      ],
      [
        "Ġcon",
        "tex"
      ],
      [
        "G",
        "it"
      ],
      [
        "lip",
        "board"
      ],
      [
        "f",
        "ig"
      ],
      [
        "me",
        "r"
      ],
      [
        "si",
        "te"
      ],
      [
        "S",
        "u"
      ],
      [
        "j",
        "ect"
      ],
      [
        "ic",
        "k"
      ],
      [
        "St",
        "art"
      ],
      [
        "Ġsy",
        "stem"
      ],
      [
        "Ġlo",
        "c"
      ],
      [
        "o",
        "de"
      ],
      [
        "u",
        "d"
      ],
      [
        "Ġ",
        "video"
      ],
      [
        "tic",
        "s"
      ],
      [
        "C",
        "hange"
      ],
      [
        "a",
        "i"
      ],
      [
        "Ġ",
        "ver"
      ],
      [
        "Ġb",
        "e"
      ],
      [
        "Ġb",
        "ran"
      ],
      [
        "ut",
        "ton"
      ],
      [
        "c",
        "ord"
      ],
      [
        "Ġ",
        "vi"
      ],
      [
        "Ġorgan",
        "iz"
      ],
      [
        "H",
        "e"
      ],
      [
        "L",
        "ab"
      ],
      [
        "Ġs",
        "tep"
      ],
      [
        "la",
        "b"
      ],
      [
        "ve",
        "al"
      ],
      [
        "Ġeas",
        "y"
      ],
      [
        "Ġhe",
        "lp"
      ],
      [
        "g",
        "rid"
      ],
      [
        "n",
        "et"
      ],
      [
        "Ġc",
        "lipboard"
      ],
      [
        "ge",
        "r"
      ],
      [
        "Ġdes",
        "ign"
      ],
      [
        "fig",
        "ur"
      ],
      [
        "u",
        "l"
      ],
      [
        "or",
        "k"
      ],
      [
        "ili",
        "ty"
      ],
      [
        "C",
        "re"
      ],
      [
        "W",
        "i"
      ],
      [
        "w",
        "it"
      ],
      [
        "Ġc",
        "an"
      ],
      [
        "Ġs",
        "how"
      ],
      [
        "Ġcho",
        "ose"
      ],
      [
        "Ġbo",
        "x"
      ],
      [
        "D",
        "e"
      ],
      [
        "Ġ",
        "res"
      ],
      [
        "Ġo",
        "ther"
      ],
      [
        "lo",
        "ud"
      ],
      [
        "o",
        "te"
      ],
      [
        "p",
        "e"
      ],
      [
        "Ġre",
        "veal"
      ],
      [
        "ĠT",
        "ypically"
      ],
      [
        "Git",
        "Lab"
      ],
      [
        "D",
        "rop"
      ],
      [
        "t",
        "r"
      ],
      [
        "Ġ",
        "O"
      ],
      [
        "ate",
        "r"
      ],
      [
        "tin",
        "ue"
      ],
      [
        "Ġd",
        "ownload"
      ],
      [
        "ou",
        "nd"
      ],
      [
        "Ġdocument",
        "s"
      ],
      [
        "Ġpre",
        "vious"
      ],
      [
        "Ġweb",
        "site"
      ],
      [
        "A",
        "pp"
      ],
      [
        "C",
        "om"
      ],
      [
        "i",
        "m"
      ],
      [
        "ic",
        "ator"
      ],
      [
        "Open",
        "s"
      ],
      [
        "Con",
        "tinue"
      ],
      [
        "ai",
        "lab"
      ],
      [
        "Ġb",
        "row"
      ],
      [
        "Ġpro",
        "file"
      ],
      [
        "ance",
        "l"
      ],
      [
        "c",
        "ti"
      ],
      [
        "d",
        "ate"
      ],
      [
        "v",
        "ailab"
      ],
      [
        "Ġ",
        "le"
      ],
      [
        "Ġver",
        "sion"
      ],
      [
        "a",
        "k"
      ],
      [
        "n",
        "ect"
      ],
      [
        "Ġ",
        "ke"
      ],
      [
        "Ġa",
        "ccount"
      ],
      [
        "P",
        "l"
      ],
      [
        "a",
        "ti"
      ],
      [
        "h",
        "ap"
      ],
      [
        "i",
        "de"
      ],
      [
        "Ġcont",
        "rol"
      ],
      [
        "Ġselect",
        "able"
      ],
      [
        "Ġ",
        "home"
      ],
      [
        "re",
        "ct"
      ],
      [
        "ok",
        "mark"
      ],
      [
        "Cre",
        "ate"
      ],
      [
        "a",
        "nage"
      ],
      [
        "or",
        "age"
      ],
      [
        "Ġma",
        "p"
      ],
      [
        "Ġl",
        "ater"
      ],
      [
        "Ġfeat",
        "ure"
      ],
      [
        "d",
        "ates"
      ],
      [
        "Ġt",
        "ask"
      ],
      [
        "Ġa",
        "vailab"
      ],
      [
        "Ġsu",
        "ch"
      ],
      [
        "s",
        "u"
      ],
      [
        "Ġe",
        "di"
      ],
      [
        "Ġim",
        "age"
      ],
      [
        "Ġbran",
        "ches"
      ],
      [
        "B",
        "ack"
      ],
      [
        "Ġa",
        "re"
      ],
      [
        "in",
        "k"
      ],
      [
        "Ġf",
        "avorite"
      ],
      [
        "Con",
        "t"
      ],
      [
        "La",
        "un"
      ],
      [
        "rect",
        "ory"
      ],
      [
        "G",
        "o"
      ],
      [
        "a",
        "ting"
      ],
      [
        "b",
        "ur"
      ],
      [
        "f",
        "res"
      ],
      [
        "k",
        "i"
      ],
      [
        "u",
        "mb"
      ],
      [
        "Ġli",
        "nk"
      ],
      [
        "Ġpro",
        "gr"
      ],
      [
        "am",
        "bur"
      ],
      [
        "ler",
        "t"
      ],
      [
        "ĠI",
        "con"
      ],
      [
        "Ġcontex",
        "t"
      ],
      [
        "fres",
        "h"
      ],
      [
        "ambur",
        "ger"
      ],
      [
        "T",
        "ypically"
      ],
      [
        "o",
        "t"
      ],
      [
        "ment",
        "s"
      ],
      [
        "ail",
        "s"
      ],
      [
        "f",
        "o"
      ],
      [
        "at",
        "form"
      ],
      [
        "it",
        "y"
      ],
      [
        "ec",
        "i"
      ],
      [
        "bo",
        "x"
      ],
      [
        "Pl",
        "us"
      ],
      [
        "Ġedi",
        "ting"
      ],
      [
        "A",
        "r"
      ],
      [
        "i",
        "ll"
      ],
      [
        "as",
        "h"
      ],
      [
        "he",
        "re"
      ],
      [
        "Ġp",
        "lay"
      ],
      [
        "Ġpl",
        "atform"
      ],
      [
        "He",
        "lp"
      ],
      [
        "C",
        "ancel"
      ],
      [
        "li",
        "ne"
      ],
      [
        "Ġs",
        "ave"
      ],
      [
        "et",
        "w"
      ],
      [
        "Ġlay",
        "out"
      ],
      [
        "A",
        "Q"
      ],
      [
        "F",
        "ile"
      ],
      [
        "on",
        "t"
      ],
      [
        "ow",
        "er"
      ],
      [
        "Ġp",
        "as"
      ],
      [
        "Ġe",
        "mail"
      ],
      [
        "mo",
        "ve"
      ],
      [
        "M",
        "o"
      ],
      [
        "e",
        "ed"
      ],
      [
        "f",
        "ir"
      ],
      [
        "Ġcom",
        "m"
      ],
      [
        "La",
        "y"
      ],
      [
        "Ġsp",
        "eci"
      ],
      [
        "b",
        "in"
      ],
      [
        "i",
        "on"
      ],
      [
        "Ġ",
        "r"
      ],
      [
        "na",
        "ly"
      ],
      [
        "Ġc",
        "lose"
      ],
      [
        "Ġfor",
        "ward"
      ],
      [
        "Ġd",
        "et"
      ],
      [
        "ĠS",
        "ize"
      ],
      [
        "Ġme",
        "dia"
      ],
      [
        "c",
        "i"
      ],
      [
        "en",
        "ce"
      ],
      [
        "orm",
        "at"
      ],
      [
        "ran",
        "s"
      ],
      [
        "Ġloc",
        "ation"
      ],
      [
        "im",
        "ize"
      ],
      [
        "C",
        "ollapse"
      ],
      [
        "p",
        "ort"
      ],
      [
        "Ġs",
        "hare"
      ],
      [
        "lic",
        "ate"
      ],
      [
        "Ex",
        "it"
      ],
      [
        "n",
        "ing"
      ],
      [
        "o",
        "ptions"
      ],
      [
        "p",
        "l"
      ],
      [
        "y",
        "le"
      ],
      [
        "na",
        "vigate"
      ],
      [
        "Ġo",
        "pen"
      ],
      [
        "Dis",
        "miss"
      ],
      [
        "Ġaction",
        "s"
      ],
      [
        "un",
        "ction"
      ],
      [
        "Ġorganiz",
        "ing"
      ],
      [
        "figur",
        "ation"
      ],
      [
        "Ġres",
        "our"
      ],
      [
        "D",
        "i"
      ],
      [
        "e",
        "l"
      ],
      [
        "p",
        "ro"
      ],
      [
        "Ġ",
        "L"
      ],
      [
        "Ġ",
        "St"
      ],
      [
        "Ġf",
        "ind"
      ],
      [
        "us",
        "ic"
      ],
      [
        "ver",
        "t"
      ],
      [
        "Ġup",
        "dates"
      ],
      [
        "Ġcom",
        "p"
      ],
      [
        "Ġsu",
        "pport"
      ],
      [
        "to",
        "ggle"
      ],
      [
        "lig",
        "ht"
      ],
      [
        "Ġdet",
        "ails"
      ],
      [
        "b",
        "ack"
      ],
      [
        "c",
        "om"
      ],
      [
        "r",
        "a"
      ],
      [
        "Ġ",
        "ent"
      ],
      [
        "er",
        "form"
      ],
      [
        "wit",
        "ch"
      ],
      [
        "A",
        "lign"
      ],
      [
        "G",
        "et"
      ],
      [
        "c",
        "ur"
      ],
      [
        "l",
        "se"
      ],
      [
        "o",
        "om"
      ],
      [
        "w",
        "here"
      ],
      [
        "Ġa",
        "cti"
      ],
      [
        "Ġc",
        "hat"
      ],
      [
        "ve",
        "lo"
      ],
      [
        "Ġe",
        "lse"
      ],
      [
        "ers",
        "on"
      ],
      [
        "Ġpas",
        "ting"
      ],
      [
        "Ġelse",
        "where"
      ],
      [
        "c",
        "ollapse"
      ],
      [
        "j",
        "ec"
      ],
      [
        "r",
        "y"
      ],
      [
        "s",
        "ing"
      ],
      [
        "Ġpro",
        "ject"
      ],
      [
        "ag",
        "ing"
      ],
      [
        "Ġas",
        "sistance"
      ],
      [
        "otific",
        "ation"
      ],
      [
        "up",
        "licate"
      ],
      [
        "umb",
        "er"
      ],
      [
        "cur",
        "ity"
      ],
      [
        "M",
        "anage"
      ],
      [
        "r",
        "in"
      ],
      [
        "Ġ",
        "Document"
      ],
      [
        "in",
        "fo"
      ],
      [
        "Ġc",
        "art"
      ],
      [
        "Ġin",
        "to"
      ],
      [
        "Ġd",
        "own"
      ],
      [
        "Re",
        "turn"
      ],
      [
        "Ġma",
        "in"
      ],
      [
        "Ġex",
        "pand"
      ],
      [
        "Wi",
        "ki"
      ],
      [
        "M",
        "ark"
      ],
      [
        "Ġc",
        "h"
      ],
      [
        "Ġf",
        "unction"
      ],
      [
        "ig",
        "h"
      ],
      [
        "ang",
        "es"
      ],
      [
        "ler",
        "ts"
      ],
      [
        "Ġother",
        "s"
      ],
      [
        "Ġspeci",
        "fic"
      ],
      [
        "Ġresour",
        "ces"
      ],
      [
        "jec",
        "ts"
      ],
      [
        "M",
        "essage"
      ],
      [
        "i",
        "es"
      ],
      [
        "u",
        "me"
      ],
      [
        "Ġ",
        "one"
      ],
      [
        "in",
        "imize"
      ],
      [
        "Ġcontent",
        "s"
      ],
      [
        "ve",
        "l"
      ],
      [
        "Ġre",
        "turn"
      ],
      [
        "Ġst",
        "orage"
      ],
      [
        "Ġl",
        "ast"
      ],
      [
        "Na",
        "vigation"
      ],
      [
        "Ġmess",
        "age"
      ],
      [
        "Ġex",
        "it"
      ],
      [
        "Pro",
        "file"
      ],
      [
        "Ġelement",
        "s"
      ],
      [
        "Ġent",
        "ry"
      ],
      [
        "B",
        "o"
      ],
      [
        "C",
        "rop"
      ],
      [
        "f",
        "fer"
      ],
      [
        "Ġp",
        "ur"
      ],
      [
        "Ġp",
        "resent"
      ],
      [
        "dition",
        "s"
      ],
      [
        "ĠF",
        "ile"
      ],
      [
        "Ġen",
        "ter"
      ],
      [
        "Ġle",
        "vel"
      ],
      [
        "A",
        "s"
      ],
      [
        "L",
        "o"
      ],
      [
        "W",
        "eather"
      ],
      [
        "cr",
        "oll"
      ],
      [
        "Ġse",
        "qu"
      ],
      [
        "Ġdi",
        "ffer"
      ],
      [
        "tr",
        "ic"
      ],
      [
        "Ġsequ",
        "ence"
      ],
      [
        "Ġdiffer",
        "ent"
      ],
      [
        "S",
        "c"
      ],
      [
        "b",
        "e"
      ],
      [
        "v",
        "ing"
      ],
      [
        "Ġs",
        "ize"
      ],
      [
        "Pre",
        "vious"
      ],
      [
        "ul",
        "ti"
      ],
      [
        "Ġke",
        "y"
      ],
      [
        "Ġavailab",
        "le"
      ],
      [
        "M",
        "e"
      ],
      [
        "d",
        "ropdown"
      ],
      [
        "s",
        "es"
      ],
      [
        "Ġ",
        "R"
      ],
      [
        "Ġcon",
        "ditions"
      ],
      [
        "it",
        "es"
      ],
      [
        "avor",
        "ites"
      ],
      [
        "oin",
        "t"
      ],
      [
        "fir",
        "m"
      ],
      [
        "A",
        "ccount"
      ],
      [
        "f",
        "older"
      ],
      [
        "Ġ",
        "Settings"
      ],
      [
        "Ġo",
        "b"
      ],
      [
        "ess",
        "ion"
      ],
      [
        "Ġbrow",
        "ser"
      ],
      [
        "ati",
        "s"
      ],
      [
        "e",
        "ve"
      ],
      [
        "Ġa",
        "b"
      ],
      [
        "ro",
        "up"
      ],
      [
        "Ġclick",
        "ing"
      ],
      [
        "Ġpre",
        "ferences"
      ],
      [
        "ĠB",
        "ack"
      ],
      [
        "ĠP",
        "age"
      ],
      [
        "erform",
        "ance"
      ],
      [
        "Ġ",
        "qu"
      ],
      [
        "vi",
        "ty"
      ],
      [
        "Ġs",
        "end"
      ],
      [
        "lo",
        "ses"
      ],
      [
        "Re",
        "fresh"
      ],
      [
        "Ġn",
        "umber"
      ],
      [
        "Ġst",
        "ore"
      ],
      [
        "Laun",
        "ches"
      ],
      [
        "As",
        "sistance"
      ],
      [
        "Ġab",
        "out"
      ],
      [
        "C",
        "heck"
      ],
      [
        "l",
        "one"
      ],
      [
        "ar",
        "i"
      ],
      [
        "ol",
        "ume"
      ],
      [
        "Ġg",
        "rid"
      ],
      [
        "ĠB",
        "utton"
      ],
      [
        "Su",
        "pport"
      ],
      [
        "e",
        "dit"
      ],
      [
        "p",
        "os"
      ],
      [
        "u",
        "g"
      ],
      [
        "Ġse",
        "r"
      ],
      [
        "Ġm",
        "ulti"
      ],
      [
        "Ġd",
        "ropdown"
      ],
      [
        "Ġb",
        "y"
      ],
      [
        "Ġre",
        "presents"
      ],
      [
        "ne",
        "ction"
      ],
      [
        "cord",
        "ing"
      ],
      [
        "igh",
        "light"
      ],
      [
        "H",
        "amburger"
      ],
      [
        "e",
        "p"
      ],
      [
        "t",
        "ure"
      ],
      [
        "Ġ",
        "ti"
      ],
      [
        "Ġc",
        "olor"
      ],
      [
        "ar",
        "ning"
      ],
      [
        "ap",
        "h"
      ],
      [
        "Ġmo",
        "ving"
      ],
      [
        "Pro",
        "vide"
      ],
      [
        "con",
        "nect"
      ],
      [
        "rans",
        "late"
      ],
      [
        "Ġch",
        "anges"
      ],
      [
        "S",
        "how"
      ],
      [
        "m",
        "p"
      ],
      [
        "v",
        "ices"
      ],
      [
        "Ġ",
        "W"
      ],
      [
        "st",
        "atus"
      ],
      [
        "Ġapp",
        "s"
      ],
      [
        "ol",
        "s"
      ],
      [
        "Ġmanage",
        "ment"
      ],
      [
        "ĠF",
        "older"
      ],
      [
        "Ġmess",
        "aging"
      ],
      [
        "Ġinter",
        "net"
      ],
      [
        "mer",
        "ge"
      ],
      [
        "hap",
        "es"
      ],
      [
        "atis",
        "tics"
      ],
      [
        "A",
        "udio"
      ],
      [
        "S",
        "ort"
      ],
      [
        "g",
        "ht"
      ],
      [
        "i",
        "d"
      ],
      [
        "t",
        "ri"
      ],
      [
        "u",
        "ter"
      ],
      [
        "an",
        "ts"
      ],
      [
        "di",
        "s"
      ],
      [
        "Ġp",
        "erformance"
      ],
      [
        "ĠT",
        "ext"
      ],
      [
        "Ġdis",
        "miss"
      ],
      [
        "naly",
        "tics"
      ],
      [
        "F",
        "AQ"
      ],
      [
        "M",
        "ap"
      ],
      [
        "T",
        "o"
      ],
      [
        "b",
        "ility"
      ],
      [
        "c",
        "ent"
      ],
      [
        "d",
        "ge"
      ],
      [
        "p",
        "lo"
      ],
      [
        "en",
        "ter"
      ],
      [
        "pp",
        "ing"
      ],
      [
        "Ġc",
        "ust"
      ],
      [
        "lo",
        "ck"
      ],
      [
        "nd",
        "o"
      ],
      [
        "Re",
        "vert"
      ],
      [
        "Ġb",
        "utton"
      ],
      [
        "ran",
        "ch"
      ],
      [
        "Ġv",
        "al"
      ],
      [
        "Cont",
        "rol"
      ],
      [
        "Mo",
        "dify"
      ],
      [
        "Bo",
        "okmark"
      ],
      [
        "plo",
        "y"
      ],
      [
        "L",
        "i"
      ],
      [
        "t",
        "op"
      ],
      [
        "v",
        "ent"
      ],
      [
        "cri",
        "p"
      ],
      [
        "Ġc",
        "ode"
      ],
      [
        "Ġin",
        "put"
      ],
      [
        "re",
        "lated"
      ],
      [
        "Re",
        "du"
      ],
      [
        "ind",
        "icate"
      ],
      [
        "Ġst",
        "art"
      ],
      [
        "St",
        "ar"
      ],
      [
        "Initi",
        "ate"
      ],
      [
        "Cop",
        "ies"
      ],
      [
        "Ġprogr",
        "ession"
      ],
      [
        "b",
        "all"
      ],
      [
        "g",
        "ing"
      ],
      [
        "Re",
        "move"
      ],
      [
        "ho",
        "to"
      ],
      [
        "op",
        "y"
      ],
      [
        "Ġim",
        "ages"
      ],
      [
        "ash",
        "board"
      ],
      [
        "bin",
        "e"
      ],
      [
        "D",
        "uplicate"
      ],
      [
        "F",
        "avorite"
      ],
      [
        "M",
        "er"
      ],
      [
        "P",
        "oint"
      ],
      [
        "c",
        "heck"
      ],
      [
        "m",
        "essage"
      ],
      [
        "Ġa",
        "t"
      ],
      [
        "li",
        "de"
      ],
      [
        "li",
        "nk"
      ],
      [
        "le",
        "te"
      ],
      [
        "lec",
        "tion"
      ],
      [
        "Ġw",
        "ants"
      ],
      [
        "Ġli",
        "ght"
      ],
      [
        "Ġcho",
        "ice"
      ],
      [
        "Ġind",
        "icate"
      ],
      [
        "Ġplay",
        "back"
      ],
      [
        "ower",
        "Point"
      ],
      [
        "tri",
        "eve"
      ],
      [
        "m",
        "age"
      ],
      [
        "r",
        "aph"
      ],
      [
        "Ġse",
        "curity"
      ],
      [
        "Ġp",
        "o"
      ],
      [
        "Ġcon",
        "nection"
      ],
      [
        "Ġs",
        "c"
      ],
      [
        "Ġw",
        "ill"
      ],
      [
        "al",
        "ler"
      ],
      [
        "Ġn",
        "ote"
      ],
      [
        "ho",
        "pping"
      ],
      [
        "etw",
        "ork"
      ],
      [
        "Z",
        "oom"
      ],
      [
        "c",
        "ing"
      ],
      [
        "l",
        "ow"
      ],
      [
        "p",
        "le"
      ],
      [
        "ti",
        "ck"
      ],
      [
        "Ġm",
        "usic"
      ],
      [
        "Ġs",
        "ound"
      ],
      [
        "Ġb",
        "ase"
      ],
      [
        "Ġview",
        "ing"
      ],
      [
        "Ind",
        "icator"
      ],
      [
        "ri",
        "ve"
      ],
      [
        "ver",
        "s"
      ],
      [
        "indow",
        "s"
      ],
      [
        "Ġon",
        "line"
      ],
      [
        "Su",
        "b"
      ],
      [
        "Ar",
        "row"
      ],
      [
        "To",
        "ggle"
      ],
      [
        "Mer",
        "ge"
      ],
      [
        "F",
        "older"
      ],
      [
        "F",
        "ont"
      ],
      [
        "S",
        "croll"
      ],
      [
        "f",
        "fic"
      ],
      [
        "n",
        "ess"
      ],
      [
        "p",
        "or"
      ],
      [
        "Ġ",
        "cre"
      ],
      [
        "Ġ",
        "log"
      ],
      [
        "Ġt",
        "r"
      ],
      [
        "di",
        "rectory"
      ],
      [
        "Ġm",
        "ark"
      ],
      [
        "Ġw",
        "ork"
      ],
      [
        "Re",
        "trieve"
      ],
      [
        "ter",
        "net"
      ],
      [
        "Ġh",
        "ide"
      ],
      [
        "Pre",
        "ferences"
      ],
      [
        "C",
        "lone"
      ],
      [
        "E",
        "mail"
      ],
      [
        "E",
        "dge"
      ],
      [
        "M",
        "ail"
      ],
      [
        "P",
        "rin"
      ],
      [
        "W",
        "indows"
      ],
      [
        "Ġa",
        "lerts"
      ],
      [
        "Ġc",
        "heck"
      ],
      [
        "Ġf",
        "avorites"
      ],
      [
        "Ġu",
        "n"
      ],
      [
        "re",
        "ction"
      ],
      [
        "is",
        "ting"
      ],
      [
        "ch",
        "at"
      ],
      [
        "yp",
        "e"
      ],
      [
        "Ġre",
        "cording"
      ],
      [
        "Ġex",
        "isting"
      ],
      [
        "Ġh",
        "ighlight"
      ],
      [
        "Ġv",
        "ari"
      ],
      [
        "Ġti",
        "me"
      ],
      [
        "Ġcust",
        "om"
      ],
      [
        "Ġvari",
        "ous"
      ],
      [
        "S",
        "ound"
      ],
      [
        "T",
        "ak"
      ],
      [
        "T",
        "ranslate"
      ],
      [
        "Ġ",
        "View"
      ],
      [
        "ent",
        "o"
      ],
      [
        "Ġo",
        "ut"
      ],
      [
        "Ġp",
        "erson"
      ],
      [
        "In",
        "put"
      ],
      [
        "ag",
        "ento"
      ],
      [
        "Ġg",
        "u"
      ],
      [
        "Ġlay",
        "ers"
      ],
      [
        "velo",
        "p"
      ],
      [
        "Ġpur",
        "pos"
      ],
      [
        "aller",
        "y"
      ],
      [
        "Tak",
        "es"
      ],
      [
        "Ġpurpos",
        "es"
      ],
      [
        "C",
        "ho"
      ],
      [
        "F",
        "ormat"
      ],
      [
        "m",
        "it"
      ],
      [
        "w",
        "ord"
      ],
      [
        "Ġ",
        "3"
      ],
      [
        "Ġ",
        "iss"
      ],
      [
        "Ġc",
        "loud"
      ],
      [
        "Ġfor",
        "ec"
      ],
      [
        "Con",
        "figuration"
      ],
      [
        "ĠT",
        "o"
      ],
      [
        "ĠI",
        "tem"
      ],
      [
        "Up",
        "load"
      ],
      [
        "Ġplatform",
        "s"
      ],
      [
        "Ġcomm",
        "un"
      ],
      [
        "Ġpresent",
        "ation"
      ],
      [
        "Ġmulti",
        "ple"
      ],
      [
        "i",
        "ed"
      ],
      [
        "Ġ",
        "Microsoft"
      ],
      [
        "es",
        "tion"
      ],
      [
        "Ġto",
        "ols"
      ],
      [
        "ic",
        "ating"
      ],
      [
        "cu",
        "re"
      ],
      [
        "Ġad",
        "just"
      ],
      [
        "St",
        "atus"
      ],
      [
        "Ġind",
        "icating"
      ],
      [
        "ĠC",
        "om"
      ],
      [
        "hap",
        "e"
      ],
      [
        "vers",
        "ation"
      ],
      [
        "Ġperson",
        "al"
      ],
      [
        "D",
        "es"
      ],
      [
        "L",
        "ink"
      ],
      [
        "M",
        "inimize"
      ],
      [
        "e",
        "mp"
      ],
      [
        "o",
        "o"
      ],
      [
        "he",
        "du"
      ],
      [
        "ar",
        "e"
      ],
      [
        "Ġin",
        "sert"
      ],
      [
        "Ġre",
        "cent"
      ],
      [
        "Ġview",
        "ed"
      ],
      [
        "Ġst",
        "ate"
      ],
      [
        "Vi",
        "de"
      ],
      [
        "Ġme",
        "tric"
      ],
      [
        "Ġformat",
        "ting"
      ],
      [
        "Ġvi",
        "su"
      ],
      [
        "Ġob",
        "jects"
      ],
      [
        "Ġval",
        "ue"
      ],
      [
        "crip",
        "t"
      ],
      [
        "por",
        "ts"
      ],
      [
        "Ġmetric",
        "s"
      ],
      [
        "a",
        "u"
      ],
      [
        "c",
        "ast"
      ],
      [
        "k",
        "top"
      ],
      [
        "Ġ",
        "Indicator"
      ],
      [
        "on",
        "it"
      ],
      [
        "ac",
        "cess"
      ],
      [
        "ar",
        "y"
      ],
      [
        "Ġb",
        "ack"
      ],
      [
        "il",
        "ter"
      ],
      [
        "ri",
        "v"
      ],
      [
        "Ġde",
        "crease"
      ],
      [
        "Ġde",
        "velop"
      ],
      [
        "Ġform",
        "s"
      ],
      [
        "ĠR",
        "ight"
      ],
      [
        "ĠW",
        "ord"
      ],
      [
        "Ġlog",
        "o"
      ],
      [
        "Cho",
        "ose"
      ],
      [
        "Ġforec",
        "as"
      ],
      [
        "A",
        "lert"
      ],
      [
        "N",
        "otifications"
      ],
      [
        "S",
        "pe"
      ],
      [
        "T",
        "ick"
      ],
      [
        "W",
        "eb"
      ],
      [
        "ac",
        "t"
      ],
      [
        "ac",
        "y"
      ],
      [
        "ali",
        "ty"
      ],
      [
        "Ġse",
        "e"
      ],
      [
        "vi",
        "des"
      ],
      [
        "Re",
        "load"
      ],
      [
        "Ġb",
        "et"
      ],
      [
        "ho",
        "t"
      ],
      [
        "ore",
        "cast"
      ],
      [
        "ter",
        "na"
      ],
      [
        "ce",
        "ed"
      ],
      [
        "Ġmo",
        "de"
      ],
      [
        "ĠF",
        "ormat"
      ],
      [
        "Ġr",
        "ain"
      ],
      [
        "Ġbase",
        "d"
      ],
      [
        "word",
        "s"
      ],
      [
        "onit",
        "or"
      ],
      [
        "riv",
        "acy"
      ],
      [
        "Ġbet",
        "ter"
      ],
      [
        "C",
        "hat"
      ],
      [
        "C",
        "olor"
      ],
      [
        "E",
        "n"
      ],
      [
        "F",
        "orecast"
      ],
      [
        "M",
        "agento"
      ],
      [
        "O",
        "ver"
      ],
      [
        "e",
        "en"
      ],
      [
        "f",
        "low"
      ],
      [
        "i",
        "ve"
      ],
      [
        "l",
        "es"
      ],
      [
        "m",
        "ore"
      ],
      [
        "s",
        "cri"
      ],
      [
        "y",
        "th"
      ],
      [
        "li",
        "t"
      ],
      [
        "ic",
        "ation"
      ],
      [
        "Ġin",
        "crease"
      ],
      [
        "Ġb",
        "etw"
      ],
      [
        "Ġst",
        "yle"
      ],
      [
        "Ġg",
        "roup"
      ],
      [
        "Ġdes",
        "e"
      ],
      [
        "Up",
        "date"
      ],
      [
        "Ġvi",
        "si"
      ],
      [
        "ĠSt",
        "yle"
      ],
      [
        "Ġstore",
        "d"
      ],
      [
        "id",
        "ance"
      ],
      [
        "ffic",
        "e"
      ],
      [
        "Ġdevelop",
        "ment"
      ],
      [
        "scri",
        "be"
      ],
      [
        "Ġbetw",
        "een"
      ],
      [
        "R",
        "es"
      ],
      [
        "b",
        "row"
      ],
      [
        "c",
        "loud"
      ],
      [
        "i",
        "p"
      ],
      [
        "r",
        "or"
      ],
      [
        "r",
        "ange"
      ],
      [
        "Ġu",
        "sing"
      ],
      [
        "it",
        "ation"
      ],
      [
        "Pro",
        "vides"
      ],
      [
        "Ġcom",
        "ments"
      ],
      [
        "sion",
        "s"
      ],
      [
        "Ġsystem",
        "s"
      ],
      [
        "Ġare",
        "a"
      ],
      [
        "Ġlink",
        "s"
      ],
      [
        "ra",
        "w"
      ],
      [
        "Li",
        "ke"
      ],
      [
        "Ġgu",
        "idance"
      ],
      [
        "ĠTo",
        "ol"
      ],
      [
        "Ġcommun",
        "ication"
      ],
      [
        "e",
        "ting"
      ],
      [
        "i",
        "er"
      ],
      [
        "n",
        "ec"
      ],
      [
        "p",
        "age"
      ],
      [
        "u",
        "te"
      ],
      [
        "w",
        "are"
      ],
      [
        "Ġ",
        "Select"
      ],
      [
        "Ġ",
        "Edge"
      ],
      [
        "ti",
        "es"
      ],
      [
        "Ġc",
        "al"
      ],
      [
        "at",
        "ter"
      ],
      [
        "Re",
        "cord"
      ],
      [
        "Ġde",
        "ploy"
      ],
      [
        "ĠS",
        "tep"
      ],
      [
        "Ġeas",
        "ier"
      ],
      [
        "ĠL",
        "ink"
      ],
      [
        "Ġkey",
        "words"
      ],
      [
        "Prin",
        "t"
      ],
      [
        "yth",
        "on"
      ],
      [
        "\"",
        ","
      ],
      [
        "B",
        "e"
      ],
      [
        "C",
        "loses"
      ],
      [
        "H",
        "ide"
      ],
      [
        "K",
        "e"
      ],
      [
        "S",
        "p"
      ],
      [
        "h",
        "amburger"
      ],
      [
        "k",
        "ype"
      ],
      [
        "l",
        "u"
      ],
      [
        "o",
        "ice"
      ],
      [
        "Ġ",
        "\""
      ],
      [
        "in",
        "formation"
      ],
      [
        "Ġf",
        "eed"
      ],
      [
        "an",
        "t"
      ],
      [
        "an",
        "cing"
      ],
      [
        "re",
        "ferences"
      ],
      [
        "Ġcon",
        "nec"
      ],
      [
        "ch",
        "ange"
      ],
      [
        "Ġre",
        "qu"
      ],
      [
        "Ġma",
        "na"
      ],
      [
        "har",
        "ing"
      ],
      [
        "Ġde",
        "vices"
      ],
      [
        "Ġind",
        "icator"
      ],
      [
        "end",
        "ar"
      ],
      [
        "tic",
        "al"
      ],
      [
        "Ġselection",
        "s"
      ],
      [
        "ĠM",
        "ode"
      ],
      [
        "hedu",
        "le"
      ],
      [
        "hot",
        "os"
      ],
      [
        "Ġdeploy",
        "ment"
      ],
      [
        "D",
        "rive"
      ],
      [
        "R",
        "ain"
      ],
      [
        "T",
        "r"
      ],
      [
        "b",
        "scribe"
      ],
      [
        "f",
        "avorite"
      ],
      [
        "j",
        "oin"
      ],
      [
        "s",
        "how"
      ],
      [
        "z",
        "e"
      ],
      [
        "Ġ",
        "Ex"
      ],
      [
        "Ġa",
        "lign"
      ],
      [
        "te",
        "ction"
      ],
      [
        "at",
        "h"
      ],
      [
        "Ġcon",
        "figur"
      ],
      [
        "Ġcon",
        "firm"
      ],
      [
        "Ġn",
        "etwork"
      ],
      [
        "Ġcom",
        "ment"
      ],
      [
        "ask",
        "et"
      ],
      [
        "Ġorganiz",
        "ation"
      ],
      [
        "De",
        "crease"
      ],
      [
        "ĠO",
        "ffice"
      ],
      [
        "Ġke",
        "ep"
      ],
      [
        "ĠSt",
        "ore"
      ],
      [
        "Ġser",
        "vice"
      ],
      [
        "Control",
        "s"
      ],
      [
        "Redu",
        "ces"
      ],
      [
        "Over",
        "flow"
      ],
      [
        "Ġvisi",
        "bility"
      ],
      [
        "ĠSelect",
        "or"
      ],
      [
        "Ġconfigur",
        "ations"
      ],
      [
        ".",
        "\","
      ],
      [
        "D",
        "ata"
      ],
      [
        "Q",
        "u"
      ],
      [
        "c",
        "art"
      ],
      [
        "i",
        "re"
      ],
      [
        "m",
        "ate"
      ],
      [
        "Ġ",
        "Up"
      ],
      [
        "li",
        "mate"
      ],
      [
        "Ġse",
        "tting"
      ],
      [
        "Ġs",
        "hapes"
      ],
      [
        "ess",
        "ages"
      ],
      [
        "ol",
        "d"
      ],
      [
        "Ġpro",
        "f"
      ],
      [
        "bo",
        "ok"
      ],
      [
        "oti",
        "fy"
      ],
      [
        "ĠF",
        "AQ"
      ],
      [
        "Pro",
        "ceed"
      ],
      [
        "oft",
        "ware"
      ],
      [
        "Ġvi",
        "a"
      ],
      [
        "Ġbrow",
        "sing"
      ],
      [
        "Cont",
        "ent"
      ],
      [
        "Laun",
        "ch"
      ],
      [
        "ci",
        "p"
      ],
      [
        "Di",
        "rectory"
      ],
      [
        "velo",
        "pe"
      ],
      [
        "Ġfunction",
        "ality"
      ],
      [
        "Sub",
        "mit"
      ],
      [
        "Ġiss",
        "ue"
      ],
      [
        "Vide",
        "o"
      ],
      [
        "Ġforecas",
        "ts"
      ],
      [
        "En",
        "velope"
      ],
      [
        "Ġmana",
        "ging"
      ],
      [
        "ĠFAQ",
        "s"
      ],
      [
        "'",
        "s"
      ],
      [
        "C",
        "ut"
      ],
      [
        "G",
        "allery"
      ],
      [
        "N",
        "ote"
      ],
      [
        "S",
        "witch"
      ],
      [
        "U",
        "ndo"
      ],
      [
        "V",
        "olume"
      ],
      [
        "b",
        "le"
      ],
      [
        "e",
        "cu"
      ],
      [
        "m",
        "inimize"
      ],
      [
        "w",
        "eb"
      ],
      [
        "Ġa",
        "cc"
      ],
      [
        "ic",
        "ture"
      ],
      [
        "Ġs",
        "witch"
      ],
      [
        "Ġre",
        "ad"
      ],
      [
        "et",
        "oo"
      ],
      [
        "up",
        "date"
      ],
      [
        "Ġdisplay",
        "ed"
      ],
      [
        "Ġen",
        "h"
      ],
      [
        "mo",
        "dify"
      ],
      [
        "Ġcontex",
        "ts"
      ],
      [
        "Ġcomm",
        "and"
      ],
      [
        "Lay",
        "ers"
      ],
      [
        "Ġqu",
        "ick"
      ],
      [
        "dis",
        "play"
      ],
      [
        "lu",
        "etoo"
      ],
      [
        "cip",
        "itation"
      ],
      [
        "luetoo",
        "th"
      ],
      [
        "A",
        "nalytics"
      ],
      [
        "C",
        "limate"
      ],
      [
        "F",
        "ace"
      ],
      [
        "P",
        "owerPoint"
      ],
      [
        "S",
        "creen"
      ],
      [
        "a",
        "me"
      ],
      [
        "b",
        "r"
      ],
      [
        "c",
        "ount"
      ],
      [
        "r",
        "ight"
      ],
      [
        "u",
        "es"
      ],
      [
        "Ġt",
        "h"
      ],
      [
        "se",
        "d"
      ],
      [
        "st",
        "ar"
      ],
      [
        "re",
        "ad"
      ],
      [
        "Ġre",
        "ce"
      ],
      [
        "Ġre",
        "move"
      ],
      [
        "il",
        "y"
      ],
      [
        "In",
        "ternet"
      ],
      [
        "Ġst",
        "atistics"
      ],
      [
        "St",
        "atistics"
      ],
      [
        "ab",
        "or"
      ],
      [
        "Ġmo",
        "ve"
      ],
      [
        "oll",
        "abor"
      ],
      [
        "feren",
        "ce"
      ],
      [
        "du",
        "c"
      ],
      [
        "ĠM",
        "essage"
      ],
      [
        "Ġtask",
        "s"
      ],
      [
        "Ġavailab",
        "ility"
      ],
      [
        "Ar",
        "range"
      ],
      [
        "Lo",
        "c"
      ],
      [
        "vent",
        "s"
      ],
      [
        "right",
        "ness"
      ],
      [
        "Ġrece",
        "ive"
      ],
      [
        "B",
        "ranch"
      ],
      [
        "O",
        "r"
      ],
      [
        "c",
        "opy"
      ],
      [
        "n",
        "otification"
      ],
      [
        "o",
        "log"
      ],
      [
        "s",
        "hare"
      ],
      [
        "z",
        "oom"
      ],
      [
        "Ġ",
        "cri"
      ],
      [
        "Ġ",
        "zoom"
      ],
      [
        "en",
        "sions"
      ],
      [
        "Ġa",
        "lert"
      ],
      [
        "se",
        "ttings"
      ],
      [
        "ac",
        "ts"
      ],
      [
        "ali",
        "c"
      ],
      [
        "Ġc",
        "all"
      ],
      [
        "Ġc",
        "loses"
      ],
      [
        "re",
        "d"
      ],
      [
        "Ġs",
        "lide"
      ],
      [
        "Ġs",
        "haring"
      ],
      [
        "al",
        "th"
      ],
      [
        "ho",
        "d"
      ],
      [
        "cu",
        "s"
      ],
      [
        "ad",
        "d"
      ],
      [
        "ad",
        "ge"
      ],
      [
        "ap",
        "ture"
      ],
      [
        "bo",
        "okmark"
      ],
      [
        "Ġg",
        "am"
      ],
      [
        "am",
        "s"
      ],
      [
        "Ġv",
        "olume"
      ],
      [
        "Ġloc",
        "ations"
      ],
      [
        "ak",
        "er"
      ],
      [
        "ci",
        "al"
      ],
      [
        "Ġacti",
        "vity"
      ],
      [
        "raph",
        "ic"
      ],
      [
        "terna",
        "l"
      ],
      [
        "raw",
        "ing"
      ],
      [
        "Sp",
        "lit"
      ],
      [
        "olog",
        "y"
      ],
      [
        "I",
        "mage"
      ],
      [
        "a",
        "le"
      ],
      [
        "a",
        "ke"
      ],
      [
        "i",
        "el"
      ],
      [
        "n",
        "g"
      ],
      [
        "p",
        "er"
      ],
      [
        "p",
        "uter"
      ],
      [
        "s",
        "p"
      ],
      [
        "Ġ",
        "Input"
      ],
      [
        "Ġt",
        "his"
      ],
      [
        "Ġt",
        "ab"
      ],
      [
        "li",
        "ke"
      ],
      [
        "Ġc",
        "ollabor"
      ],
      [
        "at",
        "ar"
      ],
      [
        "at",
        "ure"
      ],
      [
        "re",
        "e"
      ],
      [
        "er",
        "ature"
      ],
      [
        "Ġn",
        "otification"
      ],
      [
        "Se",
        "arch"
      ],
      [
        "Ex",
        "port"
      ],
      [
        "St",
        "ore"
      ],
      [
        "ten",
        "tion"
      ],
      [
        "Ġbe",
        "en"
      ],
      [
        "App",
        "le"
      ],
      [
        "com",
        "bine"
      ],
      [
        "Ġacti",
        "ve"
      ],
      [
        "Ġkey",
        "board"
      ],
      [
        "Ġat",
        "tention"
      ],
      [
        "Ġtr",
        "ack"
      ],
      [
        "Ġcustom",
        "ize"
      ],
      [
        "Ġout",
        "put"
      ],
      [
        "emp",
        "erature"
      ],
      [
        "Ġvisu",
        "al"
      ],
      [
        "au",
        "tion"
      ],
      [
        "Spe",
        "aker"
      ],
      [
        "Ġprof",
        "iles"
      ],
      [
        "iel",
        "d"
      ],
      [
        "C",
        "loud"
      ],
      [
        "M",
        "essages"
      ],
      [
        "N",
        "otify"
      ],
      [
        "O",
        "ne"
      ],
      [
        "b",
        "ar"
      ],
      [
        "h",
        "one"
      ],
      [
        "i",
        "a"
      ],
      [
        "i",
        "me"
      ],
      [
        "i",
        "st"
      ],
      [
        "k",
        "ing"
      ],
      [
        "n",
        "c"
      ],
      [
        "n",
        "i"
      ],
      [
        "s",
        "hopping"
      ],
      [
        "v",
        "es"
      ],
      [
        "Ġ",
        "navigate"
      ],
      [
        "ti",
        "ve"
      ],
      [
        "or",
        "ology"
      ],
      [
        "te",
        "orology"
      ],
      [
        "Ġc",
        "opy"
      ],
      [
        "Ġu",
        "ndo"
      ],
      [
        "Ġin",
        "itiate"
      ],
      [
        "Ġs",
        "hopping"
      ],
      [
        "Ġs",
        "hape"
      ],
      [
        "Ġcont",
        "acts"
      ],
      [
        "Ġli",
        "ke"
      ],
      [
        "ch",
        "ase"
      ],
      [
        "Ġre",
        "load"
      ],
      [
        "Se",
        "curity"
      ],
      [
        "Ġe",
        "vents"
      ],
      [
        "ter",
        "ia"
      ],
      [
        "Ġad",
        "v"
      ],
      [
        "si",
        "tion"
      ],
      [
        "end",
        "ing"
      ],
      [
        "Ġmo",
        "st"
      ],
      [
        "ain",
        "t"
      ],
      [
        "gg",
        "estion"
      ],
      [
        "De",
        "lete"
      ],
      [
        "Com",
        "bin"
      ],
      [
        "Ġprogr",
        "am"
      ],
      [
        "Lay",
        "er"
      ],
      [
        "pro",
        "vide"
      ],
      [
        "ĠL",
        "ight"
      ],
      [
        "Ġpresent",
        "ations"
      ],
      [
        "Ġcre",
        "ating"
      ],
      [
        "Ġdese",
        "lect"
      ],
      [
        "Ġcri",
        "teria"
      ],
      [
        "Combin",
        "es"
      ],
      [
        "G",
        "roup"
      ],
      [
        "M",
        "usic"
      ],
      [
        "a",
        "f"
      ],
      [
        "c",
        "ending"
      ],
      [
        "l",
        "anguage"
      ],
      [
        "n",
        "is"
      ],
      [
        "o",
        "ther"
      ],
      [
        "p",
        "references"
      ],
      [
        "v",
        "al"
      ],
      [
        "w",
        "o"
      ],
      [
        "Ġ",
        "query"
      ],
      [
        "en",
        "nis"
      ],
      [
        "or",
        "es"
      ],
      [
        "Ġt",
        "wo"
      ],
      [
        "Ġa",
        "nalytics"
      ],
      [
        "Ġc",
        "op"
      ],
      [
        "st",
        "art"
      ],
      [
        "Ġcont",
        "ain"
      ],
      [
        "Ġw",
        "arning"
      ],
      [
        "Ġi",
        "ts"
      ],
      [
        "Ġan",
        "other"
      ],
      [
        "Ġdi",
        "rection"
      ],
      [
        "iz",
        "ation"
      ],
      [
        "Ġup",
        "date"
      ],
      [
        "of",
        "f"
      ],
      [
        "Ġorgan",
        "ize"
      ],
      [
        "Ġedit",
        "or"
      ],
      [
        "pl",
        "or"
      ],
      [
        "Ġcomp",
        "uter"
      ],
      [
        "Ġpur",
        "chase"
      ],
      [
        "Sc",
        "an"
      ],
      [
        "Me",
        "teorology"
      ],
      [
        "Ġob",
        "ject"
      ],
      [
        "Check",
        "box"
      ],
      [
        "brow",
        "ser"
      ],
      [
        "ecu",
        "te"
      ],
      [
        "Face",
        "book"
      ],
      [
        "Ġadv",
        "ancing"
      ],
      [
        "D",
        "ashboard"
      ],
      [
        "P",
        "ython"
      ],
      [
        "P",
        "hotos"
      ],
      [
        "S",
        "y"
      ],
      [
        "S",
        "wit"
      ],
      [
        "V",
        "is"
      ],
      [
        "b",
        "ranch"
      ],
      [
        "f",
        "f"
      ],
      [
        "i",
        "bility"
      ],
      [
        "m",
        "a"
      ],
      [
        "m",
        "ing"
      ],
      [
        "s",
        "is"
      ],
      [
        "x",
        "ed"
      ],
      [
        "Ġ",
        "U"
      ],
      [
        "Ġ",
        "Pro"
      ],
      [
        "li",
        "ng"
      ],
      [
        "ac",
        "h"
      ],
      [
        "me",
        "d"
      ],
      [
        "Ġf",
        "ont"
      ],
      [
        "Ġse",
        "t"
      ],
      [
        "an",
        "ti"
      ],
      [
        "an",
        "el"
      ],
      [
        "vi",
        "ties"
      ],
      [
        "Ġp",
        "hoto"
      ],
      [
        "Ġd",
        "rawing"
      ],
      [
        "ind",
        "icator"
      ],
      [
        "In",
        "crease"
      ],
      [
        "Con",
        "nect"
      ],
      [
        "am",
        "ily"
      ],
      [
        "ĠP",
        "owerPoint"
      ],
      [
        "tex",
        "t"
      ],
      [
        "pe",
        "dia"
      ],
      [
        "ĠO",
        "ut"
      ],
      [
        "Com",
        "bine"
      ],
      [
        "Lay",
        "out"
      ],
      [
        "pl",
        "ore"
      ],
      [
        "pl",
        "ace"
      ],
      [
        "Di",
        "rection"
      ],
      [
        "Ġacti",
        "vities"
      ],
      [
        "Wiki",
        "pedia"
      ],
      [
        "Me",
        "dia"
      ],
      [
        "Ġpo",
        "st"
      ],
      [
        "br",
        "ary"
      ],
      [
        "cus",
        "sion"
      ],
      [
        "Ġcop",
        "ied"
      ],
      [
        "plor",
        "er"
      ],
      [
        "Swit",
        "ches"
      ],
      [
        "A",
        "lerts"
      ],
      [
        "B",
        "luetooth"
      ],
      [
        "P",
        "o"
      ],
      [
        "S",
        "S"
      ],
      [
        "u",
        "ser"
      ],
      [
        "ac",
        "es"
      ],
      [
        "ac",
        "count"
      ],
      [
        "Ġc",
        "enter"
      ],
      [
        "le",
        "ted"
      ],
      [
        "Ġp",
        "ar"
      ],
      [
        "Ġp",
        "ath"
      ],
      [
        "Ġp",
        "anel"
      ],
      [
        "Ġs",
        "oftware"
      ],
      [
        "lo",
        "be"
      ],
      [
        "al",
        "es"
      ],
      [
        "Ġre",
        "fresh"
      ],
      [
        "Ġma",
        "de"
      ],
      [
        "cu",
        "l"
      ],
      [
        "Ġst",
        "y"
      ],
      [
        "ri",
        "m"
      ],
      [
        "Ġup",
        "ward"
      ],
      [
        "our",
        "ce"
      ],
      [
        "Ġg",
        "raphic"
      ],
      [
        "con",
        "firm"
      ],
      [
        "ome",
        "tric"
      ],
      [
        "ĠI",
        "mage"
      ],
      [
        "Ġen",
        "able"
      ],
      [
        "Adjust",
        "s"
      ],
      [
        "ĠA",
        "lign"
      ],
      [
        "Ġbran",
        "ch"
      ],
      [
        "pro",
        "file"
      ],
      [
        "Redu",
        "ce"
      ],
      [
        "ĠFormat",
        "ting"
      ],
      [
        "atter",
        "y"
      ],
      [
        "duc",
        "ts"
      ],
      [
        "anti",
        "ty"
      ],
      [
        "6",
        "5"
      ],
      [
        "F",
        "i"
      ],
      [
        "M",
        "onitor"
      ],
      [
        "N",
        "otification"
      ],
      [
        "S",
        "h"
      ],
      [
        "W",
        "e"
      ],
      [
        "a",
        "y"
      ],
      [
        "a",
        "lert"
      ],
      [
        "c",
        "lose"
      ],
      [
        "d",
        "ocument"
      ],
      [
        "f",
        "ied"
      ],
      [
        "i",
        "res"
      ],
      [
        "i",
        "Cloud"
      ],
      [
        "l",
        "ess"
      ],
      [
        "Ġ",
        "Zoom"
      ],
      [
        "Ġa",
        "ut"
      ],
      [
        "li",
        "des"
      ],
      [
        "li",
        "st"
      ],
      [
        "se",
        "lection"
      ],
      [
        "Ġor",
        "der"
      ],
      [
        "me",
        "dia"
      ],
      [
        "Ġto",
        "p"
      ],
      [
        "Ġf",
        "ilter"
      ],
      [
        "vi",
        "sion"
      ],
      [
        "Ġp",
        "rin"
      ],
      [
        "Ġcon",
        "nect"
      ],
      [
        "Ġcon",
        "figuration"
      ],
      [
        "Ġd",
        "ashboard"
      ],
      [
        "nd",
        "er"
      ],
      [
        "Se",
        "lection"
      ],
      [
        "ab",
        "ility"
      ],
      [
        "Ġsu",
        "b"
      ],
      [
        "Ġdes",
        "ktop"
      ],
      [
        "ĠC",
        "enter"
      ],
      [
        "ĠA",
        "pp"
      ],
      [
        "Ġpl",
        "aces"
      ],
      [
        "De",
        "ploy"
      ],
      [
        "Ġtask",
        "bar"
      ],
      [
        "su",
        "bscribe"
      ],
      [
        "com",
        "ments"
      ],
      [
        "Wiki",
        "media"
      ],
      [
        "Ġ3",
        "65"
      ],
      [
        "Des",
        "ktop"
      ],
      [
        "Ġrequ",
        "ires"
      ],
      [
        "Ġenh",
        "ance"
      ],
      [
        "A",
        "v"
      ],
      [
        "A",
        "cti"
      ],
      [
        "C",
        "al"
      ],
      [
        "C",
        "aution"
      ],
      [
        "F",
        "ind"
      ],
      [
        "O",
        "S"
      ],
      [
        "P",
        "as"
      ],
      [
        "P",
        "hoto"
      ],
      [
        "P",
        "aint"
      ],
      [
        "W",
        "arning"
      ],
      [
        "b",
        "asket"
      ],
      [
        "d",
        "o"
      ],
      [
        "f",
        "in"
      ],
      [
        "g",
        "in"
      ],
      [
        "g",
        "ion"
      ],
      [
        "m",
        "ensions"
      ],
      [
        "n",
        "ew"
      ],
      [
        "o",
        "ption"
      ],
      [
        "o",
        "ck"
      ],
      [
        "o",
        "ot"
      ],
      [
        "t",
        "hod"
      ],
      [
        "u",
        "ll"
      ],
      [
        "Ġ",
        "ro"
      ],
      [
        "Ġ",
        "Control"
      ],
      [
        "ti",
        "al"
      ],
      [
        "ti",
        "vity"
      ],
      [
        "or",
        "s"
      ],
      [
        "Ġt",
        "emperature"
      ],
      [
        "Ġa",
        "naly"
      ],
      [
        "in",
        "ternet"
      ],
      [
        "ro",
        "ve"
      ],
      [
        "Ġp",
        "ack"
      ],
      [
        "Ġp",
        "rivacy"
      ],
      [
        "Ġcon",
        "fir"
      ],
      [
        "Ġs",
        "lides"
      ],
      [
        "Se",
        "cure"
      ],
      [
        "Ġdi",
        "mensions"
      ],
      [
        "Ġpro",
        "jects"
      ],
      [
        "ed",
        "In"
      ],
      [
        "Ġup",
        "load"
      ],
      [
        "Ġme",
        "thod"
      ],
      [
        "Ġv",
        "oice"
      ],
      [
        "ĠA",
        "r"
      ],
      [
        "Ġsp",
        "ace"
      ],
      [
        "th",
        "ing"
      ],
      [
        "mer",
        "ic"
      ],
      [
        "ick",
        "er"
      ],
      [
        "tr",
        "act"
      ],
      [
        "ĠO",
        "ne"
      ],
      [
        "Com",
        "ment"
      ],
      [
        "ak",
        "ing"
      ],
      [
        "Ġqu",
        "antity"
      ],
      [
        "Ġcustom",
        "ization"
      ],
      [
        "ĠCom",
        "ment"
      ],
      [
        "Des",
        "ign"
      ],
      [
        "Be",
        "ll"
      ],
      [
        "Ke",
        "y"
      ],
      [
        "ĠEx",
        "plorer"
      ],
      [
        "Ġalign",
        "ment"
      ],
      [
        "ire",
        "less"
      ],
      [
        "Loc",
        "ation"
      ],
      [
        "One",
        "Drive"
      ],
      [
        "Av",
        "atar"
      ],
      [
        "Ġconfir",
        "med"
      ],
      [
        "J",
        "oin"
      ],
      [
        "N",
        "etwork"
      ],
      [
        "S",
        "kype"
      ],
      [
        "a",
        "mer"
      ],
      [
        "c",
        "le"
      ],
      [
        "c",
        "al"
      ],
      [
        "e",
        "ams"
      ],
      [
        "l",
        "d"
      ],
      [
        "r",
        "on"
      ],
      [
        "r",
        "ink"
      ],
      [
        "t",
        "ach"
      ],
      [
        "t",
        "aking"
      ],
      [
        "v",
        "ance"
      ],
      [
        "y",
        "te"
      ],
      [
        "Ġ",
        "D"
      ],
      [
        "Ġ",
        "More"
      ],
      [
        "Ġ",
        "Wi"
      ],
      [
        "Ġ",
        "Vis"
      ],
      [
        "es",
        "t"
      ],
      [
        "es",
        "sed"
      ],
      [
        "or",
        "ld"
      ],
      [
        "li",
        "es"
      ],
      [
        "in",
        "us"
      ],
      [
        "ali",
        "z"
      ],
      [
        "Ġc",
        "ount"
      ],
      [
        "Ġthe",
        "m"
      ],
      [
        "st",
        "ore"
      ],
      [
        "st",
        "orage"
      ],
      [
        "re",
        "et"
      ],
      [
        "er",
        "ror"
      ],
      [
        "Ġp",
        "art"
      ],
      [
        "ate",
        "g"
      ],
      [
        "Ġd",
        "ate"
      ],
      [
        "Ġlist",
        "s"
      ],
      [
        "ates",
        "t"
      ],
      [
        "ou",
        "se"
      ],
      [
        "Ad",
        "vance"
      ],
      [
        "Ġst",
        "ar"
      ],
      [
        "Ġpro",
        "ducts"
      ],
      [
        "Ġaccess",
        "ing"
      ],
      [
        "Ġl",
        "atest"
      ],
      [
        "Ġas",
        "s"
      ],
      [
        "ĠT",
        "op"
      ],
      [
        "Ġdis",
        "able"
      ],
      [
        "Ġme",
        "r"
      ],
      [
        "Ġh",
        "as"
      ],
      [
        "Ġim",
        "port"
      ],
      [
        "ĠC",
        "olor"
      ],
      [
        "Pre",
        "cipitation"
      ],
      [
        "mb",
        "ol"
      ],
      [
        "ati",
        "ve"
      ],
      [
        "Ġser",
        "vices"
      ],
      [
        "Ġsc",
        "an"
      ],
      [
        "ble",
        "m"
      ],
      [
        "Ġacc",
        "essed"
      ],
      [
        "Or",
        "der"
      ],
      [
        "ggestion",
        "s"
      ],
      [
        "cul",
        "ator"
      ],
      [
        "Key",
        "board"
      ],
      [
        "amer",
        "a"
      ],
      [
        "C",
        "ode"
      ],
      [
        "G",
        "rid"
      ],
      [
        "O",
        "n"
      ],
      [
        "P",
        "e"
      ],
      [
        "P",
        "erson"
      ],
      [
        "P",
        "icture"
      ],
      [
        "T",
        "ime"
      ],
      [
        "d",
        "uplicate"
      ],
      [
        "e",
        "ar"
      ],
      [
        "e",
        "ch"
      ],
      [
        "f",
        "t"
      ],
      [
        "g",
        "lobe"
      ],
      [
        "i",
        "des"
      ],
      [
        "Ġ",
        "Re"
      ],
      [
        "on",
        "ly"
      ],
      [
        "Ġt",
        "ap"
      ],
      [
        "Ġa",
        "r"
      ],
      [
        "in",
        "an"
      ],
      [
        "Ġc",
        "le"
      ],
      [
        "ĠN",
        "ote"
      ],
      [
        "he",
        "lp"
      ],
      [
        "Ġf",
        "inan"
      ],
      [
        "Ġo",
        "ver"
      ],
      [
        "Ġthe",
        "y"
      ],
      [
        "Ġu",
        "s"
      ],
      [
        "ro",
        "ug"
      ],
      [
        "Ġin",
        "form"
      ],
      [
        "Ġm",
        "at"
      ],
      [
        "er",
        "m"
      ],
      [
        "Ġp",
        "rom"
      ],
      [
        "Ġp",
        "ower"
      ],
      [
        "Ġs",
        "ign"
      ],
      [
        "ess",
        "aging"
      ],
      [
        "Ġof",
        "f"
      ],
      [
        "Ġd",
        "ates"
      ],
      [
        "al",
        "k"
      ],
      [
        "Re",
        "p"
      ],
      [
        "Open",
        "St"
      ],
      [
        "ce",
        "l"
      ],
      [
        "In",
        "ser"
      ],
      [
        "ap",
        "er"
      ],
      [
        "op",
        "le"
      ],
      [
        "end",
        "s"
      ],
      [
        "ĠF",
        "eed"
      ],
      [
        "ĠS",
        "hapes"
      ],
      [
        "ĠS",
        "kype"
      ],
      [
        "con",
        "figuration"
      ],
      [
        "con",
        "versation"
      ],
      [
        "Ġfolder",
        "s"
      ],
      [
        "Ġhe",
        "alth"
      ],
      [
        "Ġbo",
        "okmark"
      ],
      [
        "Ġshow",
        "ing"
      ],
      [
        "App",
        "ly"
      ],
      [
        "App",
        "lies"
      ],
      [
        "Com",
        "puter"
      ],
      [
        "Ġversion",
        "s"
      ],
      [
        "Ġcomp",
        "leted"
      ],
      [
        "check",
        "box"
      ],
      [
        "Ġun",
        "read"
      ],
      [
        "Ġconnec",
        "tivity"
      ],
      [
        "Tr",
        "ash"
      ],
      [
        "Ġcommand",
        "s"
      ],
      [
        "Ġth",
        "roug"
      ],
      [
        "Ġprogram",
        "ming"
      ],
      [
        "Sy",
        "stem"
      ],
      [
        "nder",
        "line"
      ],
      [
        "Pas",
        "te"
      ],
      [
        "reet",
        "Map"
      ],
      [
        "Ġimport",
        "ant"
      ],
      [
        "Pe",
        "ople"
      ],
      [
        "OpenSt",
        "reetMap"
      ],
      [
        "Inser",
        "ts"
      ],
      [
        "Ġthroug",
        "h"
      ],
      [
        "A",
        "ut"
      ],
      [
        "A",
        "ir"
      ],
      [
        "B",
        "in"
      ],
      [
        "B",
        "yte"
      ],
      [
        "D",
        "F"
      ],
      [
        "F",
        "ilter"
      ],
      [
        "O",
        "ption"
      ],
      [
        "P",
        "ar"
      ],
      [
        "P",
        "ick"
      ],
      [
        "S",
        "af"
      ],
      [
        "W",
        "ord"
      ],
      [
        "c",
        "y"
      ],
      [
        "c",
        "olor"
      ],
      [
        "c",
        "lone"
      ],
      [
        "i",
        "o"
      ],
      [
        "l",
        "ash"
      ],
      [
        "p",
        "r"
      ],
      [
        "s",
        "c"
      ],
      [
        "t",
        "ures"
      ],
      [
        "v",
        "ate"
      ],
      [
        "v",
        "enu"
      ],
      [
        "Ġ",
        "GitLab"
      ],
      [
        "tion",
        "ary"
      ],
      [
        "Ġt",
        "ag"
      ],
      [
        "Ġc",
        "ateg"
      ],
      [
        "he",
        "ma"
      ],
      [
        "Ġf",
        "i"
      ],
      [
        "Ġin",
        "box"
      ],
      [
        "Ġcon",
        "versation"
      ],
      [
        "Ġs",
        "h"
      ],
      [
        "Ġs",
        "ome"
      ],
      [
        "Ġs",
        "croll"
      ],
      [
        "Re",
        "mo"
      ],
      [
        "Ġn",
        "ot"
      ],
      [
        "Ġb",
        "old"
      ],
      [
        "Ġre",
        "ports"
      ],
      [
        "cre",
        "ases"
      ],
      [
        "Ġma",
        "king"
      ],
      [
        "present",
        "ation"
      ],
      [
        "Ġdi",
        "rectory"
      ],
      [
        "Ġpro",
        "tection"
      ],
      [
        "Ġde",
        "lete"
      ],
      [
        "ir",
        "ror"
      ],
      [
        "oun",
        "ts"
      ],
      [
        "ĠS",
        "lide"
      ],
      [
        "Ġg",
        "ame"
      ],
      [
        "iss",
        "ors"
      ],
      [
        "ĠB",
        "la"
      ],
      [
        "For",
        "k"
      ],
      [
        "du",
        "ce"
      ],
      [
        "Up",
        "dates"
      ],
      [
        "Ġit",
        "alic"
      ],
      [
        "Ġle",
        "ad"
      ],
      [
        "ra",
        "dio"
      ],
      [
        "Ġlevel",
        "s"
      ],
      [
        "Sc",
        "hedule"
      ],
      [
        "Sc",
        "issors"
      ],
      [
        "Li",
        "st"
      ],
      [
        "Ġcre",
        "ation"
      ],
      [
        "Ġmark",
        "eting"
      ],
      [
        "Link",
        "edIn"
      ],
      [
        "Ġcal",
        "endar"
      ],
      [
        "ist",
        "ory"
      ],
      [
        "Ġpath",
        "s"
      ],
      [
        "We",
        "Chat"
      ],
      [
        "oot",
        "ball"
      ],
      [
        "Ġmat",
        "hema"
      ],
      [
        "venu",
        "e"
      ],
      [
        "C",
        "enter"
      ],
      [
        "H",
        "ighlight"
      ],
      [
        "I",
        "m"
      ],
      [
        "M",
        "ain"
      ],
      [
        "R",
        "SS"
      ],
      [
        "b",
        "adge"
      ],
      [
        "d",
        "rop"
      ],
      [
        "h",
        "as"
      ],
      [
        "m",
        "ac"
      ],
      [
        "o",
        "tion"
      ],
      [
        "o",
        "cial"
      ],
      [
        "p",
        "erson"
      ],
      [
        "s",
        "y"
      ],
      [
        "t",
        "ranslate"
      ],
      [
        "u",
        "meric"
      ],
      [
        "Ġ",
        "ge"
      ],
      [
        "Ġ",
        "In"
      ],
      [
        "Ġ",
        "Edit"
      ],
      [
        "on",
        "ent"
      ],
      [
        "Ġt",
        "ake"
      ],
      [
        "Ġt",
        "rim"
      ],
      [
        "se",
        "cure"
      ],
      [
        "pp",
        "et"
      ],
      [
        "as",
        "ure"
      ],
      [
        "te",
        "gr"
      ],
      [
        "Ġto",
        "ge"
      ],
      [
        "he",
        "me"
      ],
      [
        "ic",
        "tures"
      ],
      [
        "Ġo",
        "per"
      ],
      [
        "ar",
        "ger"
      ],
      [
        "Ġm",
        "onitor"
      ],
      [
        "Ġs",
        "ales"
      ],
      [
        "Ġd",
        "ark"
      ],
      [
        "al",
        "le"
      ],
      [
        "down",
        "load"
      ],
      [
        "Ex",
        "ecute"
      ],
      [
        "ocu",
        "s"
      ],
      [
        "Ind",
        "icate"
      ],
      [
        "fic",
        "ation"
      ],
      [
        "Con",
        "vert"
      ],
      [
        "av",
        "ing"
      ],
      [
        "Ġg",
        "allery"
      ],
      [
        "am",
        "ing"
      ],
      [
        "ata",
        "log"
      ],
      [
        "Ġdisplay",
        "ing"
      ],
      [
        "Ġsection",
        "s"
      ],
      [
        "Ġpl",
        "ace"
      ],
      [
        "He",
        "art"
      ],
      [
        "su",
        "pport"
      ],
      [
        "ot",
        "ate"
      ],
      [
        "Ġr",
        "ight"
      ],
      [
        "Mark",
        "s"
      ],
      [
        "Lo",
        "ck"
      ],
      [
        "Ġval",
        "ues"
      ],
      [
        "atter",
        "n"
      ],
      [
        "Ke",
        "ep"
      ],
      [
        "Ġconnec",
        "ted"
      ],
      [
        "asket",
        "ball"
      ],
      [
        "Ġgam",
        "es"
      ],
      [
        "Ġgam",
        "ing"
      ],
      [
        "Ġcollabor",
        "ation"
      ],
      [
        "ni",
        "ppet"
      ],
      [
        "Ġupward",
        "s"
      ],
      [
        "ay",
        "ment"
      ],
      [
        "fin",
        "e"
      ],
      [
        "Ġupload",
        "ing"
      ],
      [
        "ĠAr",
        "row"
      ],
      [
        "ĠOne",
        "Note"
      ],
      [
        "aliz",
        "ation"
      ],
      [
        "Ġcle",
        "an"
      ],
      [
        "Ġfinan",
        "cial"
      ],
      [
        "Ġfi",
        "xed"
      ],
      [
        "Ġsome",
        "thing"
      ],
      [
        "Ġmathema",
        "tical"
      ],
      [
        "Im",
        "ages"
      ],
      [
        "mac",
        "OS"
      ],
      [
        "sy",
        "nc"
      ],
      [
        "Ġtoge",
        "ther"
      ],
      [
        "F",
        "ill"
      ],
      [
        "F",
        "avorites"
      ],
      [
        "I",
        "t"
      ],
      [
        "M",
        "inus"
      ],
      [
        "P",
        "ower"
      ],
      [
        "P",
        "rivacy"
      ],
      [
        "V",
        "oice"
      ],
      [
        "X",
        "box"
      ],
      [
        "d",
        "en"
      ],
      [
        "f",
        "eed"
      ],
      [
        "i",
        "ki"
      ],
      [
        "i",
        "eve"
      ],
      [
        "m",
        "ind"
      ],
      [
        "m",
        "art"
      ],
      [
        "n",
        "ow"
      ],
      [
        "n",
        "er"
      ],
      [
        "o",
        "g"
      ],
      [
        "o",
        "ver"
      ],
      [
        "o",
        "ci"
      ],
      [
        "r",
        "us"
      ],
      [
        "s",
        "s"
      ],
[...]
